<unk>	0
<s>	0
</s>	0
।	-3.01738
,	-3.70396
▁	-3.93804
ের	-4.25309
র	-4.5181
▁এবং	-4.58863
-	-4.64232
▁ও	-4.68062
▁হয়	-4.77182
▁করে	-4.96877
.	-5.01523
ে	-5.14424
▁এই	-5.18218
▁করেন	-5.20093
▁তিনি	-5.22035
▁একটি	-5.25202
▁থেকে	-5.34524
▁করা	-5.35265
▁সালে	-5.40305
কে	-5.41429
▁এর	-5.60269
▁তার	-5.65031
▁জন্য	-5.7853
▁বা	-5.91347
ই	-5.93804
▁ছিল	-5.94376
▁এ	-5.99889
ও	-6.00446
▁হিসেবে	-6.01605
▁q	-6.02188
▁�	-6.03479
▁মধ্যে	-6.04365
▁সালের	-6.16832
▁যায়	-6.20078
▁সাথে	-6.20834
▁তাঁর	-6.21559
▁প্রথম	-6.22158
X	-6.23824
টি	-6.23852
▁যে	-6.24853
তে	-6.26623
▁হয়ে	-6.3146
▁ছিলেন	-6.32139
▁না	-6.32736
য়	-6.38809
:	-6.39564
▁এটি	-6.40618
▁"	-6.41636
▁যা	-6.42292
▁পর	-6.43057
ন	-6.43979
▁এক	-6.46519
▁হয়েছে	-6.50033
▁রয়েছে	-6.52693
▁হল	-6.53009
▁করতে	-6.5386
▁হন	-6.56613
দের	-6.57893
"	-6.5989
স	-6.60575
▁থাকে	-6.60883
▁সময়	-6.62795
া	-6.63083
▁একজন	-6.63584
▁তাদের	-6.67274
রা	-6.67367
▁নিয়ে	-6.67428
▁বছর	-6.67648
�	-6.68509
▁শুরু	-6.72109
▁বিভিন্ন	-6.7544
▁নাম	-6.77215
'	-6.77699
▁পর্যন্ত	-6.79177
▁·	-6.80393
▁করার	-6.81403
▁কিন্তু	-6.83595
ি	-6.84891
▁কিছু	-6.87785
▁অবস্থিত	-6.91295
▁প্রধান	-6.92814
;	-6.93169
▁বলে	-6.94087
ী	-6.95275
▁উত্তর	-6.95424
▁আল	-6.9544
▁মাধ্যমে	-6.96138
▁দিয়ে	-6.96859
▁কোন	-6.98752
▁জন	-6.98859
▁নামে	-6.98901
▁আছে	-6.99336
▁প্রায়	-7.00201
এর	-7.00534
▁হতে	-7.01532
▁ব্যবহার	-7.03237
▁ভারতের	-7.03459
▁তারা	-7.03477
ক	-7.04499
▁লাভ	-7.0487
▁অনেক	-7.04907
▁কাজ	-7.06111
▁পারে	-7.06123
▁করেছেন	-7.07002
▁পূর্ব	-7.07144
▁তবে	-7.07859
▁তা	-7.08
▁আর	-7.08672
▁দক্ষিণ	-7.09327
▁হয়েছিল	-7.09856
▁জাতীয়	-7.12253
▁অংশ	-7.12302
’	-7.15308
▁দ্বারা	-7.15334
▁উপর	-7.15998
▁সে	-7.18128
ম	-7.22449
▁দেখা	-7.24157
▁বাংলাদেশের	-7.24673
▁দলের	-7.24743
▁তাকে	-7.24915
▁অন্যান্য	-7.25163
▁ক্রিকেট	-7.2825
▁যার	-7.28251
▁ফলে	-7.29063
▁বেশি	-7.29939
ল	-7.30577
▁জেলার	-7.31438
▁বিশ্ববিদ্যালয়	-7.32687
▁চলচ্চিত্র	-7.3324
এ	-7.33264
▁দল	-7.33314
▁দ্বিতীয়	-7.33755
▁হার	-7.34161
▁হচ্ছে	-7.34245
▁দিকে	-7.34565
▁দুই	-7.35275
▁দেন	-7.36672
▁পরিচিত	-7.36728
▁১	-7.36878
°	-7.37251
▁সঙ্গে	-7.37573
▁পরে	-7.38113
▁বাংলাদেশ	-7.38812
▁অন্যতম	-7.39731
s	-7.40796
▁করেছিলেন	-7.40971
▁বলা	-7.41262
▁পাওয়া	-7.42987
▁নতুন	-7.43765
▁'	-7.44107
▁প্রতি	-7.45142
▁শেষ	-7.45797
▁২	-7.45938
▁সাল	-7.46281
▁কারণে	-7.4634
▁•	-7.46489
ভাবে	-7.47115
▁হবে	-7.47337
তা	-7.48244
▁আন্তর্জাতিক	-7.4899
▁ভাষা	-7.49468
▁ভারতীয়	-7.49793
▁সেই	-7.50585
▁কাছে	-7.50666
▁বড়	-7.5073
▁তৈরি	-7.51652
▁সদস্য	-7.51986
▁এখানে	-7.5215
্	-7.52398
▁পুরস্কার	-7.52685
ত	-7.54807
▁বর্তমানে	-7.57321
▁দেয়	-7.57495
▁‘	-7.58034
▁দ্য	-7.59954
গুলো	-7.60018
%	-7.60813
▁সবচেয়ে	-7.60938
▁সরকার	-7.61111
ো	-7.62397
▁বাংলা	-7.62606
▁অ	-7.62614
▁হিসাবে	-7.62943
▁টি	-7.63254
▁কথা	-7.63526
▁যেমন	-7.63812
না	-7.63824
▁৩	-7.63942
▁মার্কিন	-7.6436
▁করেছে	-7.64906
▁অভিনয়	-7.64967
▁মত	-7.65085
ীয়	-7.65274
▁ইবনে	-7.65451
▁কোনো	-7.6556
জ	-7.6607
▁বিশেষ	-7.66497
▁এছাড়াও	-7.66558
/	-7.66664
▁ইউনিয়ন	-7.67278
▁অনুষ্ঠিত	-7.6764
গুলি	-7.67714
▁the	-7.678
▁কারণ	-7.67807
▁একই	-7.68099
ার	-7.68324
▁শহরের	-7.68639
▁তখন	-7.69712
▁সময়ে	-7.69744
▁অব	-7.71865
▁ভারত	-7.72058
▁প্রদান	-7.73188
▁নয়	-7.73309
▁বেশ	-7.73425
▁প্রকাশ	-7.73924
▁ক্ষেত্রে	-7.73963
▁এরপর	-7.74268
▁-	-7.74544
▁পালন	-7.7487
▁শহর	-7.74926
▁ঘটে	-7.75302
▁মে	-7.75307
▁কম	-7.75686
▁গ্রহণ	-7.76043
▁বিপক্ষে	-7.76075
▁যখন	-7.76305
▁পায়	-7.76329
▁সংখ্যা	-7.76337
▁৬	-7.76503
▁দায়িত্ব	-7.76549
▁মূল	-7.77052
▁শিক্ষা	-7.77205
ব	-7.77717
▁অর্জন	-7.77794
▁সকল	-7.78425
▁বি	-7.78472
▁যান	-7.78894
▁তাঁকে	-7.79331
নি	-7.79398
▁সাধারণ	-7.79537
▁খেলায়	-7.79978
▁যেখানে	-7.807
▁ব্যবহৃত	-7.8083
▁দিন	-7.80981
▁দুটি	-7.81211
▁of	-7.81499
▁স্থান	-7.81855
▁অন্য	-7.82813
▁অনুসারে	-7.82832
▁পান	-7.83963
▁মনে	-7.84244
পুর	-7.84358
▁দেশের	-7.84985
▁কলেজ	-7.8562
▁ঢাকা	-7.85663
৫	-7.85914
▁অর্থ	-7.86061
▁৪	-7.86313
▁ছোট	-7.86966
▁কর্তৃক	-7.87274
টির	-7.8791
▁নামক	-7.87917
সহ	-7.87935
▁দেয়া	-7.8815
▁পূর্বে	-7.8823
▁গড়ে	-7.88267
▁ব্রিটিশ	-7.88277
▁অনুযায়ী	-7.88562
▁অবস্থান	-7.8904
▁প্রকাশিত	-7.89452
▁দেওয়া	-7.8978
▁১০	-7.89837
▁নদী	-7.89847
শ	-7.90012
▁মধ্য	-7.90065
▁বিরুদ্ধে	-7.9021
▁৫	-7.90424
▁সব	-7.9066
▁যদিও	-7.913
ং	-7.91531
০০০	-7.91629
১	-7.91748
▁১৫	-7.92087
▁নি	-7.92094
িত	-7.92226
▁গঠিত	-7.92354
▁তারিখে	-7.92435
▁পরবর্তীতে	-7.92495
▁স	-7.92584
▁অফ	-7.93001
▁জেলা	-7.93085
▁মোট	-7.93219
▁ঐ	-7.93456
▁এছাড়া	-7.9367
িক	-7.9443
▁রান	-7.94976
মা	-7.9533
▁গুরুত্বপূর্ণ	-7.95848
▁তিন	-7.96423
▁মা	-7.96785
▁করতেন	-7.96907
▁আগে	-7.97214
▁হলে	-7.97384
▁হওয়ার	-7.9752
২	-7.9838
▁মতো	-7.99345
▁হলো	-7.99481
▁আরও	-7.99571
▁পশ্চিম	-7.99621
▁জন্ম	-7.99642
▁/	-7.99648
▁কেন্দ্র	-7.99852
বি	-8.00386
▁চলে	-8.0086
▁রাজ্যের	-8.01125
▁যুদ্ধ	-8.01458
▁“	-8.0152
▁এদের	-8.02108
▁যোগ	-8.02256
▁সাক্ষরতা	-8.0237
▁ধরনের	-8.02479
▁ধরে	-8.03288
লি	-8.03884
▁বলেন	-8.03914
▁পড়ে	-8.04076
▁ঘোষণা	-8.04278
ট	-8.04361
▁উল্লেখ	-8.04895
▁কে	-8.04946
▁হত	-8.05332
▁বছরের	-8.05574
ঃ	-8.05812
▁সৃষ্টি	-8.05918
▁নেন	-8.06163
▁প্রতিষ্ঠিত	-8.06284
▁অঞ্চলে	-8.06326
▁উপজেলার	-8.06523
▁পুরুষ	-8.06542
▁প্রাচীন	-8.06563
টা	-8.0665
▁নারী	-8.0691
▁১৭	-8.07037
▁সেখানে	-8.07163
সি	-8.0758
%,	-8.07825
ড	-8.08082
▁মূলত	-8.08266
▁আবার	-8.0845
▁নির্বাচিত	-8.08546
▁ব্যবস্থা	-8.08548
▁তিনটি	-8.08567
হ	-8.08757
▁মুসলিম	-8.08776
▁বিখ্যাত	-8.08783
▁তাই	-8.09291
▁উচ্চ	-8.09313
▁বর্তমান	-8.09462
▁মাত্র	-8.09636
কা	-8.0981
▁টেস্ট	-8.09836
▁রাজা	-8.0992
লা	-8.1016
▁অথবা	-8.1017
প	-8.10536
▁যিনি	-8.10561
▁পক্ষে	-8.10592
▁এলাকা	-8.10852
▁আরো	-8.11051
▁খান	-8.11103
▁ভাষায়	-8.11116
▁সাধারণত	-8.11226
গুলির	-8.11326
▁ইত্যাদি	-8.11361
▁সর্বোচ্চ	-8.11504
▁এতে	-8.11525
▁সহ	-8.11639
▁নির্মাণ	-8.1173
▁এমন	-8.11732
▁থাকেন	-8.12287
▁মানুষ	-8.12325
▁বিশ্বের	-8.12676
▁খুব	-8.13144
▁রাজনৈতিক	-8.13261
▁মাসে	-8.13688
▁করেছিল	-8.1404
▁মানুষের	-8.14142
▁সম্পর্কে	-8.14553
▁১৬	-8.15293
▁আসে	-8.15513
▁অন্তর্ভুক্ত	-8.15555
▁নির্মিত	-8.15638
▁দেশ	-8.16093
▁অঞ্চল	-8.16111
▁উল্লেখযোগ্য	-8.1619
▁জনপ্রিয়	-8.16543
▁মার্চ	-8.16885
▁আইন	-8.17567
▁১২	-8.17588
▁ইউনিয়নের	-8.17657
▁মতে	-8.17943
▁আ	-8.18014
▁জয়	-8.18202
▁বিষয়ে	-8.18407
▁২০	-8.18639
িং	-8.19078
▁কিলোমিটার	-8.19178
▁গান	-8.19417
▁সি	-8.19603
▁পাকিস্তান	-8.20674
▁ই	-8.20741
▁গঠন	-8.21395
▁২০১১	-8.21442
▁সামরিক	-8.21616
দ	-8.22128
▁পরিচালনা	-8.22164
▁আধুনিক	-8.22683
বা	-8.22832
▁কি	-8.22926
▁৭	-8.22955
▁ধর্ম	-8.22988
”	-8.23194
▁নেয়	-8.23344
▁হলেও	-8.23571
▁তৃতীয়	-8.23702
▁মিটার	-8.23714
গ	-8.23923
▁যুক্ত	-8.24161
▁পরিবর্তন	-8.24699
পা	-8.24897
▁অঞ্চলের	-8.25352
▁ভাষার	-8.25432
মি	-8.2627
▁স্বাধীনতা	-8.26343
▁৮	-8.26523
▁অংশগ্রহণ	-8.26538
▁ডি	-8.26621
▁পাশাপাশি	-8.26628
ঁ	-8.26649
▁বিশ্ব	-8.26866
▁পরিচালিত	-8.26941
▁চার	-8.26999
▁লেখা	-8.2718
▁রাজধানী	-8.27305
▁প্রতিষ্ঠা	-8.27464
▁দলে	-8.2789
▁খেলার	-8.28127
তম	-8.28329
▁ক্রিকেটে	-8.28387
▁ভাগ	-8.28557
▁ডিসেম্বর	-8.28951
▁ধারণা	-8.29114
তার	-8.29171
▁ভূমিকা	-8.29999
▁স্থানীয়	-8.3007
▁১৪	-8.30149
▁তথ্য	-8.30164
▁উইকেট	-8.30208
▁রাজ্য	-8.30234
▁সরকারের	-8.30307
▁এলাকায়	-8.30315
▁সেরা	-8.30323
′	-8.30467
▁পরবর্তী	-8.30485
▁নিজের	-8.30666
▁নেই	-8.30694
▁জীবন	-8.30729
▁and	-8.30749
▁স্কুল	-8.30849
▁জন্মগ্রহণ	-8.31199
▁সু	-8.31562
৩	-8.31623
▁খেলা	-8.31817
▁হিন্দু	-8.32189
▁বহু	-8.32272
জি	-8.32352
▁বিদ্যালয়	-8.32621
▁থেকেই	-8.32771
▁জনসংখ্যা	-8.32804
▁হলেন	-8.3284
▁দু	-8.32859
▁কয়েকটি	-8.33289
▁নদীর	-8.33343
▁১৮	-8.33471
▁ইসলাম	-8.33475
▁মৌসুমে	-8.33514
কারী	-8.33675
▁গবেষণা	-8.33736
গুলোর	-8.33906
▁যুদ্ধে	-8.34047
▁প্রভাব	-8.34372
▁উপজেলা	-8.34674
▁বয়সে	-8.35066
▁হাজার	-8.35187
িয়া	-8.35343
▁রচনা	-8.35533
▁যদি	-8.3584
▁সরকারি	-8.35851
▁যেতে	-8.35939
▁রাখা	-8.36295
▁ফিরে	-8.36688
▁জুন	-8.36717
▁চলচ্চিত্রে	-8.3684
▁স্থানে	-8.36875
▁১৩	-8.36961
▁১১	-8.37184
▁যারা	-8.37508
▁শহরে	-8.37618
▁সারা	-8.37976
▁সম্পর্ক	-8.38018
▁আসেন	-8.38047
লে	-8.38099
▁শব্দ	-8.38261
▁পরাজিত	-8.38559
▁মাঝে	-8.39405
▁বিমান	-8.39415
▁এটা	-8.39739
▁বৃদ্ধি	-8.39773
ভ	-8.39979
▁চালু	-8.40558
▁প্রচলিত	-8.40685
▁লোক	-8.40756
াল	-8.41088
▁সুযোগ	-8.41313
%।	-8.41478
▁খ্রিস্টাব্দে	-8.41903
▁গেছে	-8.41988
কার	-8.42101
▁২০১৪	-8.42105
▁২০১২	-8.42139
▁জানুয়ারি	-8.42187
▁পরিণত	-8.42435
ফ	-8.42651
▁৩০	-8.43028
৪	-8.43084
▁প্রতিষ্ঠান	-8.43128
▁কলকাতা	-8.43157
▁মৃত্যুর	-8.43569
َ	-8.43688
▁২০১০	-8.43713
▁জুলাই	-8.4372
▁হাতে	-8.43734
▁in	-8.43907
▁ব্যক্তি	-8.43955
▁সঙ্গীত	-8.44127
▁স্থাপন	-8.44153
▁এপ্রিল	-8.44291
▁প্রাথমিক	-8.44623
▁যাতে	-8.44935
▁জানা	-8.44939
▁ক্ষমতা	-8.44984
▁একে	-8.4511
ু	-8.45153
▁অধিকাংশ	-8.45296
▁নিউ	-8.455
্য	-8.45545
▁মুক্তি	-8.45603
▁নভেম্বর	-8.46111
▁অধীনে	-8.46121
▁ফুটবল	-8.46187
▁৯	-8.46834
ুল	-8.4718
▁ওপর	-8.47262
▁দেশে	-8.47496
▁ভিত্তি	-8.47505
▁ছাত্র	-8.47549
▁অন্তর্গত	-8.4761
▁পৃথিবীর	-8.47635
▁শিল্প	-8.47919
▁২০০১	-8.48042
৷	-8.48273
▁দিক	-8.48278
দা	-8.48311
সমূহ	-8.4859
▁বর্ণনা	-8.48603
সা	-8.48634
▁ভারতে	-8.48768
▁পুত্র	-8.48822
▁একমাত্র	-8.4884
▁অক্টোবর	-8.4885
য়ে	-8.48933
রি	-8.49269
▁ক্লাব	-8.49315
▁বিশ্বাস	-8.49536
ডি	-8.50397
▁নামের	-8.50415
▁২০১৩	-8.50575
▁তৎকালীন	-8.50575
▁নির্দিষ্ট	-8.50871
▁রাষ্ট্র	-8.50903
▁বিভাগে	-8.50968
▁বাস	-8.51032
▁করলে	-8.51243
▁দিতে	-8.51576
▁হওয়া	-8.51732
▁ভাবে	-8.52082
▁প্র	-8.52102
▁সদর	-8.5218
▁চট্টগ্রাম	-8.52205
▁২০০৯	-8.52488
▁মন্দির	-8.52662
▁অবস্থায়	-8.52677
▁২৪	-8.52716
▁এম	-8.53001
▁অর্থাৎ	-8.53049
▁to	-8.53076
▁ধর্মীয়	-8.53076
ণ	-8.53099
০	-8.53133
▁মুহাম্মদ	-8.53133
▁বিজ্ঞান	-8.53297
▁২৫	-8.53432
▁২০০৮	-8.53475
▁পানি	-8.53898
▁আক্রমণ	-8.54035
জন	-8.54137
▁ইংরেজি	-8.54234
গণ	-8.54432
▁বিষয়	-8.54512
বার	-8.54736
▁তাঁদের	-8.54872
▁ফেব্রুয়ারি	-8.54921
▁দুইটি	-8.54999
▁বিভাগের	-8.5506
▁রচিত	-8.55117
চ	-8.55126
▁অভিষেক	-8.55328
▁সেপ্টেম্বর	-8.55424
▁বিভাগ	-8.55694
▁২৩	-8.55801
সে	-8.55827
১৯	-8.55837
য়া	-8.55999
▁বই	-8.56064
▁যুক্তরাষ্ট্রের	-8.56393
▁পাকিস্তানের	-8.56443
▁তুলে	-8.56779
▁শক্তি	-8.57109
▁চেষ্টা	-8.57142
▁ছবি	-8.57255
▁ভাই	-8.57299
▁যুদ্ধের	-8.57369
▁আগস্ট	-8.57417
▁কেন্দ্রীয়	-8.57432
▁সংস্থা	-8.57612
▁তৈরী	-8.5766
▁খেলোয়াড়	-8.57661
▁নামকরণ	-8.57784
▁আরব	-8.5823
▁একটা	-8.58346
▁উভয়	-8.58356
▁ক	-8.58422
▁ছিলো	-8.58454
▁২২	-8.58608
স্	-8.58726
থ	-8.58783
▁রেল	-8.58894
জা	-8.5892
▁ব্যাপক	-8.59057
▁বাহিনী	-8.59075
▁a	-8.59149
▁মাস	-8.59568
▁মহিলা	-8.59722
▁হয়নি	-8.59768
▁আলী	-8.59892
▁২০১৫	-8.60101
▁২০০৬	-8.60395
▁স্ত্রী	-8.60601
▁বৃহত্তম	-8.6071
▁সক্ষম	-8.60758
▁টেস্টে	-8.60779
)	-8.60918
▁চরিত্রে	-8.61018
▁২০০৭	-8.6112
▁পরিচালক	-8.61152
▁গোল	-8.61311
▁এরা	-8.61544
▁জি	-8.6158
▁বিশিষ্ট	-8.61582
▁পরিমাণ	-8.616
▁পাঁচ	-8.61619
▁সামাজিক	-8.62086
▁পিতা	-8.62144
▁মারা	-8.62255
▁এসে	-8.62464
উ	-8.62922
▁সিদ্ধান্ত	-8.62968
▁বৌদ্ধ	-8.63361
▁আমি	-8.63433
৬	-8.63456
▁বলতে	-8.63497
▁বল	-8.63498
▁বিশ্ববিদ্যালয়ে	-8.63828
▁মিলিয়ন	-8.6385
▁ভিন্ন	-8.63963
▁চেয়ে	-8.64053
▁পি	-8.6407
▁একক	-8.64124
▁লা	-8.64318
▁থাকা	-8.64554
▁ঘটনা	-8.64595
▁এখন	-8.64595
▁দখল	-8.64639
▁উন্নয়ন	-8.64663
▁শ্রেষ্ঠ	-8.64767
▁পর্যায়ে	-8.64832
▁২০১৬	-8.65068
▁পরিবারের	-8.65239
▁শাহ	-8.65262
▁প্রবেশ	-8.65392
▁ইংল্যান্ড	-8.6555
▁বাবা	-8.65808
▁অধিক	-8.66088
আ	-8.66345
▁ঐতিহাসিক	-8.66797
▁রেকর্ড	-8.66809
▁লাল	-8.66834
▁ইতিহাস	-8.6691
ed	-8.67249
▁আবু	-8.67283
▁সংসদ	-8.67374
▁যৌন	-8.67506
▁বিন	-8.67739
তি	-8.67824
▁মান	-8.67939
▁পদ্ধতি	-8.68207
▁গ্রন্থ	-8.68257
কি	-8.68338
▁প্রতিটি	-8.68357
শ্রেণীর	-8.68394
▁রাষ্ট্রপতি	-8.68568
▁গিয়ে	-8.68577
▁বাংলাদেশে	-8.68726
▁জীবনের	-8.6877
▁২১	-8.68779
▁রূপ	-8.6884
▁দীর্ঘ	-8.68861
বে	-8.68883
▁আই	-8.68898
▁সাহায্য	-8.68987
▁নিজ	-8.69008
▁হতো	-8.69123
▁জনসংখ্যার	-8.69184
▁রহমান	-8.69287
▁সন্তান	-8.69378
▁অধিকার	-8.69677
▁শতাব্দীর	-8.69732
▁সংগ্রহ	-8.69748
▁চারটি	-8.69785
কো	-8.69965
▁গ্রাম	-8.70037
মান	-8.70096
▁১৯৭১	-8.70287
▁বের	-8.70648
▁দেখতে	-8.7072
▁শব্দটি	-8.70732
▁কাজে	-8.70761
▁বন্ধ	-8.70853
▁১৯	-8.71212
নো	-8.71374
▁গড়	-8.71445
▁উদ্দেশ্যে	-8.71476
▁বিয়ে	-8.7173
▁হত্যা	-8.71751
▁কবি	-8.71812
▁সম্ভব	-8.71844
▁অস্ট্রেলিয়া	-8.7193
▁সাম্রাজ্যের	-8.72052
▁বিভক্ত	-8.72213
▁সাহিত্য	-8.72375
▁লক্ষ	-8.72425
▁সম্পূর্ণ	-8.727
▁সা	-8.72742
▁দশকে	-8.72795
হা	-8.73062
▁করছে	-8.73604
৭	-8.73695
▁চলচ্চিত্রের	-8.73775
পি	-8.73936
▁তালিকা	-8.742
▁অত্যন্ত	-8.7465
▁সম্পন্ন	-8.74796
▁নির্দেশ	-8.74868
▁কার্যক্রম	-8.75014
▁লীগ	-8.75018
▁নির্বাচনে	-8.75153
▁২৬	-8.75193
▁কয়েক	-8.75349
▁দক্ষিণে	-8.754
▁পরবর্তীকালে	-8.75573
▁গ্রামে	-8.75693
▁লেখক	-8.75817
▁অর্থনৈতিক	-8.76051
ির	-8.76114
▁শিক্ষক	-8.76203
▁সময়ের	-8.76366
▁ছাড়া	-8.76427
▁শতকের	-8.76494
▁পা	-8.76501
৮	-8.76529
▁ইন	-8.76551
▁সমগ্র	-8.76792
নে	-8.77193
▁বসবাস	-8.77416
▁তুলনায়	-8.77697
▁জার্মান	-8.77705
▁উপ	-8.78172
নের	-8.78181
▁উত্তরে	-8.78328
▁ওয়েস্ট	-8.78372
▁পরিকল্পনা	-8.78505
▁করত	-8.78512
শে	-8.78534
▁ধরা	-8.78764
▁যেটি	-8.78768
▁প্রশাসনিক	-8.78776
▁আলাদা	-8.79014
▁বাংলার	-8.79047
▁বিবাহ	-8.7926
অ	-8.79286
–	-8.79325
▁বাইরে	-8.79366
▁আন্দোলন	-8.7952
▁ধরণের	-8.79564
▁ইংরেজ	-8.7975
▁নির্বাচন	-8.799
▁ভবন	-8.7996
▁মৃত্যু	-8.80041
▁ওঠে	-8.80042
্স	-8.80155
▁করবে	-8.80179
▁শেষে	-8.80404
▁সমস্ত	-8.80495
n	-8.80863
▁নারীদের	-8.80987
▁প্রমাণ	-8.81019
▁টেমপ্লেট	-8.813
▁আমার	-8.81486
▁স্বাধীন	-8.81798
▁২০০৫	-8.82021
▁নিজস্ব	-8.82022
▁একাধিক	-8.82077
▁জন্যে	-8.82226
▁অভিনেতা	-8.8228
▁লক্ষ্য	-8.82338
▁ক্রিকেটার	-8.82345
▁আফ্রিকা	-8.82691
▁কম্পিউটার	-8.82747
▁প্রয়োজন	-8.82961
▁শুধুমাত্র	-8.83066
▁রায়	-8.83359
▁কেউ	-8.83378
▁প্রতিযোগিতায়	-8.83386
▁পশ্চিমে	-8.83458
▁দ্রুত	-8.83526
▁রে	-8.83664
▁প্রতিযোগিতা	-8.83692
খ	-8.83709
▁৫০	-8.83732
▁মসজিদ	-8.83883
▁সম্রাট	-8.83966
▁অধ্যাপক	-8.84191
▁২৭	-8.84418
টিকে	-8.84549
▁পারেন	-8.84624
পূর্ব	-8.84662
▁|	-8.84721
▁ব্যাখ্যা	-8.84812
▁নিয়ন্ত্রণ	-8.85193
য়ের	-8.85225
▁মি	-8.85253
▁অ্যান্ড	-8.8526
▁বাহিনীর	-8.85499
▁কাছ	-8.8562
▁ভর্তি	-8.85663
▁পুনরায়	-8.85772
▁২০১৭	-8.86003
▁বার	-8.86168
▁সাবেক	-8.86358
▁তে	-8.86381
▁মনোনীত	-8.86551
▁উৎস	-8.86644
▁শাখা	-8.87014
ভি	-8.87025
▁বৈশিষ্ট্য	-8.87337
দি	-8.87337
r	-8.87386
গা	-8.87625
▁এলাকার	-8.87643
▁দি	-8.87691
▁ইংল্যান্ডের	-8.87771
▁কোটি	-8.87778
▁নেতা	-8.87784
▁প্রজাতির	-8.87828
মো	-8.87943
▁পথ	-8.88031
▁নানা	-8.88051
লো	-8.88271
▁ডিগ্রি	-8.88323
▁পরিবার	-8.88405
▁শেখ	-8.88439
▁পুলিশ	-8.88521
▁তথা	-8.88596
▁তাঁরা	-8.88608
▁চলচ্চিত্রটি	-8.88639
▁যাত্রা	-8.88711
a	-8.88971
য়ার	-8.89147
গত	-8.89168
▁আসন	-8.89175
▁ফরাসি	-8.89385
▁২৮	-8.8947
▁২০০৪	-8.89808
▁খাদ্য	-8.89838
▁এস	-8.90054
▁শিশু	-8.90154
▁কা	-8.90195
▁শাসন	-8.9038
▁দাবি	-8.9046
▁জল	-8.90473
▁অভিনেত্রী	-8.90481
▁নিকট	-8.90533
▁তত্ত্ব	-8.90644
মূলক	-8.9078
y	-8.90796
▁সহায়তা	-8.90998
▁সাদা	-8.91
▁নিযুক্ত	-8.91063
▁কিংবা	-8.91195
▁চুক্তি	-8.914
▁জেলায়	-8.91449
▁প্রধানমন্ত্রী	-8.91491
▁বোলিং	-8.91505
▁উপন্যাস	-8.91541
▁ধীরে	-8.91634
▁জীবনে	-8.91653
▁খ্রিষ্টাব্দে	-8.9174
▁প্রাকৃতিক	-8.91743
▁হয়েছিলেন	-8.91757
▁কালো	-8.91808
▁চৌধুরী	-8.91865
▁বে	-8.91934
▁অ্যা	-8.92038
ড়	-8.92171
▁হবার	-8.92345
কৃত	-8.92357
▁ইউ	-8.92586
▁চতুর্থ	-8.9263
▁সংযুক্ত	-8.92749
▁প্রস্তাব	-8.92755
▁আয়তন	-8.92771
▁মহা	-8.9287
▁বিশাল	-8.93149
▁যোগাযোগ	-8.93253
▁জুড়ে	-8.93374
▁ইতিহাসে	-8.93399
▁পুরুষদের	-8.93582
▁এসেছে	-8.93736
▁১০০	-8.93924
রো	-8.93945
▁প্রতিনিধিত্ব	-8.94005
▁বিস্তৃত	-8.94035
▁তারপর	-8.94071
▁ড	-8.9422
▁সোভিয়েত	-8.94287
▁আয়োজন	-8.94901
A	-8.94997
▁কেবল	-8.95081
▁সমর্থন	-8.95178
মে	-8.95203
ম্যান	-8.95216
t	-8.95252
▁আন্দোলনের	-8.95512
▁নিজেদের	-8.956
▁টেলিভিশন	-8.9565
▁প্রথমে	-8.95822
▁রাজ	-8.95853
▁দেবী	-8.96038
!	-8.96125
▁শুধু	-8.96231
রূপে	-8.9629
▁মাধ্যমিক	-8.96313
▁প্রভৃতি	-8.96366
▁২৯	-8.96712
▁উচ্চতা	-8.96771
▁প্রাপ্ত	-8.96818
d	-8.97131
স্ট	-8.97217
▁সরাসরি	-8.9722
▁বয়স	-8.97263
▁ইউরোপীয়	-8.97346
▁ব্যাপারে	-8.97378
▁মুক্ত	-8.97522
▁ফল	-8.97526
▁হাত	-8.9764
▁পূর্ণ	-8.97786
▁চিত্র	-8.97791
টিতে	-8.98118
▁কু	-8.98145
▁মু	-8.98411
▁মাছ	-8.9844
ing	-8.98492
▁করছেন	-8.98493
▁চিহ্নিত	-8.9855
▁কৃষি	-8.98882
▁পদ	-8.98948
▁:	-8.98995
▁ম	-8.99006
▁পরিচয়	-8.99043
▁থাকতে	-8.99257
▁কলেজে	-8.99279
▁মানব	-8.99339
▁ব্যক্তিগত	-8.99394
▁ছাড়াও	-8.9942
al	-8.99825
▁মুহাম্মাদ	-8.9983
▁প্রতীক	-8.99866
▁স্বীকৃতি	-9.00102
▁উপাদান	-9.00152
▁ম্যাচ	-9.00179
▁উৎপাদন	-9.00182
▁সেবা	-9.00226
▁চরিত্র	-9.00566
▁বাজার	-9.0057
▁ইসলামী	-9.0061
▁কোম্পানি	-9.00699
▁নিতে	-9.00711
▁রি	-9.00728
▁সাংস্কৃতিক	-9.00775
▁২০০০	-9.00831
e	-9.00852
▁চা	-9.00952
▁বিজয়ী	-9.00967
▁ব	-9.01045
▁নেতৃত্বে	-9.01098
▁যাওয়া	-9.01189
ছে	-9.01265
▁কলকাতার	-9.01504
▁মোহাম্মদ	-9.01562
▁শতাংশ	-9.01653
▁লি	-9.017
▁জ্ঞান	-9.02085
▁গল্প	-9.0211
কু	-9.02234
▁প্রদেশ	-9.02288
▁A	-9.0237
▁২০১৮	-9.02513
▁রঙ	-9.02549
▁অবদান	-9.02587
▁সাম্রাজ্য	-9.02602
ড়া	-9.02607
▁অংশে	-9.02682
সু	-9.02711
▁উঠে	-9.02743
▁রাখে	-9.02855
▁দশকের	-9.02945
▁পরীক্ষা	-9.02946
▁আরেকটি	-9.0299
▁আমাদের	-9.02991
▁হাই	-9.03045
▁এসব	-9.03165
▁মর্যাদা	-9.03212
▁সমস্যা	-9.03291
▁চীনের	-9.0331
ভিত্তিক	-9.03356
▁উ	-9.03411
▁হা	-9.03415
▁প্রদেশের	-9.03466
▁মৌলিক	-9.03569
▁নীল	-9.03572
▁রেখে	-9.03617
▁=	-9.03695
▁বয়সী	-9.03767
েই	-9.03793
▁অবশ্য	-9.03826
▁ছবিতে	-9.03902
▁সড়ক	-9.03948
▁চীন	-9.04064
▁জে	-9.04168
▁ছয়	-9.04271
▁অস্ট্রেলিয়ার	-9.04328
▁পার্থক্য	-9.0435
▁কখনো	-9.04373
▁ফুল	-9.04442
▁এমনকি	-9.04745
▁এল	-9.04789
▁অনুষ্ঠান	-9.04962
▁অন্যদিকে	-9.05015
সের	-9.05061
▁পদে	-9.05094
▁বিদ্যমান	-9.05118
▁আদি	-9.05171
▁সম্পর্কিত	-9.05224
▁জেনারেল	-9.05276
▁মো	-9.05296
▁পৃথক	-9.05453
তো	-9.05608
▁নিয়োগ	-9.05629
▁নিজেকে	-9.05698
▁S	-9.05726
▁বাঙালি	-9.05801
▁যোগদান	-9.05812
৯	-9.06144
▁একদিনের	-9.06149
▁অতি	-9.06518
▁ঠিক	-9.06718
▁ফুট	-9.06724
▁ল	-9.06748
▁স্টেশন	-9.06854
▁আহমেদ	-9.0688
▁প্রচুর	-9.06932
এই	-9.07029
▁বাকি	-9.07214
▁দেখে	-9.07239
▁ধারণ	-9.07242
কাল	-9.07273
▁আন	-9.07419
শি	-9.07466
এস	-9.0757
▁১৯৯০	-9.07666
▁গো	-9.07668
▁সংগঠন	-9.07713
▁অবস্থা	-9.07824
▁উদ্দেশ্য	-9.07865
▁কো	-9.0791
▁যাবে	-9.08004
ায়	-9.08045
▁শহীদ	-9.08191
▁থাকার	-9.08279
▁পদক	-9.08391
▁মাসের	-9.0846
▁ছড়িয়ে	-9.08632
▁৪০	-9.08744
▁ভাল	-9.08766
▁রাখেন	-9.08891
▁উক্ত	-9.09015
▁ছেলে	-9.09023
▁আলোচনা	-9.09092
▁স্নাতক	-9.09259
▁কর	-9.09274
ান	-9.09417
▁সফল	-9.0963
▁নিচে	-9.09649
▁আমেরিকান	-9.09799
▁হে	-9.09859
▁অপর	-9.09906
▁২০০৩	-9.1008
▁টাকা	-9.10107
▁কন্যা	-9.10529
▁ব্যাটসম্যান	-9.10812
▁পণ্য	-9.10813
▁দ্বীপ	-9.10852
সমূহের	-9.10877
▁চন্দ্র	-9.10878
▁সর্বাধিক	-9.10907
▁গ্রিক	-9.10928
বাদ	-9.10939
পো	-9.10952
▁সুলতান	-9.11084
▁যুক্তরাষ্ট্র	-9.11086
▁খুবই	-9.11334
▁নং	-9.1162
▁পার	-9.11655
প্র	-9.11668
▁স্কুলে	-9.11832
▁বিমানবন্দর	-9.11838
▁সাগর	-9.11848
▁শতকে	-9.12015
রে	-9.12065
িন	-9.12078
▁পরিষদ	-9.12081
▁রাম	-9.12085
▁সফরে	-9.12142
▁আবিষ্কার	-9.12288
▁বন্দর	-9.12343
▁বিবেচনা	-9.12386
▁১৯৭০	-9.12402
▁খেলেন	-9.12423
গুলিতে	-9.12451
▁সূত্র	-9.12493
▁এন্ড	-9.12556
▁চিকিৎসা	-9.12651
▁পার্টি	-9.12707
▁যাদের	-9.1272
▁সুবিধা	-9.12721
▁দূরে	-9.13055
▁দান	-9.13164
o	-9.13291
েন	-9.1336
গুলোতে	-9.13418
সন	-9.13439
▁বিশ্বকাপ	-9.13442
▁নিহত	-9.13447
েরা	-9.13451
▁সংস্কৃতি	-9.13621
▁নেয়া	-9.13649
▁প্রয়োগ	-9.1374
▁নিয়মিত	-9.13747
▁৫৯	-9.13786
▁৩১	-9.13958
▁দে	-9.13979
▁ছেড়ে	-9.14036
কালীন	-9.14042
▁সিটি	-9.14141
▁পুরো	-9.1419
▁যাওয়ার	-9.14316
▁ছবিটি	-9.14407
▁প্রাণী	-9.14411
▁সেন্ট	-9.14421
▁সর্বশেষ	-9.14542
গো	-9.14645
▁রক্ষা	-9.1482
▁দৈর্ঘ্য	-9.14913
▁বৈজ্ঞানিক	-9.15026
▁সংস্করণ	-9.15278
▁পরিচিতি	-9.15309
▁সামনে	-9.15313
▁খাবার	-9.15397
টো	-9.15466
▁অলিম্পিক	-9.15498
▁নোবেল	-9.15514
▁কাজের	-9.15593
ভা	-9.15606
০০	-9.15616
যুক্ত	-9.15676
▁উপস্থিত	-9.15689
।"	-9.15738
▁সাত	-9.15802
টার	-9.15818
▁লীগের	-9.15824
▁নকশা	-9.15911
▁উপরে	-9.15992
▁পিতার	-9.1611
▁ভি	-9.16293
▁কাহিনী	-9.16347
মার	-9.1638
▁কৃষ্ণ	-9.16419
▁১৯৮০	-9.16474
▁বাড়ি	-9.16506
েও	-9.1656
▁জন্মগ্রহণকারী	-9.16562
▁চূড়ান্ত	-9.16572
নার	-9.16626
ওয়া	-9.1669
▁প্রদর্শন	-9.16806
▁প্রথমবারের	-9.16851
ীর	-9.16947
▁ত্যাগ	-9.16956
▁সমান	-9.17018
১০	-9.17083
▁গ	-9.17267
▁আক্রান্ত	-9.174
আর	-9.17409
▁প্রত্যেক	-9.17589
▁জড়িত	-9.17596
▁এন	-9.17629
▁কবিতা	-9.1778
2	-9.17793
′′	-9.17845
▁সম্পাদক	-9.17852
▁হোসেন	-9.17912
▁উৎসব	-9.17916
▁শতাব্দীতে	-9.1792
▁সর্ব	-9.17928
▁সংস্কৃত	-9.17951
▁নেতৃত্ব	-9.18011
লার	-9.18021
▁কলেজের	-9.1803
▁হক	-9.18107
দার	-9.18226
▁সভাপতি	-9.18265
▁রোমান	-9.18324
▁শক্তিশালী	-9.18341
▁{\	-9.18363
▁কাউন্টি	-9.18457
er	-9.18493
▁ডিগ্রী	-9.18536
▁গানের	-9.18583
▁অবসর	-9.18774
▁আমরা	-9.18889
▁কাপ	-9.18933
▁রোগ	-9.19156
▁শিকার	-9.19218
▁ফেলে	-9.19296
মু	-9.19353
▁বছরে	-9.19409
▁মডেল	-9.19442
▁পাশে	-9.19617
▁ফিফা	-9.1963
▁পেয়ে	-9.19646
▁চীনা	-9.19675
"।	-9.198
▁আফ্রিকার	-9.20001
নগর	-9.20105
▁পড়েন	-9.20168
▁তালিকায়	-9.20249
▁বর্ণ	-9.20388
▁নীতি	-9.20427
▁পথে	-9.20436
▁ক্ষুদ্র	-9.20441
▁একাডেমি	-9.20543
▁গ্রুপ	-9.20642
▁এশিয়ার	-9.20723
▁ভূ	-9.20924
▁রঙের	-9.21071
▁আইসিসি	-9.21103
▁হওয়ায়	-9.21255
▁যুগের	-9.21257
▁–	-9.21383
▁অল্প	-9.21393
▁আসা	-9.21404
▁দিল্লি	-9.21435
▁পশ্চিমবঙ্গ	-9.21453
▁ইসলামের	-9.21474
▁সংক্রান্ত	-9.21582
▁ঢাকার	-9.21628
▁প্রতিষ্ঠাতা	-9.21661
▁দেব	-9.2171
▁সক্রিয়	-9.21734
▁পরিবর্তে	-9.22021
▁ডলার	-9.22096
▁বিরোধী	-9.22135
গঞ্জ	-9.22142
▁ধর্মের	-9.2219
▁আয়	-9.22326
▁জানান	-9.22372
▁জর্জ	-9.22439
▁ফলাফল	-9.22538
▁প	-9.2259
বো	-9.22715
▁ভূমিকায়	-9.22805
সার	-9.22826
▁বর্গ	-9.22905
▁শিক্ষার	-9.22907
ুর	-9.22917
▁ধ্বংস	-9.22944
▁অভিনয়ের	-9.23072
▁নিম্ন	-9.23167
হীন	-9.23212
▁সত্য	-9.23246
▁সরকারী	-9.23288
▁শিব	-9.23366
▁১৯৯৬	-9.23432
▁এসময়	-9.23742
ফা	-9.23885
▁নাটক	-9.23946
▁বৃহৎ	-9.24063
▁বাংলাদেশী	-9.2411
▁প্রকার	-9.24116
জে	-9.24307
▁মুখ	-9.24359
▁প্রশিক্ষণ	-9.24368
▁পাখি	-9.24405
▁বেশী	-9.24412
▁ব্যর্থ	-9.24443
▁ইনিংসে	-9.24528
▁উন্নত	-9.2455
▁সর্বপ্রথম	-9.24625
▁ভূমি	-9.24799
▁২০০২	-9.248
▁প্রজাতন্ত্র	-9.24858
▁স্থাপিত	-9.25005
ক্স	-9.25044
▁ব্যবধানে	-9.25082
▁যুগে	-9.25082
▁পাঁচটি	-9.25086
▁ক্রীড়া	-9.25094
িয়ান	-9.25103
▁পদার্থ	-9.25138
▁ভিত্তিতে	-9.25152
▁সমুদ্র	-9.25251
▁১৯৬০	-9.25395
▁জনপ্রিয়তা	-9.25483
▁দর্শন	-9.25521
ত্ব	-9.25765
▁সম্ভবত	-9.2586
▁নগর	-9.25916
▁শিরোপা	-9.25947
▁অনুবাদ	-9.26076
▁সিরিজের	-9.26169
▁রাজশাহী	-9.26258
▁পাশ	-9.26268
▁শুরুতে	-9.26325
▁সম্প্রদায়ের	-9.26336
▁পূজা	-9.26406
▁সূচনা	-9.26411
▁ভালো	-9.26533
▁অধিনায়ক	-9.2654
▁০	-9.26584
style	-9.2676
ভার	-9.26798
▁ক্লাবের	-9.26806
▁বরং	-9.2682
▁নির্ভর	-9.2682
▁সমাজ	-9.27039
ষ্ট	-9.27046
▁বিষয়ক	-9.27121
▁বস্তু	-9.27177
▁এশিয়া	-9.27268
|	-9.2733
▁বাধ্য	-9.27359
▁বন	-9.27371
▁এগুলো	-9.27396
ছেন	-9.27416
▁৯০	-9.27502
▁প্রচার	-9.27528
▁ইন্ডিয়া	-9.27649
▁আরবি	-9.27734
ِ	-9.27792
শা	-9.27999
▁শ্রী	-9.28069
▁সেনাবাহিনীর	-9.28185
▁আসছে	-9.28339
▁বেশিরভাগ	-9.28611
▁বেড়ে	-9.28687
▁মেয়ে	-9.28846
▁এখনও	-9.28871
▁কখনও	-9.28931
▁কংগ্রেসের	-9.28978
টেমপ্লেট	-9.2918
▁C	-9.29249
▁৬০	-9.29304
▁নিরাপত্তা	-9.29414
▁সেন	-9.29418
▁সংসদের	-9.29446
টে	-9.29487
▁চাইতে	-9.29491
▁সাহায্যে	-9.2951
▁নিশ্চিত	-9.2961
▁রেলওয়ে	-9.29685
▁ব্যবসা	-9.29691
▁লিখেছেন	-9.29712
▁জাহাজ	-9.29716
▁আদর্শ	-9.29901
ইন	-9.30051
▁ন্যায়	-9.30107
▁ফর	-9.30162
▁যন্ত্র	-9.30218
▁রুশ	-9.30246
▁দশ	-9.30268
▁পর্যবেক্ষণ	-9.30287
▁সিস্টেম	-9.30478
▁বীর	-9.30487
▁প্রধানত	-9.30488
▁প্রবাহিত	-9.30511
▁রা	-9.30525
এম	-9.30654
ফি	-9.30708
চি	-9.30738
ুন	-9.30757
▁মাঠে	-9.30936
▁আবদুল	-9.30956
▁সংঘটিত	-9.30958
us	-9.31013
▁করলেও	-9.31103
▁পশ্চিমবঙ্গের	-9.31149
▁জাতি	-9.3116
▁গুরুত্ব	-9.31193
▁অভিযান	-9.31272
▁১৯৯১	-9.31294
▁দলটি	-9.31427
▁শিল্পী	-9.31536
▁পর্বত	-9.31546
▁তড়িৎ	-9.31714
▁স্থায়ী	-9.3182
▁The	-9.3186
▁পঞ্চম	-9.31872
▁মন	-9.31915
▁পড়াশোনা	-9.32015
কালে	-9.32028
▁বোর্ড	-9.32103
▁আনা	-9.32178
▁পত্রিকা	-9.32189
▁কমিটি	-9.32254
▁সিরিজ	-9.32318
▁আলি	-9.32325
▁আব্দুল	-9.32388
▁সঠিক	-9.32424
পূর্ণ	-9.3245
▁হয়েছেন	-9.32451
▁উৎপত্তি	-9.32552
▁লম্বা	-9.32553
▁মাদ্রাসা	-9.32673
▁প্রভাবিত	-9.32806
▁দিনে	-9.32871
▁মৃত্যুবরণ	-9.32975
▁সংরক্ষিত	-9.33096
▁পরিসংখ্যান	-9.33301
▁অর্থনীতি	-9.33324
▁জয়লাভ	-9.33344
▁কাল	-9.33412
▁জায়গা	-9.33479
▁১৯৪৭	-9.33509
▁মূলতঃ	-9.3358
▁নেওয়া	-9.33611
খা	-9.33641
▁তন্মধ্যে	-9.33653
য	-9.33716
▁রানের	-9.33821
▁যথেষ্ট	-9.33881
▁গাছ	-9.33893
▁প্রজাতি	-9.3394
▁১৯৯৯	-9.34079
▁গ্রামের	-9.34251
▁পরিবহন	-9.34283
▁শব্দের	-9.34322
▁অভিযোগ	-9.34364
▁অ্যালবাম	-9.34459
▁গ্রন্থে	-9.34515
১৭	-9.34544
▁লক্ষ্যে	-9.3456
▁অতিক্রম	-9.34596
রী	-9.34601
▁আকারে	-9.3464
display	-9.34645
িয়ে	-9.3498
E	-9.34988
▁বন্ধু	-9.34997
▁জ	-9.35029
▁সেনাবাহিনী	-9.35052
▁বাণিজ্য	-9.3515
▁জয়ী	-9.35168
▁বলেছেন	-9.35233
in	-9.35456
করণ	-9.35476
বল	-9.35529
▁ইউনিভার্সিটি	-9.3573
ন্ত	-9.35737
▁আঘাত	-9.35758
আবু	-9.35797
▁প্রযুক্তি	-9.35873
বাদী	-9.3589
▁এটিকে	-9.35929
নাথ	-9.35945
টন	-9.35987
▁খাল	-9.35992
▁বিশ্বযুদ্ধের	-9.36007
▁পানির	-9.36008
রাম	-9.36012
▁ছবির	-9.36097
▁নিয়ম	-9.3617
▁মূর্তি	-9.36186
▁নম্বর	-9.36216
▁সম	-9.36308
▁তাদেরকে	-9.36392
▁ব্যাংক	-9.36407
▁মালিক	-9.36443
▁বিবেচিত	-9.3658
গু	-9.36588
▁উসমানীয়	-9.3661
ْ	-9.36619
▁হি	-9.3662
▁ডে	-9.36728
▁কর্তৃপক্ষ	-9.36736
▁গণ	-9.36768
▁১৯৫০	-9.36813
▁পে	-9.36895
▁ঘরোয়া	-9.36975
▁পরের	-9.37055
▁রাখার	-9.37137
▁১৯৭২	-9.37157
▁বাণিজ্যিক	-9.37209
▁সুর	-9.37216
▁নামটি	-9.37326
৩০	-9.37403
▁অতিরিক্ত	-9.37405
▁প্রক্রিয়া	-9.37444
▁আওয়ামী	-9.37485
▁মায়ের	-9.37535
▁ভুল	-9.37576
▁বোন	-9.37612
▁দলকে	-9.37672
▁দেশটির	-9.37681
▁অস্ত্র	-9.3779
▁নবী	-9.37826
▁তাহলে	-9.37845
▁তাপমাত্রা	-9.37889
▁মন্দিরের	-9.37951
▁নির্ধারণ	-9.38037
▁গেলে	-9.38047
▁ইউরোপের	-9.38187
▁দিয়েছেন	-9.38223
▁১৯৯৮	-9.38266
▁টু	-9.38386
▁জাপান	-9.3843
▁সিলেট	-9.3848
▁বাদ	-9.38505
▁অধ্যয়ন	-9.38507
▁পৌরসভা	-9.38515
▁হারিয়ে	-9.38542
▁অল	-9.38729
২০	-9.38737
▁পরিবেশ	-9.38765
▁রিয়াল	-9.38774
▁ন্যাশনাল	-9.38834
▁কর্ম	-9.38889
▁৮০	-9.38897
▁স্বামী	-9.38934
▁অভিহিত	-9.38956
▁সবুজ	-9.39197
▁ডাক	-9.392
নং	-9.39229
নী	-9.39348
▁পক্ষ	-9.39478
▁প্রায়ই	-9.39545
▁শুরুর	-9.39614
▁অস্তিত্ব	-9.3966
▁রাজনীতি	-9.39774
",	-9.3978
র্	-9.39959
▁রাখতে	-9.39969
▁উদ্ভিদ	-9.39974
িকা	-9.39985
▁শান্তি	-9.39992
▁যথাক্রমে	-9.40042
পার	-9.40107
▁পাতা	-9.40211
▁সেনা	-9.40389
▁জমি	-9.40488
▁খ্রিস্টাব্দের	-9.40503
▁এক্স	-9.40512
▁বাড়িতে	-9.40552
▁যেহেতু	-9.40654
▁কোচ	-9.40657
▁মিল	-9.40704
জার	-9.40718
▁দিয়েছিলেন	-9.40759
▁হ্রাস	-9.40839
▁১টি	-9.40841
▁মনোনয়ন	-9.40854
াস	-9.40873
▁উদাহরণ	-9.40889
▁গণ্য	-9.4089
▁আজ	-9.40923
▁শীর্ষ	-9.40982
▁পাল	-9.41029
▁B	-9.41038
m	-9.4105
▁সম্বন্ধে	-9.41052
▁যুক্তরাষ্ট্রে	-9.41202
▁বোঝায়	-9.41276
▁স্বাস্থ্য	-9.41361
▁ব্যক্তির	-9.41407
▁কর্মকর্তা	-9.41441
▁কাছাকাছি	-9.41466
▁গ্রেগরী	-9.41541
দ্য	-9.41579
▁সংখ্যক	-9.41595
S	-9.41661
▁বিল	-9.41677
▁প্রস্তুত	-9.41712
ছিল	-9.41983
▁আমেরিকার	-9.4202
▁একবার	-9.4208
আই	-9.42111
▁সংস্কার	-9.42163
▁দার্শনিক	-9.4218
ষ	-9.42303
▁বিস্তার	-9.42331
▁নামেও	-9.4237
?	-9.42437
▁কংগ্রেস	-9.42469
▁দা	-9.42531
▁নিষিদ্ধ	-9.42788
▁তীরে	-9.42902
▁সফটওয়্যার	-9.42963
▁পেশাদার	-9.42975
▁আদমশুমারি	-9.43121
শন	-9.43141
▁আট	-9.43245
তেই	-9.43323
▁দেয়ার	-9.43328
গুলোকে	-9.43457
▁কোনও	-9.43515
▁কলকাতায়	-9.43578
▁ত	-9.43656
▁প্রতিযোগিতার	-9.43679
▁অনুসরণ	-9.43695
ন্স	-9.43746
▁ব্যবহারের	-9.43761
▁ঢাকায়	-9.43768
▁P	-9.43779
▁শাসক	-9.43957
▁কিছুটা	-9.43962
▁১৯৯২	-9.44051
▁প্রকল্প	-9.4411
▁আঞ্চলিক	-9.44202
▁ফি	-9.44212
▁পৃথিবী	-9.44257
▁প্রকৃত	-9.44394
b	-9.44414
▁শ	-9.44431
▁কুমার	-9.44513
▁লে	-9.44568
▁আলো	-9.44668
▁থাকলেও	-9.44679
▁সংবাদ	-9.44796
▁সাফল্য	-9.44825
=	-9.44844
▁বোলার	-9.44899
▁তেল	-9.44921
▁হু	-9.44926
u	-9.44947
▁বহন	-9.45044
▁সং	-9.45081
▁19	-9.45104
▁প্রতিষ্ঠার	-9.45317
es	-9.45415
১৫	-9.45484
▁আছেন	-9.45501
▁জমিদার	-9.4551
+	-9.45554
▁পেয়েছে	-9.4556
▁ইনস্টিটিউট	-9.45593
▁দেওয়ার	-9.45612
▁বিজয়	-9.45627
▁বিজ্ঞানী	-9.45819
▁অনুমতি	-9.45898
▁সংযোগ	-9.45959
▁জায়গায়	-9.45975
িয়ার	-9.46192
▁কমিউনিস্ট	-9.46239
▁ইবন	-9.46268
▁বো	-9.46276
▁পার্টির	-9.46328
▁গা	-9.46415
▁ভ্রমণ	-9.46503
স্থ	-9.46582
▁সরবরাহ	-9.46607
▁যেসব	-9.46624
▁সান	-9.46669
▁সূর্য	-9.46699
▁নির্মাণের	-9.46831
▁পবিত্র	-9.46832
রাজ	-9.46869
▁জা	-9.46931
▁জো	-9.46972
ৎ	-9.46975
▁ধারা	-9.47045
▁রাষ্ট্রের	-9.4709
▁F	-9.47093
▁নে	-9.47291
▁এখানকার	-9.47405
▁সমতল	-9.47489
▁হিন্দি	-9.47558
▁৩৫	-9.47619
▁তারিখ	-9.47662
▁প্রবাহ	-9.47682
▁গুলি	-9.47683
▁সফলতা	-9.47815
▁বিদ্যুৎ	-9.47826
▁বিক্রি	-9.47886
▁মুঘল	-9.47891
▁রূপে	-9.47908
রু	-9.47933
▁ঘটনার	-9.48007
▁অঙ্গ	-9.48055
▁প্রকৌশল	-9.48152
▁থানার	-9.48156
▁সংগীত	-9.48243
▁বিশ্বে	-9.48244
}	-9.48306
ন্ড	-9.48387
▁এভাবে	-9.48432
▁মেট্রো	-9.48441
▁লাইন	-9.48476
▁মাদ্রিদ	-9.48603
▁গতি	-9.48623
পাড়া	-9.48623
▁সিং	-9.48633
পে	-9.48666
১২	-9.48841
▁গভীর	-9.4887
▁চালিয়ে	-9.48921
▁ধারাবাহিক	-9.48932
▁ইউরোপ	-9.49011
▁উইলিয়াম	-9.49013
▁ন	-9.49014
▁মন্ত্রী	-9.49038
লু	-9.49041
M	-9.49069
▁অধিকারী	-9.49122
হি	-9.4919
C	-9.49202
▁মধ্যকার	-9.49249
▁is	-9.49304
▁দশক	-9.49316
▁প্রচলন	-9.49318
১৮	-9.49462
▁বিধানসভা	-9.49463
▁সম্মান	-9.49502
াম	-9.49548
▁বজায়	-9.49585
বিদ	-9.49639
▁৭০	-9.49713
ly	-9.49727
▁ইতিহাসের	-9.49765
▁জাপানের	-9.49811
▁ব্যক্তিত্ব	-9.50042
চার	-9.5008
কেই	-9.50114
▁খুঁজে	-9.50207
▁সমালোচনা	-9.50226
1	-9.50271
▁উন্নতি	-9.50332
▁৷	-9.50374
▁আহমদ	-9.50379
▁দাবী	-9.50435
▁f	-9.50443
▁প্রেসিডেন্ট	-9.50447
▁চেয়ারম্যান	-9.50578
▁কন	-9.50597
▁দেখানো	-9.50603
▁ভর	-9.50612
▁দূরত্ব	-9.50744
▁আসার	-9.50814
▁লিখিত	-9.50937
▁উপস্থিতি	-9.50988
▁মেনে	-9.51095
▁গভর্নর	-9.5111
৫০	-9.51215
▁ক্ষেত্র	-9.51222
▁অনুষ্ঠানে	-9.51247
▁বার্ষিক	-9.51343
▁টিভি	-9.51358
▁ইস্ট	-9.51449
▁এটির	-9.51542
i	-9.51743
▁রকম	-9.51865
▁দিবস	-9.51868
ন্দ	-9.51909
▁১৯৯৭	-9.52027
▁এগিয়ে	-9.5211
▁অগ্রসর	-9.52293
▁দূর	-9.52322
▁মানসিক	-9.52323
▁জটিল	-9.52344
তু	-9.52368
▁কমে	-9.52387
▁আসলে	-9.52393
▁বাবার	-9.52429
ময়	-9.52436
▁গ্যাস	-9.525
▁আকর্ষণ	-9.52514
▁মধ্যবর্তী	-9.52536
লী	-9.52571
▁তারকা	-9.52572
▁কঠিন	-9.52623
▁সমৃদ্ধ	-9.52696
▁ফ্রান্স	-9.52948
▁বিশ্বকাপের	-9.5299
▁ব্যবস্থার	-9.53054
▁হিসাব	-9.53066
▁ভিডিও	-9.53082
▁জেমস	-9.53221
▁হ	-9.53269
▁আর্থিক	-9.53284
▁২য়	-9.53377
▁সত্ত্বেও	-9.53396
স্ত	-9.53416
▁থানা	-9.53423
▁পছন্দ	-9.53453
▁পাঠ	-9.53521
▁নিদর্শন	-9.53592
জু	-9.53603
▁পদ্ধতিতে	-9.53732
▁ইন্ডিয়ান	-9.53771
▁সীমান্ত	-9.53777
▁ওয়া	-9.53843
▁বসে	-9.53848
▁স্	-9.53863
▁মৌসুম	-9.53883
▁আমেরিকা	-9.53933
দিন	-9.53941
▁I	-9.53947
▁দৈনিক	-9.53963
▁ম্যান	-9.53994
▁স্বাধীনতার	-9.54006
চা	-9.54165
▁৪৮	-9.54352
▁ম্যাচে	-9.54356
▁কিমি	-9.54367
▁পরিবারে	-9.54416
১১	-9.54473
▁M	-9.54536
▁ক্যা	-9.54598
▁আল্লাহ	-9.54674
▁নির্ধারিত	-9.54763
▁রাসায়নিক	-9.54774
▁বকর	-9.54927
▁১৯৭৫	-9.54943
▁আস	-9.55095
▁সিরিজে	-9.55195
▁আকার	-9.552
▁থাকবে	-9.55208
হার	-9.55228
▁অসংখ্য	-9.5525
▁প্রয়োজনীয়	-9.55297
le	-9.55425
▁সহকারী	-9.55494
▁গৃহীত	-9.55513
▁শা	-9.5554
ড়ি	-9.55604
▁এরফলে	-9.55629
▁শহরটি	-9.5565
f	-9.55688
▁উৎপন্ন	-9.55688
▁প্রাণ	-9.55691
▁রো	-9.55699
P	-9.55762
▁অনু	-9.55808
▁কর্মরত	-9.55838
▁ব্যাটিং	-9.55842
▁for	-9.55869
▁সংস্থার	-9.55918
▁ভূষিত	-9.55926
▁প্রেরণ	-9.55939
▁খেলে	-9.55945
▁পাস	-9.5601
▁বসু	-9.56046
▁বিচার	-9.56068
▁কয়েকজন	-9.56074
▁কমিশন	-9.56272
ম্	-9.563
চে	-9.56416
▁চি	-9.56448
▁স্ব	-9.56663
▁শ্রীলঙ্কা	-9.56709
▁রক্ত	-9.56783
▁আফ্রিকান	-9.56794
▁যুগ	-9.56839
▁ইউনিয়নে	-9.56917
▁ওয়ার্ল্ড	-9.57038
ধ	-9.57178
শীল	-9.57232
▁সামান্য	-9.57359
পশ্চিম	-9.57457
▁করলেন	-9.57484
▁১৯৪৮	-9.57561
▁৩২	-9.5767
▁মুসলিমদের	-9.57682
▁s	-9.57734
▁অন	-9.57808
▁পরিবর্তিত	-9.5784
▁সৌদি	-9.5792
▁অনেকে	-9.57948
▁সম্ভাবনা	-9.58119
▁রাজনীতিবিদ	-9.58188
▁কোম্পানির	-9.58278
▁সীমানা	-9.58293
▁তো	-9.58294
▁রবীন্দ্রনাথ	-9.5831
▁মুখে	-9.58352
▁বাংলায়	-9.58394
দে	-9.58442
▁ম্যাক	-9.58442
▁জানায়	-9.58464
▁টুয়েন্টি২০	-9.5852
▁সম্প্রদায়	-9.58553
▁সম্পদ	-9.58556
▁কৌশল	-9.5859
x	-9.5865
▁আত	-9.58682
▁ব্যান্ড	-9.58761
▁মাতা	-9.58864
▁চাপ	-9.58889
▁সংরক্ষণ	-9.58902
▁সিরিয়া	-9.58912
▁১৯৭৩	-9.59112
or	-9.59244
▁কমিটির	-9.59259
কর	-9.59261
ছ	-9.59272
▁বেঙ্গল	-9.5928
▁বিশ্বকাপে	-9.59298
▁জানতে	-9.5933
১৬	-9.59367
▁প্রাক্তন	-9.594
▁হো	-9.59455
▁৭৫	-9.5948
▁পার্ক	-9.59537
▁খেলোয়াড়ী	-9.59564
▁তেমন	-9.59583
▁প্রতিষ্ঠানের	-9.59613
▁R	-9.59855
▁মাইল	-9.59949
▁গাছের	-9.59962
লাল	-9.59997
বু	-9.60003
▁আবদ্ধ	-9.60005
h	-9.60098
▁পু	-9.60138
▁অবশেষে	-9.60165
▁শো	-9.60293
▁শ্রেণীর	-9.60363
▁গোলে	-9.60393
▁মিলে	-9.60478
▁যাকে	-9.60491
▁কিনা	-9.60511
▁জাতির	-9.60512
▁1	-9.6058
▁ফা	-9.6059
▁আচরণ	-9.60632
▁১৯৬৯	-9.60691
▁ভাগে	-9.60754
▁গান্ধী	-9.6085
▁সেঞ্চুরি	-9.60883
▁তরুণ	-9.60961
▁সফর	-9.60989
▁ভোট	-9.61014
▁পুরস্কারের	-9.61068
▁২টি	-9.61084
▁দৃশ্য	-9.61095
▁জার্মানি	-9.61167
▁রাষ্ট্রীয়	-9.6117
▁বর্ণিত	-9.61187
re	-9.61284
▁স্বাভাবিক	-9.61323
▁এগুলি	-9.61338
▁উঁচু	-9.61368
▁১৯৯৫	-9.6139
▁মাধ্যম	-9.6165
▁বিংশ	-9.61687
▁স্বীকৃত	-9.61693
▁শেষের	-9.61805
▁অবস্থানের	-9.61845
▁কোড	-9.61903
th	-9.62043
▁ইয়র্ক	-9.62064
ডা	-9.62119
▁পরীক্ষায়	-9.62188
▁মেডিকেল	-9.62288
ূ	-9.62302
▁বিদ্রোহ	-9.6237
▁সৈয়দ	-9.62433
ا	-9.62461
▁কার্যকর	-9.62468
▁পাওয়ার	-9.62492
▁পেতে	-9.62502
*	-9.62505
▁রাজবংশের	-9.62522
রূপ	-9.62548
ঞ্জ	-9.62581
▁মন্তব্য	-9.62592
▁আনন্দ	-9.62678
▁প্রকৃতি	-9.62809
বিশিষ্ট	-9.62834
▁পাকিস্তানি	-9.62889
িয়	-9.62985
▁ঘন	-9.62998
▁সুন্দর	-9.62998
▁১৯৩০	-9.63071
▁সদস্যদের	-9.6314
▁দাস	-9.63193
▁দিনের	-9.63226
▁ছয়টি	-9.63254
▁বেগম	-9.63312
▁ইউনাইটেড	-9.6335
▁মার	-9.63539
▁১৯৯৪	-9.63568
িস	-9.63638
▁যেন	-9.6364
▁শ্রেণী	-9.63642
▁পালিয়ে	-9.63684
B	-9.63732
মেন্ট	-9.6376
p	-9.63782
যা	-9.63812
▁কিছুদিন	-9.63858
▁মুসলমান	-9.63918
▁আশ্রয়	-9.63951
▁বিপ্লবী	-9.6398
▁বোঝা	-9.63981
▁ঐতিহ্য	-9.64044
▁তোলেন	-9.64093
▁দিয়েছে	-9.64095
▁খানের	-9.6423
▁করবেন	-9.64306
দু	-9.64385
▁তাতে	-9.6439
▁খ	-9.64408
▁তাল	-9.64442
▁উঠেছে	-9.64448
ক্ষ	-9.64508
▁পরি	-9.64544
▁পুরনো	-9.64647
▁বদলে	-9.64658
▁১৯৬২	-9.64699
▁সাহিত্যের	-9.64743
▁জার্মানির	-9.64825
▁ফ্রান্সের	-9.64838
▁দেবতা	-9.64851
▁মাঠ	-9.64912
3	-9.65006
▁রাস্তা	-9.65175
ُ	-9.65211
▁বিপরীতে	-9.65222
▁গুরু	-9.65366
▁৫২	-9.65381
c	-9.65389
বান	-9.65428
▁চিন্তা	-9.65493
▁খরচ	-9.65495
▁তুর্কি	-9.65551
▁প্রতিনিধি	-9.65585
▁অণু	-9.65599
৪০	-9.65602
▁সুপার	-9.65627
▁ডা	-9.6575
ডো	-9.65786
গ্রাম	-9.65904
▁মুদ্রা	-9.65919
▁সংস্কৃতির	-9.65924
▁গুণ	-9.65924
▁ত্রি	-9.65925
▁স্পেনীয়	-9.65932
▁জনগণের	-9.65945
২৫	-9.65958
▁এয়ার	-9.65973
▁ব্যয়	-9.66091
▁শারীরিক	-9.66145
▁আনুষ্ঠানিকভাবে	-9.662
ar	-9.66201
▁নিজে	-9.66269
▁গবেষণার	-9.66272
▁আদেশ	-9.66319
▁কলা	-9.66357
▁আমলে	-9.66417
▁সাউথ	-9.6642
▁অর্ধ	-9.66463
▁প্যা	-9.66563
▁বিহার	-9.66568
▁গ্রহ	-9.66579
▁রং	-9.66585
▁ইন্ডিজ	-9.66647
▁অনেকগুলো	-9.66916
▁ভিত্তিক	-9.66977
▁সমন্বয়ে	-9.66977
য়ান	-9.67014
l	-9.67033
▁বিদ্যালয়ে	-9.67144
▁প্রতিরোধ	-9.67189
▁ইউরোপে	-9.67236
▁বু	-9.67279
▁নজরুল	-9.6731
▁চিহ্ন	-9.67323
▁সময়কালে	-9.67327
▁রাজ্যে	-9.67335
ঙ্গা	-9.67366
▁লু	-9.6747
▁আক্রমণের	-9.67493
লিন	-9.67523
▁দেহ	-9.67546
▁শক্তির	-9.67559
▁ধান	-9.67594
▁প্রদত্ত	-9.6761
▁পাথর	-9.67648
▁বৃহত্তর	-9.67666
▁দায়িত্বে	-9.67712
▁থাকায়	-9.67735
▁আনুমানিক	-9.67742
▁চ্যানেল	-9.67748
▁আয়োজিত	-9.67795
েশন	-9.6784
▁প্রিমিয়ার	-9.67847
▁চ্যাম্পিয়ন	-9.67882
▁তীব্র	-9.67909
▁মিলিত	-9.67975
▁E	-9.68021
▁শি	-9.68097
▁বিপুল	-9.68178
▁হাসান	-9.68187
১৪	-9.68273
▁আওতাধীন	-9.68384
el	-9.68432
▁সমাজের	-9.68436
▁ব্যাপকভাবে	-9.68451
ুয়া	-9.68465
যোগ্য	-9.68502
▁২০০	-9.68538
▁নবাব	-9.68589
▁ইন্টারন্যাশনাল	-9.68621
িস্ট	-9.68762
▁চ	-9.68828
▁অবদানের	-9.68892
▁রয়েছেন	-9.68926
▁১৯৮২	-9.6893
▁আহত	-9.68942
▁৫১	-9.68943
▁পরিষদের	-9.68948
▁জীব	-9.68958
▁ষষ্ঠ	-9.68968
▁তোলা	-9.6899
▁বিষয়টি	-9.6908
▁প্রশংসা	-9.69139
▁রানে	-9.69239
▁ভিয়েতনাম	-9.69251
st	-9.69262
▁আগ	-9.69282
▁সার	-9.69315
▁আন্দোলনে	-9.69316
▁সেগুলো	-9.69347
▁পেয়েছেন	-9.69352
▁কাঠামো	-9.69422
▁১৯৮৩	-9.69472
▁সিংহ	-9.69475
▁শতাব্দী	-9.69484
লিয়া	-9.69522
▁অনুসন্ধান	-9.69737
▁আকারের	-9.69788
▁করি	-9.69795
▁রাশিয়ার	-9.69941
▁নির্বাচনী	-9.6997
▁আগ্রহ	-9.69974
▁সেতু	-9.70041
ur	-9.70078
▁p	-9.70094
▁বিদ্যালয়ের	-9.70101
▁নাগরিক	-9.70156
▁বর	-9.70188
▁স্টেডিয়াম	-9.70189
▁খুলনা	-9.70309
▁বিকাশ	-9.70344
▁কেন	-9.70378
▁এখনো	-9.70425
g	-9.70488
▁মহিলাদের	-9.70494
▁৪৯	-9.70511
▁আন্তর্জাতিকে	-9.7056
▁স্থাপত্য	-9.70598
▁মাত্রা	-9.70609
▁ছাত্রদের	-9.70675
▁ওই	-9.70687
▁প্রণয়ন	-9.70783
▁লাভের	-9.70835
▁যুক্তি	-9.70887
▁ঐতিহ্যবাহী	-9.70889
▁উপজেলায়	-9.70935
▁বসতি	-9.70982
▁১৯৮৬	-9.71005
▁as	-9.71079
▁2	-9.71121
▁করতো	-9.7115
▁বরাবর	-9.71163
▁বিশ্বব্যাপী	-9.71176
▁আউট	-9.71192
▁৪৭	-9.71215
▁অংশগ্রহণের	-9.71283
▁যাচ্ছে	-9.71367
▁১৯৭৪	-9.7139
পাল	-9.71522
▁১৯৮৪	-9.71558
▁১৯৬৭	-9.71613
্যা	-9.71638
▁নিউজিল্যান্ড	-9.71691
▁সৈন্য	-9.71722
▁রাশিয়া	-9.71761
▁D	-9.71823
▁নেয়ার	-9.71877
▁১৯৯৩	-9.7189
গান	-9.71902
▁বৃদ্ধির	-9.71914
এন	-9.71954
▁বুঝতে	-9.72006
▁স্যার	-9.72071
▁চলতে	-9.72083
▁সহজ	-9.72191
▁সর্বমোট	-9.72274
▁ক্রিকেটের	-9.7229
▁ডিম	-9.72374
গড়	-9.72397
▁লন্ডন	-9.72499
১৩	-9.72563
▁লিপি	-9.72595
▁প্রথা	-9.72663
▁ইরাক	-9.72681
▁একর	-9.72699
▁ফ	-9.72724
▁নেমে	-9.72828
▁de	-9.72917
▁অফিস	-9.72932
▁স্বীকার	-9.73009
▁খলিফা	-9.7308
▁পরিবেশন	-9.73113
ঘ	-9.73118
▁হলুদ	-9.7317
▁গ্রহণের	-9.73194
▁ঠাকুর	-9.73198
বিদ্যা	-9.73226
▁গ্রন্থের	-9.7326
▁with	-9.73275
▁ইনিংস	-9.73281
স্টার	-9.73304
▁অক্ষাংশ	-9.73348
▁রেডিও	-9.73494
েস	-9.73499
▁তু	-9.73558
▁পৃথিবীতে	-9.73659
ছি	-9.73688
চন্দ্র	-9.73707
▁যায়নি	-9.7371
ৈ	-9.73742
▁১৯৭৭	-9.73745
▁রোড	-9.7378
▁বায়ু	-9.73786
▁ওজন	-9.73817
নিক	-9.73834
▁উপাধি	-9.73859
▁G	-9.73938
▁পর্বে	-9.73956
▁১৯৭৯	-9.73972
ঙ্গ	-9.73995
দো	-9.73997
▁তোলে	-9.74032
য়াল	-9.74051
সো	-9.74062
▁চাষ	-9.74117
▁ফাইনালে	-9.74178
▁মাইকেল	-9.74207
ডে	-9.74243
▁কার্য	-9.74306
কল	-9.74322
▁গানটি	-9.74374
গি	-9.74379
পত্র	-9.74387
▁অবতীর্ণ	-9.74418
▁আবিষ্কৃত	-9.74475
▁শহরটির	-9.74485
▁বইটি	-9.74536
▁H	-9.74551
▁স্বাক্ষর	-9.74552
▁ঘরে	-9.74656
▁ভেঙে	-9.74704
▁অস্ট্রেলীয়	-9.74707
▁বিলিয়ন	-9.74717
▁মুসলমানদের	-9.74843
▁কাউন্সিল	-9.74915
▁উন্মুক্ত	-9.74933
▁নিচের	-9.74994
▁পর্যটন	-9.75052
মুখী	-9.75054
▁বর্ষপঞ্জীর	-9.75072
▁মাটির	-9.75141
▁১৯৮৭	-9.75172
▁খেলেছেন	-9.75191
▁সেটি	-9.75206
▁চে	-9.75315
▁মাথা	-9.75391
▁৪৫	-9.75452
▁সৃষ্ট	-9.75464
▁বাতিল	-9.75529
▁K	-9.7553
জো	-9.75579
▁১৯৭৬	-9.75632
▁পাই	-9.75633
▁খ্যাতি	-9.75671
▁লিঙ্গ	-9.75786
▁প্রদানের	-9.75786
▁খোলা	-9.75813
▁বিচ্ছিন্ন	-9.75822
▁স্তর	-9.7583
▁স্মৃতি	-9.75956
م	-9.76014
▁পেয়েছিলেন	-9.76046
▁পরিচালনার	-9.76063
▁পতাকা	-9.76097
▁ঘর	-9.76101
▁হাট	-9.76145
▁ডেভিড	-9.76194
▁এত	-9.76198
▁যোগ্যতা	-9.76216
▁ডাকা	-9.76234
▁আগের	-9.7625
▁এরকম	-9.76315
▁স্বল্প	-9.76331
োস	-9.76351
▁পোশাক	-9.76357
▁এফ	-9.76413
▁অংশের	-9.7645
গে	-9.76517
▁বাস্তব	-9.76573
তেও	-9.76672
▁ড্র	-9.76734
হু	-9.76739
▁মাঝামাঝি	-9.7677
▁সংক্ষিপ্ত	-9.76814
▁ফলশ্রুতিতে	-9.76844
▁১৯৬৮	-9.76853
▁T	-9.76929
on	-9.77013
গুলিকে	-9.77094
ৌ	-9.77101
▁বিশেষত	-9.77118
▁তুলেন	-9.77171
▁অনূর্ধ্ব	-9.77195
▁আশা	-9.77284
আল	-9.77287
▁পাঠানো	-9.77318
▁প্রেম	-9.77336
ল্যান্ড	-9.77394
▁সমাধান	-9.77415
▁পর্যায়ের	-9.77502
▁শিক্ষার্থী	-9.7752
▁৩টি	-9.77545
▁উন্নীত	-9.77666
▁বিপরীত	-9.77692
▁be	-9.77751
▁পরিমাপ	-9.77754
▁পারেননি	-9.7777
▁উদ্ধার	-9.77806
▁ইমাম	-9.77819
▁প্রমুখ	-9.77863
তন	-9.77872
পু	-9.77883
▁শে	-9.77963
▁হ্যারি	-9.78032
▁রাতে	-9.78077
▁১৯৫২	-9.78089
▁ফিল্ম	-9.78092
▁নৃত্য	-9.78123
▁সেমি	-9.78141
ছিলেন	-9.78197
▁প্রখ্যাত	-9.7826
▁পাহাড়	-9.78309
▁ইচ্ছা	-9.78309
▁গিয়েছিল	-9.7831
▁c	-9.78339
▁১৯২০	-9.78401
▁খা	-9.78443
▁১৯৬৫	-9.78502
▁১৯৭৮	-9.78506
▁উপস্থাপন	-9.78525
▁সহযোগী	-9.78538
▁কার	-9.7855
▁তৈরির	-9.78568
▁জিন	-9.7867
▁সাংবাদিক	-9.78877
ল্ড	-9.78911
▁১ম	-9.78921
▁প্রতিরক্ষা	-9.78953
▁স্থানাঙ্ক	-9.79027
▁ময়মনসিংহ	-9.79052
▁চায়	-9.79245
োর	-9.79297
▁স্থানান্তরিত	-9.79305
ন্	-9.79326
▁যাত্রী	-9.79347
▁দ্বি	-9.79404
▁কোর্স	-9.79428
▁ব্যা	-9.79503
▁ইহুদি	-9.79514
▁নেটওয়ার্ক	-9.7952
▁;	-9.79537
▁প্রার্থী	-9.79556
▁বইয়ের	-9.79607
▁উর্দু	-9.7962
রত	-9.79652
▁ঈশ্বর	-9.79685
▁অনুমোদন	-9.7969
'-	-9.79717
▁তম	-9.79784
▁অপরাজিত	-9.7981
▁উচ্চারণ	-9.79871
▁পদ্ধতির	-9.79893
▁সেখান	-9.79901
▁ভাব	-9.79975
▁সবাই	-9.8006
▁১৯৮৯	-9.80061
▁১৯৮৮	-9.80062
▁মধ্যেই	-9.80108
▁অনুমান	-9.80123
▁আবি	-9.80164
▁পাবলিক	-9.80173
▁লো	-9.80181
▁পার্শ্ব	-9.80213
▁মুক্তিপ্রাপ্ত	-9.80254
ad	-9.80289
▁বাধা	-9.80334
▁আল্লাহর	-9.80439
ব্য	-9.80485
▁নারীর	-9.80503
▁করায়	-9.80648
▁শতক	-9.80675
াত	-9.8069
প্রাপ্ত	-9.80717
▁কেবলমাত্র	-9.80723
ঙ্ক	-9.80863
ম্প	-9.80867
▁দক্ষতা	-9.80869
▁যেগুলো	-9.80873
▁হযরত	-9.80916
▁উচিত	-9.80964
▁খবর	-9.81011
▁গুগল	-9.81013
▁কিশোর	-9.81042
স্ক	-9.81049
▁চলাচল	-9.81089
▁১৯৮৫	-9.81094
▁বোঝানো	-9.81136
▁হিসেবেও	-9.81161
▁সনে	-9.81202
▁উপযোগী	-9.81229
▁অপরাধ	-9.81233
মের	-9.81252
▁অভিজ্ঞতা	-9.81266
▁ভেঙ্গে	-9.81267
▁সাব	-9.813
▁বিনিময়ে	-9.81326
▁একত্রিত	-9.81336
ম্ব	-9.81345
▁খ্রিস্টপূর্ব	-9.81346
▁আদালত	-9.81348
▁বিশেষভাবে	-9.81386
▁জু	-9.81405
▁ট্রেন	-9.81425
▁গঠনের	-9.81425
▁মাটি	-9.81448
▁বক্তব্য	-9.8145
েল	-9.81568
▁প্রোগ্রাম	-9.81822
▁পল	-9.81825
▁থাকলে	-9.81856
0	-9.8188
▁স্থানান্তর	-9.81983
▁গণতান্ত্রিক	-9.82128
▁অফিসার	-9.82185
▁that	-9.82188
▁নেপাল	-9.8224
▁বিজ্ঞানের	-9.82296
▁গিয়েছে	-9.82316
বাস	-9.82382
▁কুরআন	-9.82382
▁রংপুর	-9.82391
▁সাম্প্রতিক	-9.82426
▁নিবন্ধ	-9.82459
▁নির্বাচনের	-9.82487
▁এইচ	-9.82522
শী	-9.82565
▁সূরা	-9.82572
▁সমাজে	-9.82582
▁অনুষদ	-9.82586
উল	-9.82586
▁কাজী	-9.82644
▁ঘিরে	-9.82687
▁মেলা	-9.82714
▁কর্মী	-9.82732
▁চাঁদ	-9.82772
▁মৌসুমের	-9.82786
▁যেকোন	-9.82796
F	-9.82966
▁m	-9.82978
▁বেল	-9.8298
টু	-9.83014
ার্স	-9.83014
▁দিকের	-9.8307
▁সাহিত্যে	-9.83075
▁আইনের	-9.83232
▁কল	-9.83312
নাম	-9.8332
▁সাহিত্যিক	-9.83473
▁স্বতন্ত্র	-9.83493
▁আবেদন	-9.83494
ঙ	-9.83497
▁নির্বাহী	-9.83532
▁পুরুষের	-9.83573
▁পুরাণ	-9.83741
▁গবেষণায়	-9.83803
it	-9.83856
▁৫৫	-9.83895
▁শাখার	-9.83985
▁অভ্যন্তরীণ	-9.83992
▁স্টেট	-9.84082
▁গ্রেট	-9.84115
▁বিদেশী	-9.84154
িল	-9.84194
▁দৃষ্টি	-9.84266
▁ইঞ্জিনিয়ারিং	-9.84278
▁প্রশ্ন	-9.84399
▁৫৩	-9.84439
হে	-9.84441
সেন	-9.84454
▁সপ্তাহ	-9.84466
▁উপনিবেশ	-9.84468
▁re	-9.84653
▁মুখোমুখি	-9.84685
জাতীয়	-9.84691
▁১৯৬৪	-9.84696
▁কী	-9.84706
বন	-9.84758
▁সাতটি	-9.8479
▁প্রচেষ্টা	-9.84808
▁স্কুলের	-9.8498
▁উদ্বোধন	-9.85065
মিন	-9.85117
▁জাপানি	-9.85158
বাজার	-9.85179
▁৩৩	-9.85324
▁কালে	-9.85345
▁দিনাজপুর	-9.85372
▁ভবনের	-9.85421
লের	-9.85467
▁লড়াই	-9.85536
▁পরিমাণে	-9.8556
▁ডান	-9.85566
▁আখ্যায়িত	-9.85574
▁এনে	-9.85609
▁প্রো	-9.85631
▁একসময়	-9.8566
▁আনুষ্ঠানিক	-9.85666
▁খেলতে	-9.85717
▁৩৪	-9.85721
এল	-9.85765
▁নব	-9.8577
▁b	-9.85778
▁সফরকারী	-9.85868
▁নিয়োজিত	-9.85894
k	-9.85903
ইউ	-9.85906
▁তামিল	-9.85925
দান	-9.85928
নীয়	-9.85988
▁সপ্তম	-9.86051
ي	-9.86068
য়ো	-9.86068
▁সমকামী	-9.86071
▁গঙ্গা	-9.86121
▁অপারেশন	-9.86169
▁পেছনে	-9.8618
▁গুপ্ত	-9.86184
দ্	-9.86186
R	-9.86331
ن	-9.86378
▁সংবিধান	-9.86425
▁বিরোধিতা	-9.86505
▁স্বর্ণ	-9.86587
ল্লা	-9.86646
▁নির্ণয়	-9.8673
▁শত	-9.86734
▁১৯৮১	-9.86736
▁সমসাময়িক	-9.86737
▁প্রাচীনতম	-9.86753
▁ওয়ার্ড	-9.86757
স্তা	-9.86801
▁প্রভাবশালী	-9.8693
ic	-9.86969
▁প্রবর্তন	-9.86991
▁সাই	-9.87011
▁১৯৫৪	-9.87063
▁লর্ড	-9.87112
েশ্বর	-9.87169
▁সেন্টার	-9.87226
গ্	-9.87243
▁বিশ্লেষণ	-9.87396
▁কর্মজীবন	-9.87397
▁ঘোষ	-9.87428
▁জেলাটি	-9.87444
H	-9.87465
▁সম্মাননা	-9.87507
▁পারবে	-9.87616
তলা	-9.87617
বী	-9.87632
▁নো	-9.87682
▁কুমিল্লা	-9.87751
▁রবার্ট	-9.87795
▁সিনেমা	-9.87796
▁আসতে	-9.87859
গন	-9.87878
▁মূল্য	-9.87952
▁অনুরূপ	-9.87989
▁মিত্র	-9.87999
▁ক্যালিফোর্নিয়া	-9.88055
কেও	-9.88057
▁নৌ	-9.881
▁আফগানিস্তানের	-9.88104
▁গাড়ি	-9.88142
২৭	-9.88174
▁৮৮	-9.88187
্ব	-9.88218
▁সো	-9.883
▁কর্পোরেশন	-9.88308
▁আগেই	-9.88319
▁শাসনের	-9.88354
▁মিশর	-9.88355
▁দক্ষ	-9.88379
▁দ্বীপপুঞ্জ	-9.8841
ل	-9.8841
▁লাখ	-9.88426
▁অসাধারণ	-9.88499
▁সংশ্লিষ্ট	-9.88505
▁মোবাইল	-9.88531
▁মহান	-9.88574
▁পড়া	-9.88616
▁আজাদ	-9.8866
D	-9.88701
...	-9.88717
▁হয়েছিলো	-9.88732
▁বিবরণ	-9.88744
▁বাজারে	-9.8878
▁যথা	-9.88829
▁পঞ্চায়েত	-9.88882
▁খ্রিস্টান	-9.88913
▁জলবায়ু	-9.88981
▁n	-9.88984
▁তত্ত্বের	-9.88994
▁সম্মুখীন	-9.89016
▁মৃত	-9.8902
▁ট	-9.89023
▁বস্তুর	-9.89046
en	-9.89046
▁দ্যা	-9.89094
ce	-9.89286
▁নাগাদ	-9.89289
▁সম্পাদনা	-9.89315
▁সমষ্টি	-9.89357
▁পড়তে	-9.89362
▁কারনে	-9.89426
কান	-9.89443
▁বর্ষপঞ্জী	-9.89449
▁গু	-9.89471
দী	-9.89523
▁জড়িয়ে	-9.89547
▁চর	-9.89582
4	-9.89627
▁ব্লক	-9.89632
থি	-9.89633
▁বিয়ের	-9.89658
▁পতন	-9.8967
▁বিতর্ক	-9.89699
▁৪টি	-9.89778
▁রোগের	-9.89825
লেন	-9.89889
▁পরিবর্তনের	-9.89923
▁শিশুদের	-9.89953
▁গায়ক	-9.89982
▁শ্রমিক	-9.9005
▁পরিষেবা	-9.90143
▁গেম	-9.90144
▁উল্লেখ্য	-9.90147
▁on	-9.9018
▁বেশির	-9.90191
▁মহাসড়ক	-9.90232
▁দ্বীপের	-9.90239
▁৭৪	-9.90248
▁তরল	-9.90251
▁নাইট	-9.90253
গার	-9.9028
†	-9.90343
▁পড়ার	-9.90361
▁পর্ব	-9.90394
বর	-9.90395
▁গ্রীষ্মকালী	-9.9041
▁চাকরি	-9.9048
▁লীগে	-9.9052
▁৩৭	-9.90543
রিয়া	-9.90561
▁কোষ	-9.90594
▁গোল্ডেন	-9.90595
▁শিল্পের	-9.90619
▁পত্রিকায়	-9.90711
▁৪৬	-9.90736
অ্যা	-9.9075
▁জগতে	-9.90823
▁একত্রে	-9.90826
▁ওয়েব	-9.90863
▁অতঃপর	-9.90867
▁গ্রেফতার	-9.9088
▁পুরাতন	-9.90948
il	-9.90974
▁জাতিসংঘ	-9.91026
▁বিরাট	-9.91029
▁ইসলামি	-9.91036
▁৩৬	-9.91052
▁হালকা	-9.91164
▁বেতার	-9.91172
ত্ত	-9.91206
▁পয়েন্ট	-9.91266
▁বন্দী	-9.91368
▁প্রচারিত	-9.9142
▁এটিই	-9.91448
▁মিডিয়া	-9.91477
▁প্রজনন	-9.9156
an	-9.91627
২৩	-9.91628
▁কাব্য	-9.91643
ঘাট	-9.91711
ছা	-9.91875
▁৫৪	-9.91885
০৪	-9.91899
▁১৯৫৬	-9.91906
▁গোষ্ঠী	-9.91916
▁সাধারণভাবে	-9.9196
তর	-9.92019
▁পদক্ষেপ	-9.92034
ঞ্চ	-9.92116
▁নাট্য	-9.92181
ইয়া	-9.92183
▁আলেকজান্ডার	-9.92216
▁উদ্বোধনী	-9.92225
▁উদ্ভব	-9.92237
ন্ট	-9.92262
২১	-9.92274
▁সৌর	-9.92303
▁৭৬	-9.92316
▁উয়েফা	-9.92399
▁নামানুসারে	-9.92408
▁মসজিদের	-9.92434
▁লিমিটেড	-9.92446
▁দত্ত	-9.92463
▁রাজার	-9.92573
▁পো	-9.92581
▁কক্ষ	-9.92588
▁সংজ্ঞা	-9.92612
ভো	-9.92632
▁সংখ্যার	-9.92649
▁ব্যবসায়ী	-9.92661
িতে	-9.92695
T	-9.92709
▁উদাহরণস্বরূপ	-9.92718
▁গোয়েন্দা	-9.92721
▁শব্দটির	-9.92753
পশ্চিমে	-9.92755
ীদের	-9.92755
▁ইরানের	-9.92778
▁মহকুমা	-9.92788
▁বিলুপ্ত	-9.9282
▁যৌথ	-9.92931
▁৫টি	-9.92947
▁বিশ	-9.92998
▁চালায়	-9.93041
▁স্টার	-9.93217
▁কেন্দ্রে	-9.93229
▁তাছাড়া	-9.93233
▁পিটার	-9.93261
▁পণ্ডিত	-9.93283
▁পারস্য	-9.93285
▁আদ	-9.93356
▁হ্রদ	-9.93358
▁তি	-9.93397
▁গমন	-9.9341
▁প্রতিদিন	-9.93462
▁রাজবংশ	-9.93511
▁ফ্রি	-9.93545
২২	-9.93561
▁প্রতিক্রিয়া	-9.93579
▁ক্যাথলিক	-9.93608
রিন	-9.93646
ষ্ঠ	-9.93662
▁রস	-9.9368
▁১৯৬১	-9.93754
জনিত	-9.93768
▁ইন্টারনেট	-9.93887
▁আত্মপ্রকাশ	-9.93956
▁বহুল	-9.93961
▁সশস্ত্র	-9.93984
▁ব্যবসায়	-9.94013
ম্বা	-9.94024
▁পত্র	-9.94033
▁১৯৬৩	-9.94034
▁নিয়েছিলেন	-9.94038
▁O	-9.94083
▁মানে	-9.941
▁আয়াত	-9.94147
বিরোধী	-9.94157
▁চু	-9.94197
▁জোট	-9.94204
▁এক্ষেত্রে	-9.94241
▁অস্বীকার	-9.94371
২৪	-9.94388
▁গে	-9.94462
▁ফাস্ট	-9.94552
নু	-9.94583
▁কৃষক	-9.94652
▁চার্লস	-9.94715
em	-9.94734
▁চাহিদা	-9.9475
২৮	-9.94944
▁কার্যালয়	-9.94983
▁ডানার	-9.95033
▁ভিক্টোরিয়া	-9.95035
▁রেড	-9.95111
▁মতবাদ	-9.9516
▁গোত্রের	-9.95265
িনী	-9.95334
▁১৯৬৬	-9.9538
▁আম	-9.95395
▁বোলিংয়ে	-9.95396
▁প্রিয়	-9.95398
ফার	-9.95399
▁নাটকে	-9.95431
▁মানুষকে	-9.95447
▁V	-9.95448
▁দ্রাঘিমাংশ	-9.95523
▁ব্যাকরণ	-9.95543
▁রূপান্তরিত	-9.95589
এটি	-9.95618
▁ভা	-9.95669
▁সন্তানের	-9.95684
▁পারিবারিক	-9.95703
▁ক্যাপ্টেন	-9.95704
ভে	-9.95707
▁দুর্গ	-9.95756
▁জারি	-9.95766
▁মানের	-9.95774
▁মন্দিরটি	-9.95803
▁অব্যাহত	-9.95818
াংশ	-9.95824
▁আরেক	-9.95955
▁স্থির	-9.96046
▁ইতালীয়	-9.96074
▁অনেকটা	-9.9608
এফ	-9.9614
দাস	-9.96184
▁ব্ল্যাক	-9.96205
▁সবসময়	-9.96222
▁W	-9.96255
▁প্রাথমিকভাবে	-9.96394
উদ্দিন	-9.96421
▁উপহার	-9.96435
▁মুক্তিযোদ্ধা	-9.9646
সং	-9.96485
▁জ্যাক	-9.96498
▁ইন্দো	-9.96506
▁দাঁড়ায়	-9.96509
▁সন্ধান	-9.96555
▁পূর্ববর্তী	-9.96608
▁প্রতিবেদন	-9.96632
জাত	-9.96646
▁শ্রীলঙ্কার	-9.96684
▁কলেজটি	-9.96703
▁উমর	-9.96764
▁সূর্যের	-9.96771
▁স্টুডিও	-9.96784
{	-9.96912
▁গোত্র	-9.96929
াদি	-9.96945
৩৩	-9.96997
▁দুর্বল	-9.97005
▁কিভাবে	-9.97024
▁ইয়া	-9.97064
▁মুখ্য	-9.97099
▁by	-9.971
6	-9.97126
▁একসাথে	-9.97149
▁জাতীয়তাবাদী	-9.9716
▁ডিজাইন	-9.97163
▁বেসরকারি	-9.97199
▁অবশ্যই	-9.97224
▁ফু	-9.97246
▁সঙ্গীতের	-9.97248
▁রক	-9.97326
▁পার্বত্য	-9.9734
L	-9.9739
▁তাপ	-9.97445
▁যুক্তরাজ্য	-9.97483
৮০	-9.97543
▁ব্যবস্থাপনা	-9.97624
▁ডানহাতি	-9.97629
বিহীন	-9.9766
▁তুলনা	-9.9774
▁অবলম্বনে	-9.97808
▁এশীয়	-9.97816
▁পাকিস্তানে	-9.97839
▁অলিম্পিকে	-9.97861
▁পাট	-9.97923
▁তুমি	-9.9794
ri	-9.97973
মন	-9.97996
▁পরামর্শ	-9.98047
ড়ে	-9.98053
▁নিকটবর্তী	-9.98069
ক্ষণ	-9.98093
▁হাসপাতালে	-9.98094
▁স্তরে	-9.98101
▁কার্	-9.98159
▁উদ্যান	-9.98184
▁১৯৫৭	-9.98217
▁৭২	-9.98224
▁দায়ী	-9.98244
েশ	-9.98324
▁জমা	-9.98336
▁বৈদ্যুতিক	-9.98342
▁দর্শনের	-9.98469
▁অভিনীত	-9.98497
শো	-9.98512
▁কোরিয়া	-9.9852
▁বোমা	-9.98533
▁৬৫	-9.98569
▁L	-9.98616
▁রুট	-9.98709
▁মিনিট	-9.98714
▁আলোর	-9.98739
—	-9.98809
▁কামাল	-9.98864
▁অনুষ্ঠানের	-9.98866
জান	-9.98908
▁যৌথভাবে	-9.98919
▁প্রকৃতির	-9.99
▁বিন্দু	-9.99007
▁সোসাইটি	-9.99009
▁মন্ত্রণালয়	-9.99041
▁চর্চা	-9.99049
▁বলেছিলেন	-9.99052
z	-9.99063
ন্দা	-9.99084
▁গণিত	-9.99085
▁১৯৫৮	-9.99092
▁রু	-9.99107
▁সমস্যার	-9.9914
▁কার্ড	-9.99144
▁হেনরি	-9.99202
▁স্তরের	-9.99204
▁ইংল্যান্ডে	-9.99252
▁আকৃতির	-9.99402
lo	-9.99425
▁ডানহাতে	-9.99444
▁ইন্দোনেশিয়া	-9.99526
▁লেখার	-9.99533
▁প্রকাশের	-9.99606
▁প্রযোজনা	-9.99633
▁প্রযোজক	-9.99669
▁জয়ের	-9.99686
▁৩৮	-9.99839
ent	-9.9988
▁ঘটেছে	-9.99926
▁খেলোয়াড়দের	-9.99952
▁এশিয়ান	-9.99978
▁শক্ত	-10
▁সিপিআই	-10.0002
▁সীমিত	-10.0003
▁পত্রিকার	-10.0004
হো	-10.0006
▁করেননি	-10.0014
▁প্রবন্ধ	-10.0015
▁বাইরের	-10.0015
▁স্থাপনা	-10.0016
▁জাতিসংঘের	-10.0019
দেব	-10.0037
র্ন	-10.0037
▁N	-10.0038
▁সেনাপতি	-10.0041
▁শূন্য	-10.0041
O	-10.0043
জেন	-10.0045
▁৪২	-10.0047
▁অসম	-10.0051
▁নিয়ন্ত্রিত	-10.0055
▁মঙ্গল	-10.0059
▁চিকিৎসক	-10.006
▁বঙ্গ	-10.0062
▁পাঞ্জাব	-10.0066
▁মাল	-10.0069
▁মেজর	-10.0071
▁১৯৪৬	-10.0071
▁উদ্দিন	-10.0072
▁রীতি	-10.0074
▁চাল	-10.0074
▁বর্গকিলোমিটার	-10.0077
▁ক্রিয়া	-10.0078
▁was	-10.0079
▁ধারার	-10.008
▁শ্রেণীতে	-10.0082
▁ওঠেন	-10.0082
▁চুক্তির	-10.0083
কোন	-10.0084
▁সংগঠিত	-10.0085
▁নিয়েছেন	-10.0085
▁১৯৪৫	-10.0086
০৭	-10.0088
মেন	-10.0093
▁শিক্ষার্থীদের	-10.0094
▁প্রার্থনা	-10.0098
▁অক্সফোর্ড	-10.0099
▁নিউটন	-10.0101
▁অবস্থার	-10.0102
▁প্রকল্পের	-10.0102
▁পালিত	-10.0111
▁পশ্চিমা	-10.0113
্র	-10.0114
▁যুক্তরাজ্যের	-10.0116
▁যাবার	-10.0118
▁অভ্যন্তরে	-10.0119
▁জোর	-10.0119
▁স্থানের	-10.0119
I	-10.012
▁প্রতিষ্ঠানটি	-10.0121
▁নর	-10.0125
▁স্টেডিয়ামে	-10.0129
▁আত্ম	-10.0136
ীন	-10.0139
▁দলীয়	-10.0145
▁বিষয়ের	-10.0147
▁পর্যায়	-10.0152
▁অষ্টম	-10.0152
▁ভাস্কর্য	-10.0154
▁উদ্যোগে	-10.0156
াঙ্গ	-10.0157
▁বিষ্ণু	-10.0159
▁ভোগ	-10.0159
▁দুইবার	-10.0159
▁ল্যা	-10.0159
▁ইরান	-10.016
▁শাসনামলে	-10.016
▁১৯৫৫	-10.0161
▁বীজ	-10.0161
▁কাঠ	-10.0172
▁জ্যোতির্বিজ্ঞান	-10.0172
০৬	-10.0173
দেরকে	-10.018
▁যুব	-10.0184
▁ডাই	-10.0185
মত	-10.0187
▁কান	-10.0188
▁হচ্ছেন	-10.0189
▁ফুটবলার	-10.0203
▁দশম	-10.0204
▁ইউনিট	-10.0207
▁ফেলা	-10.0213
ধর্মী	-10.0215
▁ধূসর	-10.0224
▁সংকেত	-10.0228
▁জোড়া	-10.0228
▁প্রশাসন	-10.0228
▁পরেই	-10.023
▁সম্প্রচার	-10.0234
▁ইসলামিক	-10.0237
▁U	-10.0247
-'	-10.0257
▁বাম	-10.0259
▁বুদ্ধ	-10.0267
▁আফগানিস্তান	-10.0268
৩৪	-10.0269
▁রেখা	-10.027
▁উপযুক্ত	-10.0276
▁স্পষ্ট	-10.0278
▁অনন্য	-10.0284
▁ইট	-10.0295
▁উদ্যোগ	-10.0296
ডেন	-10.0303
N	-10.0306
ওয়ার	-10.0306
ra	-10.0323
▁সেট	-10.0326
▁দুজন	-10.0327
তিনি	-10.0332
▁মন্ত্রণালয়ের	-10.0333
▁মন্দিরে	-10.0338
▁ট্যাগ	-10.0339
৬০	-10.0339
▁সম্পর্কের	-10.0347
ation	-10.035
▁রাত	-10.0352
▁ভৌগোলিক	-10.0356
▁স্নাতকোত্তর	-10.0356
▁প্রসারিত	-10.0358
▁বিকল্প	-10.0359
▁যত	-10.0359
দেশ	-10.036
▁মসজিদটি	-10.0362
ভুক্ত	-10.0366
▁তরঙ্গ	-10.0367
▁উজ্জ্বল	-10.0367
▁নিজেই	-10.0369
▁দপ্তর	-10.0379
▁অভাব	-10.0383
ক্	-10.0389
রাই	-10.039
▁১৯৪০	-10.0397
▁আবুল	-10.0408
▁শাখায়	-10.041
ানো	-10.0416
▁ত্রুটি	-10.0416
▁প্রতিবাদ	-10.0421
▁খণ্ড	-10.0422
▁হাসপাতাল	-10.0424
▁১৯৪৯	-10.0426
▁প্রত্যাখ্যান	-10.0432
▁বৃষ্টিপাত	-10.0433
▁সরিয়ে	-10.0433
▁চট্টোপাধ্যায়	-10.0436
▁ইন্ডিজের	-10.044
াবাদ	-10.0441
▁অর্থে	-10.0442
▁কঠোর	-10.0442
▁আবাসিক	-10.0442
▁চ্যাম্পিয়নশিপ	-10.0443
▁৭৭	-10.0444
▁প্রাদেশিক	-10.0448
▁স্বাগতিক	-10.0449
০৮	-10.0449
▁মায়া	-10.0453
▁ভ	-10.0458
▁স্তম্ভ	-10.0459
▁ম্যা	-10.0469
▁আমির	-10.0469
▁পুণরা	-10.0471
শু	-10.0474
▁ক্ষমতার	-10.0475
▁পূর্ণাঙ্গ	-10.048
▁মঞ্চ	-10.048
▁উন্নয়নের	-10.0481
5	-10.0483
▁হামলা	-10.0485
▁উপায়	-10.0487
▁পদত্যাগ	-10.0494
চু	-10.0504
▁ম্যানচেস্টার	-10.051
▁গেমসে	-10.0512
▁প্রদর্শিত	-10.0517
▁বেসামরিক	-10.0525
▁১৯৫১	-10.0526
বাংলাদেশ	-10.0528
▁৬৪	-10.0531
▁ফিরিয়ে	-10.0533
নিয়া	-10.0537
▁অর	-10.0537
▁যেত	-10.0538
চর	-10.0539
▁দো	-10.0545
০৯	-10.0547
▁নদীতে	-10.0557
▁টা	-10.0563
▁বর্ণের	-10.0564
▁সেটা	-10.0574
▁চরিত্রের	-10.0582
▁বিধান	-10.0583
হর	-10.0587
▁কাম	-10.0592
▁গবেষক	-10.06
েট	-10.0606
ল্	-10.061
▁লন্ডনের	-10.061
▁স্ত্রীর	-10.0613
▁মিশরের	-10.0615
▁প্রস্থ	-10.0615
▁পলি	-10.0622
▁অঞ্চলটি	-10.0626
▁$	-10.0635
▁are	-10.0636
৪৮	-10.0643
▁ক্ষতি	-10.0647
ণ্ড	-10.0647
▁প্রান্ত	-10.0648
▁পৌঁছে	-10.065
▁বেঁচে	-10.065
▁প্রত্যক্ষ	-10.0655
▁সম্প্রসারণ	-10.0658
▁৪৩	-10.0661
লাভ	-10.0664
▁তিনিই	-10.0668
▁টিকে	-10.0669
▁আদম	-10.0669
▁৫০০	-10.067
▁জৈন	-10.0681
▁হোক	-10.0683
▁নির্মাতা	-10.0684
▁এ্যা	-10.0684
▁জাদুঘর	-10.0687
▁কারো	-10.0687
▁নৌকা	-10.0688
৩৫	-10.0689
▁বিষয়বস্তু	-10.0691
▁সম্ভাব্য	-10.0691
▁যশোর	-10.0696
▁৮৫	-10.0703
▁পশু	-10.0705
শক্তি	-10.0705
▁অপারেটিং	-10.0705
▁বাঘ	-10.0705
▁নির্ভরশীল	-10.0706
▁স্থাপনের	-10.0707
▁ভেতর	-10.0718
▁বন্দ্যোপাধ্যায়	-10.0721
▁তিব্বতী	-10.0725
৩৯	-10.0728
▁৩৯	-10.0729
ch	-10.0729
▁সদস্যরূপে	-10.073
▁আকাশ	-10.0734
▁কারখানা	-10.0741
▁৭৩	-10.0742
▁সবার	-10.0743
▁পোস্ট	-10.0758
▁প্রকৃতপক্ষে	-10.0761
▁উই	-10.0762
▁চান	-10.0766
িও	-10.0773
সব	-10.0774
▁সহায়তায়	-10.0777
▁অভিযানের	-10.0781
▁৪১	-10.0782
▁দুইজন	-10.0787
পথ	-10.0788
▁সরল	-10.0791
▁শর্ত	-10.0791
▁করছিলেন	-10.0795
▁গাণিতিক	-10.0803
▁পারমাণবিক	-10.0804
▁উদ্ভাবন	-10.0808
▁কৃত্রিম	-10.0822
▁ব্রাজিল	-10.083
▁রাগ	-10.083
▁বাঁধ	-10.083
▁গ্রুপের	-10.083
▁অনেকগুলি	-10.0831
▁বক্স	-10.084
▁যেটা	-10.084
▁হোটেল	-10.0841
▁দেশটি	-10.0847
▁অনেকেই	-10.0856
▁উপদেষ্টা	-10.0857
্যাল	-10.086
▁স্যা	-10.086
▁বাই	-10.0865
▁মিষ্টি	-10.0867
▁সংগ্রাম	-10.087
▁সদস্যরা	-10.0871
ভেন	-10.0876
▁দর্শক	-10.0882
▁সাধন	-10.0886
৫০০	-10.089
৩২	-10.0897
w	-10.0905
২৯	-10.0907
▁সহজেই	-10.0911
▁নাই	-10.0912
▁ইঞ্চি	-10.0914
▁রাজকীয়	-10.0922
▁পরমাণু	-10.0923
▁একাদশ	-10.0925
▁এজন্য	-10.0925
োয়া	-10.0926
▁বৈদেশিক	-10.0937
▁চট্টগ্রামের	-10.0942
▁প্রেস	-10.0943
▁সহযোগিতা	-10.0949
▁তবুও	-10.0951
▁গোপন	-10.0955
▁ঈশ্বরের	-10.0959
▁চোখ	-10.096
▁খ্রিস্টাব্দ	-10.0964
▁আগ্রহী	-10.0968
▁ভয়	-10.0968
০৫	-10.0974
▁পরগনা	-10.0981
৪৭	-10.0983
▁মিশরীয়	-10.0984
▁দাগ	-10.0991
িশ	-10.0992
se	-10.0993
▁কমপক্ষে	-10.0996
▁অপেক্ষাকৃত	-10.0996
▁মাটিতে	-10.0997
▁বিদ্যালয়টি	-10.1
▁ওপেন	-10.1002
▁ইন্সটিটিউট	-10.1002
▁মহাবিশ্বের	-10.1003
▁অনুরোধ	-10.1003
▁মুক্তিযুদ্ধ	-10.1005
▁বিশেষজ্ঞ	-10.1005
▁৪৪	-10.1013
▁আবদুল্লাহ	-10.1015
▁হাদিস	-10.102
▁লন্ডনে	-10.1022
▁লাতিন	-10.1022
শান	-10.1024
▁যোগাযোগের	-10.103
৪৯	-10.1036
▁পোর্ট	-10.1036
▁ফার্সি	-10.1041
la	-10.105
▁ভেতরে	-10.1061
▁৫৬	-10.107
▁গুলো	-10.1071
পতি	-10.1072
▁অবশিষ্ট	-10.1075
▁ডিএনএ	-10.1084
▁লোকের	-10.1087
দল	-10.109
▁উপলক্ষে	-10.109
▁গ্রামীণ	-10.1092
▁বেগ	-10.1094
▁চ্যাম্পিয়নশীপ	-10.1094
▁বাড়ির	-10.1098
ity	-10.1107
▁চরম	-10.1109
▁শু	-10.1112
▁সম্মেলনে	-10.1118
▁ফসল	-10.112
▁মায়ানমার	-10.1123
▁পর্বের	-10.1124
▁বরিশাল	-10.1134
আমি	-10.1136
▁থিয়েটার	-10.1136
▁অবস্থানে	-10.1138
id	-10.114
▁তিনজন	-10.1142
am	-10.1145
৭০	-10.1148
টিক	-10.115
▁পরিচালনায়	-10.1154
▁দ্বীপে	-10.1156
▁গানে	-10.1163
▁একটু	-10.1169
ওয়ে	-10.1169
▁জনগণ	-10.1172
ন্ডা	-10.1177
▁৩য়	-10.1183
▁প্রত্যাহার	-10.1184
▁মাই	-10.1186
▁+	-10.1187
▁সোনা	-10.1188
ر	-10.1191
▁সংজ্ঞায়িত	-10.1191
▁একদিন	-10.1192
▁আশ	-10.1192
▁ঘোষিত	-10.1196
এইচ	-10.1199
▁প্রত্নতাত্ত্বিক	-10.1208
লাম	-10.1216
▁বংশ	-10.1222
▁ঘটায়	-10.1222
▁ঊনবিংশ	-10.1225
▁মিউজিক	-10.1225
▁সভ্যতার	-10.1232
▁টাওয়ার	-10.1234
▁ট্রফি	-10.1235
▁পানিতে	-10.1239
▁বিস্তারিত	-10.1241
৪৫	-10.1244
এক	-10.1244
▁প্রদেশে	-10.1245
▁রোহিঙ্গা	-10.1245
▁আফগান	-10.1253
▁ডাল	-10.1253
▁t	-10.1254
▁কেন্দ্রের	-10.1257
সেল	-10.1261
▁স্বপ্ন	-10.1261
▁বার্সেলোনা	-10.1266
▁রাস্তাটি	-10.1267
▁খাঁ	-10.1268
▁কার্বন	-10.127
ত্র	-10.1275
র্গ্যাল	-10.128
▁প্রকাশনা	-10.1287
▁সংঘর্ষ	-10.1289
খালী	-10.1295
▁আলম	-10.1304
▁ত্রিপুরা	-10.1305
▁সর্বাপেক্ষ	-10.1308
▁খেতাব	-10.1309
কেন্দ্র	-10.1322
▁রপ্তানি	-10.1325
▁ব্রাহ্মণ	-10.1325
▁সমূদ্র	-10.1325
▁১৯৫৩	-10.1327
জের	-10.1328
▁ক্ষমতায়	-10.133
▁উপমহাদেশের	-10.1331
▁বিনিয়োগ	-10.1335
▁প্রান্তে	-10.1337
▁জৈব	-10.134
৩৬	-10.1342
▁মাংস	-10.1342
▁১৯৫৯	-10.1344
▁৬২	-10.1344
▁অর্ধেক	-10.1346
▁মিয়া	-10.1349
▁অগ্নি	-10.1351
▁সমন্বয়	-10.1354
▁অবধি	-10.1354
▁ব্যক্তিদের	-10.136
▁আহ্বান	-10.1368
▁দেবীর	-10.137
▁নন	-10.1374
▁ছোটো	-10.1374
▁গণনা	-10.1377
▁ডিজিটাল	-10.1377
▁বার্তা	-10.1382
▁দিয়েছিল	-10.1386
▁অনুশীলন	-10.1387
▁পিছনে	-10.139
▁অপেক্ষা	-10.1394
▁ইউরো	-10.1396
মাল	-10.1398
▁পাথরের	-10.1406
▁জমির	-10.1409
▁সার্ভিস	-10.141
▁শরীরের	-10.1415
৩৮	-10.1421
▁চোখে	-10.1422
▁শিষ্য	-10.1423
▁চিঠি	-10.1426
▁প্রেক্ষিতে	-10.1427
▁সভা	-10.1427
ধারী	-10.1428
▁শপথ	-10.1428
▁সিঙ্গাপুর	-10.1433
▁সাপ	-10.1433
কী	-10.1435
▁মাথায়	-10.1437
▁আদায়	-10.1439
▁টানা	-10.1439
▁জীবিত	-10.1441
G	-10.1443
বিজ্ঞান	-10.1443
ায়ন	-10.1447
\	-10.1447
▁লাগে	-10.145
▁মার্ক	-10.1451
▁খারাপ	-10.1452
৭৫	-10.1453
ল্ট	-10.1455
▁ঘনত্ব	-10.1457
সম্পন্ন	-10.1458
েন্দ্র	-10.1459
▁১৯২১	-10.1463
▁ধরন	-10.1464
▁সমাপ্ত	-10.1474
▁উত্তীর্ণ	-10.1478
▁ওয়ার	-10.1479
▁উপরের	-10.1484
বোধ	-10.1485
▁বিক্রয়	-10.1492
ণা	-10.1497
▁আরম্ভ	-10.1499
▁কেপলার	-10.1504
▁বিদ্যা	-10.1508
প্রতি	-10.151
তী	-10.1515
▁দেহের	-10.1518
▁প্রায়শই	-10.1521
▁বেরিয়ে	-10.1528
▁বিবর্তন	-10.1529
▁আর্ট	-10.1529
▁পাকিস্তানী	-10.1532
ফল	-10.1534
▁আশেপাশে	-10.1538
▁পার্শ্ববর্তী	-10.1538
▁ওয়াল	-10.1538
▁মহাকাশ	-10.1544
▁খাওয়া	-10.1555
▁পূর্বের	-10.156
▁আপ	-10.1561
▁চালানো	-10.1563
▁মিশ্র	-10.1566
▁প্রকৌশলী	-10.1569
▁নবম	-10.1571
৭৮	-10.1571
০১	-10.1579
কুল	-10.1579
েড	-10.1582
▁সিন্ধু	-10.1594
্যান	-10.1596
▁খনন	-10.1598
৫৫	-10.16
▁রিচার্ড	-10.1602
২৬	-10.1604
▁রয়্যাল	-10.1607
▁অতিবাহিত	-10.1607
▁বরফ	-10.1608
▁মাস্টার	-10.1619
▁কল্পনা	-10.1624
▁সত্যজিৎ	-10.1625
▁নিউজিল্যান্ডের	-10.1627
হান	-10.1631
▁ধর্মে	-10.1631
▁সমাধি	-10.1632
▁উইজডেন	-10.1633
রাও	-10.1636
মালা	-10.164
▁পাখির	-10.1643
▁খু	-10.1647
▁দ	-10.1647
▁সহায়ক	-10.165
▁ব্যাট	-10.1652
রান	-10.1653
▁প্রাণীর	-10.1654
ne	-10.1654
জী	-10.1655
▁ডু	-10.1659
▁কার্যকরী	-10.166
▁সমালোচক	-10.1665
▁আসাম	-10.1667
▁রেখেছে	-10.1667
ro	-10.1675
৩৭	-10.1675
বছর	-10.1676
▁দিলে	-10.1688
▁অর্থনীতির	-10.1689
▁শরীর	-10.1691
▁৭১	-10.1692
et	-10.1693
▁ইলেকট্রন	-10.1697
▁or	-10.1702
র্ক	-10.1703
▁বৈষ্ণব	-10.1704
▁গেমস	-10.1709
যে	-10.171
মাস	-10.171
▁পারেনি	-10.1711
▁সামুদ্রিক	-10.1711
কুমার	-10.1713
▁পাঠান	-10.1718
▁হত্যার	-10.1722
▁সৃষ্টির	-10.1722
▁১০০০	-10.1725
▁কুরআনের	-10.1726
আব্দুল্লাহ	-10.1727
ir	-10.1729
as	-10.1733
চিত্র	-10.1733
▁ইন্টার	-10.1734
▁শিবের	-10.1735
▁বর্ষসেরা	-10.1738
▁জিতে	-10.1752
▁ব্যবস্থায়	-10.1756
▁জুটি	-10.1759
▁বিশ্বযুদ্ধ	-10.1759
▁কথিত	-10.1761
▁গ্রহের	-10.1763
থা	-10.1772
পল	-10.1773
্যু	-10.1786
ডার	-10.1787
is	-10.1795
▁মিনার	-10.1795
▁{	-10.1795
▁আসনে	-10.1807
িজ	-10.1808
▁আটটি	-10.181
▁টন	-10.181
াই	-10.1811
▁হাওড়া	-10.1824
▁টেকনোলজি	-10.1826
▁মাহমুদ	-10.1826
▁লেখেন	-10.1826
ঠ	-10.1828
▁এক্সপ্রেস	-10.1833
▁চলমান	-10.1835
▁সংগঠনের	-10.184
র্ত	-10.1843
▁পরীক্ষার	-10.1843
ঠা	-10.1844
▁মুক্তির	-10.1852
▁স্পেন	-10.1855
▁আগুন	-10.1856
৫৮	-10.186
▁আরোহণ	-10.1861
▁রাজনীতিতে	-10.1868
un	-10.1874
▁৬৩	-10.1874
▁কমান্ডার	-10.1875
▁হ্যা	-10.1876
▁হাউস	-10.1889
▁অধীন	-10.1895
৯০	-10.1898
▁d	-10.1899
▁আওতায়	-10.19
▁প্রথমদিকে	-10.1901
▁দমন	-10.1902
▁কেননা	-10.1904
ভূমি	-10.1907
▁ফাইনাল	-10.1908
▁৮৯	-10.1911
▁ক্রয়	-10.1912
▁মার্টিন	-10.1915
াব	-10.1916
স্থানাঙ্ক	-10.1919
ধর্ম	-10.1923
▁৩০০	-10.1925
▁চার্চ	-10.1929
▁বর্ধমান	-10.193
০৩	-10.1933
▁অন্তত	-10.1934
▁ভে	-10.1934
▁কবর	-10.1935
ারি	-10.1947
আপ	-10.1948
li	-10.1951
▁বিপ্লবের	-10.1959
▁ফেডারেশন	-10.196
পদ	-10.1961
8	-10.1967
মুক্ত	-10.197
▁রিপোর্ট	-10.1973
▁দেখান	-10.1974
▁মেয়েদের	-10.1974
৯৯	-10.1986
▁জনগোষ্ঠী	-10.1987
▁৬টি	-10.1993
▁পদার্থের	-10.1993
▁প্রশাসক	-10.1995
▁কার্ল	-10.1999
▁সঙ্গী	-10.2004
▁৫৭	-10.2004
▁উদ্ভূত	-10.2004
▁প্রশান্ত	-10.2008
তারা	-10.2013
▁অধ্যক্ষ	-10.2013
▁ঔষধ	-10.2028
▁শুনে	-10.2034
▁ফাইল	-10.2034
▁পাক	-10.2034
▁সেসময়	-10.2037
▁প্রাক	-10.2049
▁তিব্বতের	-10.2053
▁মিলিয়ে	-10.2062
কারীদের	-10.2062
▁হারে	-10.2064
▁বয়ে	-10.207
গাঁও	-10.2071
▁আলোক	-10.2074
▁পুলিশের	-10.2076
▁বাগান	-10.2081
দ্র	-10.2083
▁আসল	-10.2087
▁উৎসবে	-10.2095
▁ব্রা	-10.2095
▁e	-10.2095
▁আগত	-10.2096
হাট	-10.2098
▁কারা	-10.2099
▁জানুয়ারী	-10.2104
ol	-10.2105
▁টেস্টের	-10.2108
▁সমর্থ	-10.2111
▁বুক	-10.2113
▁জনক	-10.2117
▁কমলা	-10.2117
ানন্দ	-10.212
েজ	-10.2127
▁লস	-10.2127
▁মালয়েশিয়া	-10.2131
9	-10.2136
িয়ন	-10.2137
▁একাডেমী	-10.2141
▁আগমন	-10.2145
৯৭	-10.2146
সী	-10.2146
▁বাসা	-10.2147
▁খ্রিষ্টাব্দের	-10.2147
পূর্বে	-10.2149
▁ফাংশন	-10.2149
▁এবার	-10.215
▁৯১	-10.2157
▁ছাড়াই	-10.2157
▁গি	-10.216
▁চলাকালীন	-10.2177
▁উপত্যকা	-10.2178
▁রাজত্ব	-10.2179
▁কৃতিত্ব	-10.2181
▁ইংরেজিতে	-10.2182
▁ঘুরে	-10.2182
▁জিম্বাবুয়ে	-10.2191
▁মুম্বাই	-10.2191
▁স্পেনের	-10.2192
কর্ম	-10.2198
▁দৃশ্যমান	-10.2198
▁রাই	-10.22
▁গড়েন	-10.2204
▁ধ্বনি	-10.221
▁নোয়াখালী	-10.2214
▁কেটে	-10.2218
▁আন্তঃ	-10.2221
7	-10.2222
▁দেয়াল	-10.2225
রণ	-10.2227
▁লিখে	-10.223
▁সরে	-10.2239
▁দ্বৈত	-10.2239
লিং	-10.2239
▁কূটনৈতিক	-10.2241
▁আবিষ্কারের	-10.2255
▁সেল	-10.2256
▁সমূহ	-10.2258
•	-10.2259
▁আর্জেন্টিনা	-10.2268
▁সুপরিচিত	-10.2269
সিন	-10.2275
▁ইসরায়েল	-10.2276
na	-10.2277
▁টার্মিনাল	-10.228
▁১৯২৪	-10.228
িনা	-10.2283
▁৪০০	-10.2286
▁পুরোপুরি	-10.2287
▁শত্রু	-10.2288
▁সচিব	-10.229
▁লিনাক্স	-10.2292
▁সৈনিক	-10.2293
▁অধিনায়কের	-10.2294
▁গম্বুজ	-10.2296
▁হয়৷	-10.2298
ৃ	-10.2299
▁মুক্তিযুদ্ধের	-10.23
▁অসুস্থ	-10.2301
▁অনলাইন	-10.2304
▁ব্যবহারকারী	-10.2307
▁খ্রিস্টীয়	-10.2308
▁টিম	-10.2311
▁সদস্যের	-10.2314
▁দেখুন	-10.2315
▁মৌল	-10.2316
▁গৃহ	-10.2317
▁নদীটির	-10.2325
▁বঙ্গবন্ধু	-10.2326
▁চলছে	-10.2326
▁স্পর্শ	-10.2327
▁সামনের	-10.2331
▁মানবাধিকার	-10.2343
▁গোলাম	-10.2344
▁লামা	-10.2347
▁চিত্রনাট্য	-10.235
▁নেতৃত্বাধীন	-10.2361
▁ঘোড়া	-10.2362
েন্ট	-10.2362
বাদের	-10.2363
▁...	-10.2363
স্প	-10.2366
▁সংকলন	-10.237
▁ক্যাম্পাস	-10.2371
▁পরিষ্কার	-10.2372
▁আজও	-10.2373
▁আধ্যাত্মিক	-10.2373
▁পোল্যান্ড	-10.2376
▁হিল	-10.2387
▁গ্রন্থাগার	-10.2387
▁কোয়ান্টাম	-10.2389
▁৫৮	-10.2392
ন্না	-10.2394
▁প্রভাবে	-10.2397
▁ফ্লাইট	-10.2399
▁আদিবাসী	-10.2399
▁প্রবল	-10.2404
য়ন	-10.2406
য়েন	-10.2408
▁টেনিস	-10.2409
▁পারি	-10.2411
}}	-10.2411
▁সভায়	-10.2418
▁প্যারিস	-10.2418
▁গ্রীক	-10.2419
▁বিজ্ঞাপন	-10.2419
ত্তা	-10.2421
▁বংশোদ্ভূত	-10.2423
▁নমুনা	-10.2431
▁টো	-10.2432
ঘর	-10.2435
▁বারো	-10.2437
▁শিক্ষকতা	-10.2438
▁ম্যাগাজিন	-10.2443
▁আয়ারল্যান্ড	-10.2445
▁চক্র	-10.2448
▁কানাডা	-10.2452
▁বিনোদন	-10.2457
▁লোকেরা	-10.2459
▁গেল	-10.2459
▁লক্ষণ	-10.246
▁কণ্ঠ	-10.2462
▁সেখানেই	-10.2463
▁সমাপ্তি	-10.2464
▁ধাতু	-10.2469
▁গ্রেপ্তার	-10.2474
হাম	-10.2475
▁অভি	-10.2475
তায়	-10.2478
▁জনাব	-10.2479
▁ওডিআই	-10.2482
▁ভিতরে	-10.2486
▁উষ্ণ	-10.2486
▁চ্যাপলিন	-10.2493
▁বিষ	-10.2497
স্ব	-10.2498
ন্ডি	-10.2499
▁আবির্ভাব	-10.2503
▁প্রসিদ্ধ	-10.2508
▁কোরিয়ার	-10.2513
উড	-10.2515
▁বেন	-10.2517
▁১৯২৮	-10.2524
▁3	-10.2527
▁১৫০	-10.2527
▁সেন্টিমিটার	-10.2528
▁জাফর	-10.2535
নেট	-10.2544
▁তোলার	-10.2546
▁১৯৩২	-10.2552
▁ছবিটির	-10.256
▁তুলতে	-10.2567
▁বিন্যাস	-10.2568
▁পরিবেশে	-10.2568
সাই	-10.257
▁সকাল	-10.2577
▁ধনী	-10.2578
▁ডিসেম্বরে	-10.2579
▁ক্লাস	-10.2581
▁নেওয়ার	-10.2582
▁জিয়া	-10.2586
সম	-10.2586
▁পঞ্জিকা	-10.2589
▁তাত্ত্বিক	-10.2591
▁ভার	-10.2594
▁গায়ে	-10.2597
▁আর্	-10.2606
▁একেবারে	-10.2608
▁১৯৩৮	-10.2619
ফোর্ড	-10.2627
▁কবির	-10.2628
▁অপ	-10.2628
িয়াস	-10.2628
▁মেসি	-10.2631
▁৭৮	-10.2633
খ্রিস্টপূর্বাব্দ	-10.2634
▁বার্মা	-10.2644
৮৮	-10.2644
▁টাইম	-10.2647
▁রাজস্ব	-10.2647
৪৬	-10.2652
৪৩	-10.2655
লেট	-10.2655
▁স্থল	-10.2658
▁প্রতিদ্বন্দ্বী	-10.2659
▁বেলা	-10.2663
▁কারণেই	-10.2665
▁অক্ষর	-10.2665
▁পর্বতমালা	-10.2675
তত্ত্ব	-10.2676
▁৭৯	-10.2677
▁শাস্তি	-10.2681
৫৯	-10.2686
▁কেন্দ্রটি	-10.2691
মুখ	-10.2697
নেস	-10.2698
▁মিনিটে	-10.2708
৬৬	-10.2711
প্রতিদ্বন্দ্বিতা	-10.2714
▁বিতর্কিত	-10.2718
োন	-10.2722
একটি	-10.2723
▁দরিদ্র	-10.2726
▁অধিকাংশই	-10.2731
▁আচার	-10.2732
▁গণিতবিদ	-10.2738
▁পেয়েছিল	-10.274
▁ভাষাতে	-10.274
▁রায়ের	-10.274
▁চক্রবর্তী	-10.2743
▁প্রত্যেকটি	-10.2747
▁দুটো	-10.2748
▁পিএইচডি	-10.2752
▁আব্বাস	-10.2756
▁অর্ডার	-10.2757
▁উপন্যাসের	-10.2758
▁ধর্ষণ	-10.2761
▁জুনিয়র	-10.2771
▁from	-10.2771
▁প্রদর্শনী	-10.2771
সংক্রান্ত	-10.2772
▁রূপান্তর	-10.2772
▁ক্রম	-10.2772
▁পৌর	-10.2773
৪২	-10.2775
▁বংশধর	-10.2781
▁সফরের	-10.2782
▁১৯৩৭	-10.2783
▁৬৭	-10.2783
▁কোথাও	-10.2793
▁ফোন	-10.2793
▁ওভার	-10.2799
▁গাঢ়	-10.2811
▁স্কি	-10.2817
0%	-10.2819
▁কেজি	-10.282
▁আম্পায়ার	-10.2824
▁ক্ষেত্রেই	-10.2826
বাড়ি	-10.2827
um	-10.2832
বেন	-10.2833
▁ব্যতীত	-10.284
▁সীমাবদ্ধ	-10.2842
▁প্রতিবছর	-10.2846
▁আমন্ত্রণ	-10.285
▁লিপিবদ্ধ	-10.285
▁সর্বত্র	-10.2851
▁চাঁদের	-10.2851
৫৬	-10.2852
▁উপকূলীয়	-10.2854
ফিল্ড	-10.2856
▁এখান	-10.2857
▁গত	-10.2857
▁প্রথিতযশা	-10.2859
▁প্রমাণিত	-10.2865
▁১৯৩৯	-10.2871
▁মনো	-10.2874
৮৫	-10.2875
▁পুরষ্কার	-10.2879
▁উৎসাহ	-10.2883
০২	-10.2884
▁ওয়াশিংটন	-10.2889
▁ঝুঁকি	-10.2889
▁আকৃতি	-10.2893
▁লেগ	-10.2896
▁আবহাওয়া	-10.29
▁ব্লকের	-10.29
▁পরবর্তিতে	-10.2904
▁থাকাকালীন	-10.2904
▁মেরি	-10.2905
ভাষী	-10.2906
▁জন্মের	-10.2907
▁ব্যবসায়িক	-10.2913
৯২	-10.2917
▁প্রি	-10.2918
▁উদ্	-10.2918
▁কর্নেল	-10.2918
▁প্রস্তুতি	-10.2921
▁হান	-10.2929
▁তুরস্কের	-10.2934
▁রাজি	-10.2934
▁৬৬	-10.2938
▁কল্যাণ	-10.2938
▁আইয়ুব	-10.2938
বদ্ধ	-10.2938
▁শীর্ষস্থানীয়	-10.2939
▁জীবনী	-10.2941
▁তন্ত্র	-10.2942
▁ক্লাবে	-10.2942
▁ডব্লিউ	-10.2944
▁উইকিপিডিয়া	-10.2951
৩১	-10.2955
▁)	-10.2956
▁ঘনিষ্ঠ	-10.296
▁হরি	-10.2966
▁সূত্রপাত	-10.2969
▁মন্ত্র	-10.2969
▁নির্	-10.2974
▁সর্বনিম্ন	-10.2978
▁প্রাচীর	-10.2985
▁উৎপাদিত	-10.2988
৬৪	-10.2994
▁উল	-10.2995
ধি	-10.2998
▁মামলা	-10.3
▁৬৮	-10.3003
▁নায়ক	-10.3005
▁ঘণ্টা	-10.3006
▁গণেশ	-10.3007
▁শুষ্ক	-10.3007
▁g	-10.301
▁কালী	-10.3013
▁মানচিত্র	-10.3013
▁উপকূল	-10.3015
▁ঔপনিবেশিক	-10.3017
▁নিষেধাজ্ঞা	-10.3017
▁কাটা	-10.3017
▁থা	-10.3018
▁দাম	-10.3018
ুক	-10.3019
▁অবরোধ	-10.3019
▁পাহাড়ের	-10.3022
▁৫ম	-10.3026
▁সন্দেহ	-10.3027
দ্বীপ	-10.3028
▁সমিতি	-10.3031
্ড	-10.3034
▁দিতেন	-10.3043
▁তুরস্ক	-10.3044
▁হোম	-10.3048
▁ফে	-10.3053
▁সংলগ্ন	-10.3054
ভাই	-10.3061
পাত	-10.3062
▁পতনের	-10.3063
▁প্রফেসর	-10.3067
শ্	-10.307
▁পদার্থবিজ্ঞান	-10.3073
▁টে	-10.3073
▁ভবনটি	-10.3078
▁পাপ	-10.3078
৫২	-10.3079
হিত	-10.3082
▁রেলপথ	-10.3083
িতা	-10.3083
▁রসায়ন	-10.3089
▁কর্তৃত্ব	-10.3092
▁at	-10.31
▁মুজিব	-10.3101
স্থান	-10.3107
▁ম্যানেজার	-10.3108
▁গুরুতর	-10.3108
▁টম	-10.3111
▁বিপ্লব	-10.3112
▁বেছে	-10.3112
▁অধিবাসী	-10.3113
ডু	-10.3118
▁ধারণার	-10.3119
▁৮৪	-10.3122
▁In	-10.3124
বাই	-10.3126
▁ইউসুফ	-10.3127
▁সক্ষমতা	-10.3136
▁বগুড়া	-10.3138
▁নিয়েছে	-10.3139
▁সীমা	-10.3142
▁দ্রব্য	-10.3142
▁উপকূলে	-10.3145
▁মীর	-10.3146
▁বৈ	-10.3147
ারের	-10.3147
▁বৃক্ষ	-10.3148
ধা	-10.3149
▁গিনি	-10.3151
▁সম্পত্তি	-10.3154
▁উত্থান	-10.3158
▁ভক্ত	-10.3158
▁নিকটে	-10.3168
▁বন্যপ্রাণী	-10.3173
ান্ত	-10.3173
সান	-10.3175
▁জিন্নাহ	-10.3178
▁ক্যান্সার	-10.3179
▁সপ্তাহে	-10.3184
▁ঘন্টা	-10.3184
▁্যা	-10.3184
▁ইউএস	-10.3186
▁ব্রোঞ্জ	-10.3188
▁রান্না	-10.3196
▁রিসার্চ	-10.3198
▁তত্ত্বাবধানে	-10.3199
▁ঋণ	-10.32
▁টাইমস	-10.321
ta	-10.3214
▁অংশটি	-10.3217
▁গোষ্ঠীর	-10.3218
▁উৎপাদনের	-10.3218
▁সর্ববৃহৎ	-10.3219
▁সম্প্রতি	-10.3219
▁টাউন	-10.3224
▁শেষদিকে	-10.3225
▁গ্রন্থটি	-10.3225
v	-10.3226
▁পরিস্থিতি	-10.323
▁১৯৪২	-10.3231
▁রচনার	-10.3233
▁নাগ	-10.3233
৫৪	-10.3234
▁পঞ্চ	-10.3236
▁ব্র	-10.3237
▁দোকান	-10.3237
ন্ডার	-10.3238
▁ফিলিপ	-10.3238
য়েল	-10.3238
▁অস্থায়ী	-10.3239
▁বংশের	-10.324
▁রহস্য	-10.3241
▁সময়কাল	-10.3243
▁পর্যটক	-10.3244
ব্	-10.3244
▁ব্যাটিংয়ে	-10.3247
কেন্দ্রিক	-10.3248
▁জলের	-10.3248
▁জেলে	-10.3255
▁যৌগ	-10.3256
▁জগতের	-10.3264
▁মাতার	-10.3266
▁৮১	-10.3269
াকার	-10.3269
▁প্রতিবেশী	-10.327
▁ক্লাবটি	-10.3272
কাস	-10.328
▁মুখোপাধ্যায়	-10.328
▁খনিজ	-10.3285
▁গ্লোব	-10.3288
▁মোস্তফা	-10.329
▁১৯শ	-10.3291
▁১৯২৬	-10.3292
▁আকবর	-10.3292
▁যেকোনো	-10.3293
▁নদীটি	-10.3295
▁l	-10.3298
▁নির্যাতন	-10.3301
▁his	-10.3302
▁খেলাটি	-10.3306
▁লিখেছিলেন	-10.3311
▁পুকুর	-10.3311
▁মুজিবুর	-10.3312
▁নিক্ষেপ	-10.3312
ফু	-10.3318
ৎস	-10.3329
▁কমিশনের	-10.3331
▁নামেই	-10.3331
▁সম্পৃক্ত	-10.3334
৫৩	-10.3339
▁দেখায়	-10.334
▁ব্যক্তিকে	-10.3341
▁মায়ানমারের	-10.3342
▁কাঠের	-10.3352
শত	-10.3355
দিকে	-10.3357
▁মহারাষ্ট্র	-10.3358
▁চুক্তিবদ্ধ	-10.3363
▁ডাক্তার	-10.3366
▁পুনঃ	-10.337
সংখ্যা	-10.3372
▁কিংবদন্তি	-10.3372
▁ফাউন্ডেশন	-10.3374
▁স্মরণ	-10.3375
▁সম্মিলিত	-10.3375
▁পরম	-10.3377
▁লেজ	-10.3386
▁বন্ধন	-10.339
▁সাম	-10.3391
ter	-10.3396
▁কাপড়	-10.3397
▁উবুন্টু	-10.34
▁অভিযুক্ত	-10.3404
▁থাইল্যান্ড	-10.3405
▁\	-10.3411
ক্যা	-10.3413
াতে	-10.3414
▁অ্যাল	-10.3417
ha	-10.3418
৬৮	-10.342
ায়িত	-10.3421
▁উইকেটে	-10.3434
▁নারায়ণ	-10.3435
▁উপদ্বীপ	-10.3439
▁অবৈধ	-10.3439
▁৬১	-10.3442
৪৪	-10.3444
▁সমাজতান্ত্রিক	-10.3445
▁সংসদীয়	-10.3449
▁অ্যান	-10.345
▁যাইহোক	-10.345
▁১০টি	-10.3453
৭৯	-10.3453
▁রোনালদো	-10.3455
▁লোকসভা	-10.3455
▁প্রতিষ্ঠানে	-10.3461
U	-10.3461
▁তিনবার	-10.3463
▁খিলাফত	-10.3466
▁১৯৩৬	-10.3468
▁বক্তৃতা	-10.347
ers	-10.3473
▁দুধ	-10.3475
▁কমনওয়েলথ	-10.3476
▁কপি	-10.3481
▁চাই	-10.3482
V	-10.3485
▁সরু	-10.3487
ia	-10.3488
▁ইঞ্জিন	-10.3489
▁চীনে	-10.349
▁তিব্বত	-10.3496
▁কোণ	-10.3499
▁অংশগ্রহণকারী	-10.3503
▁পর্তুগিজ	-10.3507
▁১৯১৯	-10.3507
▁কয়লা	-10.3512
▁গ্র্যান্ড	-10.3514
▁৮টি	-10.3515
কায়	-10.3523
৭৭	-10.3523
▁রাণী	-10.3524
বর্ণ	-10.3525
▁কণা	-10.3527
▁নিম্নলিখিত	-10.3529
▁১৯২২	-10.3531
▁মাছের	-10.3533
▁বলিউড	-10.3534
▁মির্জা	-10.3534
▁৯২	-10.3536
কিন	-10.3547
বের	-10.3548
নাস	-10.3548
▁শরীফ	-10.3549
▁হিট	-10.3551
কম	-10.3552
▁মিশন	-10.3558
▁শীতল	-10.3558
▁শিখ	-10.3561
▁উন্নয়নে	-10.3561
▁ঘটেছিল	-10.3565
জল	-10.3569
▁প্রাসাদ	-10.3572
▁মক্কা	-10.3575
▁বাক্য	-10.3581
▁জার	-10.3581
▁সম্মেলন	-10.3581
খানা	-10.3589
ফে	-10.3589
▁অতিথি	-10.3592
▁গেছেন	-10.3596
▁আর্মি	-10.3599
▁যিশু	-10.3599
▁কিনে	-10.3602
▁আঁকা	-10.3604
▁স্বরূপ	-10.3607
▁গ্রহন	-10.3608
শ্রী	-10.3609
▁ফেনী	-10.361
▁সাক্ষাত	-10.3611
▁এডওয়ার্ড	-10.3614
▁উইল	-10.3615
▁দ্বীপটি	-10.3619
▁বৃত্তি	-10.362
▁ال	-10.3622
▁জীবাশ্ম	-10.3634
▁আধিপত্য	-10.3634
▁লিপ্ত	-10.3635
স্কি	-10.3636
▁ভারী	-10.3637
▁ধারনা	-10.3638
▁করিম	-10.3638
▁মধ্যযুগীয়	-10.3642
▁নেপালের	-10.3642
ul	-10.3644
▁অনুপ্রাণিত	-10.3644
▁১৯২৯	-10.3647
▁গরম	-10.365
▁বর্ষ	-10.3654
▁প্রাধান্য	-10.3655
▁১৯৩৪	-10.3657
▁ওয়েবসাইট	-10.3658
▁লুইস	-10.366
ীকরণ	-10.366
টের	-10.366
▁অপরদিকে	-10.3667
▁এসিড	-10.3668
▁সুখ	-10.3671
৯৪	-10.3674
যোগ	-10.3675
লস	-10.3675
▁৬৯	-10.3678
▁ওয়ান	-10.3678
▁করিয়ে	-10.3686
▁৮৬	-10.3692
প্রধান	-10.3695
▁শেয়ার	-10.3695
▁তহবিল	-10.3698
▁দরজা	-10.3698
▁অন্তর	-10.3699
▁বিগত	-10.3699
▁সর্বকালের	-10.37
৮৭	-10.3702
লান	-10.3702
▁দ্বাদশ	-10.3706
’’	-10.3706
▁ছ	-10.3709
ংক	-10.3711
▁সমীকরণ	-10.3712
▁থাকত	-10.3713
▁গৌরব	-10.3715
▁দাঙ্গা	-10.3716
▁সচরাচর	-10.3719
▁সহজে	-10.3724
শাসিত	-10.3726
মী	-10.3728
▁অনুসারী	-10.3729
▁শ্রদ্ধা	-10.3729
▁আয	-10.3732
৫৭	-10.3734
▁উপাত্ত	-10.3735
▁উচ্চতর	-10.3735
▁ফ্যা	-10.3736
▁কিং	-10.3736
রকম	-10.3748
্ট	-10.3749
▁সময়ই	-10.375
▁লেক	-10.375
্টি	-10.3752
াহ	-10.3757
▁সংবাদপত্র	-10.376
▁ব্রহ্ম	-10.3762
َّ	-10.3762
▁জাপানে	-10.3766
▁নির্দেশনা	-10.3767
▁লক্ষ্মী	-10.3774
▁পড়েছে	-10.378
▁সাধারণতঃ	-10.3783
▁পুন	-10.3784
▁কোম্পানী	-10.3784
ut	-10.3786
▁আটক	-10.3787
q	-10.3789
▁অনুমোদিত	-10.3794
হাই	-10.3796
▁তোমার	-10.3798
▁ইতালির	-10.3803
▁পর্তুগাল	-10.3805
▁করুন	-10.3809
▁বিক্রিয়া	-10.3809
▁বোঝাতে	-10.3812
▁চলেছে	-10.3813
▁উচ্চতায়	-10.3814
য়ু	-10.3818
য়েড	-10.3823
▁কমিশনার	-10.3833
▁হার্ট	-10.3837
▁লাওস	-10.3839
▁তালিকাভুক্ত	-10.3843
▁মোড়	-10.3843
▁ফো	-10.3846
▁অভিযানে	-10.3847
▁নোট	-10.3851
▁গ্রে	-10.3851
ma	-10.3851
▁জনগোষ্ঠীর	-10.3852
▁মহাসাগর	-10.3855
▁ক্যারিয়ার	-10.3856
▁পাশ্চাত্য	-10.3857
▁ডাব্লিউডাব্লিউই	-10.3858
▁পিংক	-10.3862
ওয়েল	-10.3863
রাস	-10.3867
▁শ্রম	-10.3869
ইস	-10.3871
বাড়ী	-10.3872
▁সৌন্দর্য	-10.3876
স্থল	-10.3882
▁আর্থার	-10.3886
▁ওষুধ	-10.389
▁ঘটান	-10.389
▁মুসলিমরা	-10.3892
▁জ্যেষ্ঠ	-10.3892
▁পর্যালোচনা	-10.3893
▁জগৎ	-10.3896
▁মাসিক	-10.39
▁নিবন্ধটি	-10.39
▁নামাজ	-10.3901
▁৮৩	-10.3902
▁লাইসেন্স	-10.3902
ভাগ	-10.3904
▁ব্রিটেন	-10.3904
▁বানানো	-10.3906
সির	-10.3906
দিক	-10.3908
▁লাইব্রেরি	-10.3911
▁আবির্ভূত	-10.3913
▁রামকৃষ্ণ	-10.3914
▁প্রশস্ত	-10.3923
বাসী	-10.3927
▁মিশ্রণ	-10.3931
▁শীতকালে	-10.3932
▁মুন	-10.3934
৯৫	-10.3935
▁হামিদ	-10.3938
▁ভাইরাস	-10.3938
ক্রম	-10.3948
▁১৯২৩	-10.3949
▁মেলে	-10.3949
▁সমন্বিত	-10.3951
মহা	-10.3952
৯৬	-10.3952
▁মারিয়া	-10.3952
▁নভেম্বরে	-10.3953
▁স্থলাভিষিক্ত	-10.3957
▁১৯১৮	-10.3961
্ন	-10.3964
▁কালি	-10.3967
মোহন	-10.3967
▁সংশোধন	-10.3969
▁১৯৩১	-10.397
▁খো	-10.397
ষা	-10.3971
▁হাম	-10.3973
▁৭টি	-10.3979
▁বাকী	-10.3981
▁পুস্তক	-10.3984
▁ভুটান	-10.399
▁অবতরণ	-10.399
▁শিকাগো	-10.3995
ুল্লাহ	-10.3995
▁আমাকে	-10.3996
▁ম্যাচের	-10.3997
টিং	-10.4
▁ভট্টাচার্য	-10.4001
▁জগন্নাথ	-10.4002
▁ধন	-10.4003
▁x	-10.4008
▁উপকরণ	-10.4009
ইল	-10.4009
▁সায়েন্স	-10.401
▁প্রোগ্রামিং	-10.4011
_	-10.4012
▁মজুমদার	-10.4012
▁ওড়িশা	-10.4012
▁আপনি	-10.4016
▁সেখানকার	-10.4017
▁ব্য	-10.4019
▁ব্যান্ডের	-10.402
টেন	-10.4023
▁অবকাঠামো	-10.4031
ভিন	-10.4032
৮৯	-10.4035
▁হাইড্রোজেন	-10.4035
াঞ্চলীয়	-10.4042
্ত	-10.4047
▁কোর্ট	-10.4047
▁এগুলির	-10.4049
▁সাইট	-10.4051
▁শিরোনাম	-10.4051
▁চারপাশে	-10.4056
▁ইতালি	-10.4057
▁তীর	-10.4058
▁৮২	-10.406
▁মার্শাল	-10.4068
▁নু	-10.4071
▁সম্পাদন	-10.4071
▁৮৭	-10.4076
▁উপসাগর	-10.4076
সমূহে	-10.4076
▁প্রসঙ্গে	-10.4077
▁হেরে	-10.4082
▁প্রক্রিয়ায়	-10.4082
ইট	-10.4085
▁পন্ডিত	-10.4085
▁ডাচ	-10.4091
▁দরকার	-10.4092
বার্গ	-10.4098
▁স্তন্যপায়ী	-10.41
▁খেলোয়াড়ের	-10.4107
te	-10.4107
▁সংঘ	-10.4107
▁সালাম	-10.4113
▁নর্থ	-10.4113
ho	-10.4116
▁ওয়েলস	-10.4118
▁সামগ্রী	-10.412
▁মেশিন	-10.4122
▁মুহম্মদ	-10.4123
▁১৯১১	-10.4127
▁রবীন্দ্রনাথের	-10.4127
▁নামেন	-10.4133
▁বৃটিশ	-10.4134
োপ	-10.4134
▁ইঙ্গিত	-10.4135
▁ধর্মগ্রন্থ	-10.4137
▁ব্লু	-10.4138
▁বাহিনীকে	-10.4138
▁৬ষ্ঠ	-10.414
▁সভ্যতা	-10.4145
▁বিক্ষোভ	-10.4145
ক্ত	-10.4145
▁সৈন্যদের	-10.4154
▁ক্রস	-10.4155
▁ক্যাম্প	-10.4157
▁পাবে	-10.4158
৮৪	-10.4163
▁আমেরিকায়	-10.4163
▁মদিনা	-10.4163
নির	-10.4166
বর্তী	-10.4168
ক্রমে	-10.4172
▁বিনা	-10.4173
▁চালান	-10.4173
ry	-10.4177
▁১৯৩৫	-10.4181
▁r	-10.4183
▁সামগ্রিক	-10.4184
▁অধিনায়কত্ব	-10.4187
ত্য	-10.4187
উত্তর	-10.4187
করণের	-10.4194
▁প্রক্রিয়ার	-10.4197
বিল	-10.4198
▁আত্মা	-10.4198
▁উভয়ের	-10.42
▁হুমকি	-10.4204
নাল	-10.4205
▁২০১৯	-10.4207
▁প্রসার	-10.421
ment	-10.4213
▁চালিত	-10.4214
▁পেশ	-10.422
de	-10.422
বাংলা	-10.4223
▁কর্মচারী	-10.4226
▁৪র্থ	-10.4227
▁গণের	-10.4229
▁মাত্রার	-10.4232
▁বাইজেন্টাইন	-10.4235
ব্রা	-10.4238
▁খুন	-10.4244
িয়াম	-10.4244
▁চব্বিশ	-10.4246
▁প্রোটিন	-10.4246
▁প্রা	-10.4248
▁নিয়ন্ত্রণে	-10.4249
der	-10.4251
▁ভোটে	-10.4251
▁দৃঢ়	-10.4253
পর	-10.4254
▁অর্থনীতিতে	-10.4257
▁অপসারণ	-10.4257
▁বিশুদ্ধ	-10.4261
▁বাস্তবায়ন	-10.4262
▁সংখ্যায়	-10.4266
▁জানানো	-10.4267
▁ভু	-10.4267
▁দাদা	-10.4276
▁সবগুলো	-10.4277
▁সেনাবাহিনীতে	-10.4277
▁বাবু	-10.4278
নারায়ণ	-10.4279
▁পরস্পর	-10.4284
।”	-10.4284
▁স্থপতি	-10.4291
▁পাড়ে	-10.4292
▁চোখের	-10.4296
▁উপগ্রহ	-10.4296
▁রহমানের	-10.43
্ম	-10.4302
৬৩	-10.4302
তেন	-10.4303
▁বৈশ্বিক	-10.4307
▁যেমনঃ	-10.4309
▁খুলে	-10.4315
▁পাত	-10.4316
▁দাঁড়িয়ে	-10.4318
থে	-10.4319
▁ঘ	-10.432
▁করছিল	-10.4321
দুর	-10.4323
▁বাহাদুর	-10.4325
▁রোগে	-10.4332
▁ডাইনোসর	-10.4335
৭৬	-10.4339
▁সেকেন্ড	-10.434
▁খায়	-10.434
▁বিদ্রোহী	-10.434
▁ব্রাজিলের	-10.4342
টাই	-10.4343
▁হুমায়ুন	-10.4345
বাগ	-10.4348
▁লবণ	-10.4349
▁আফ্রিকায়	-10.4352
▁দেখিয়েছেন	-10.4352
▁তালিব	-10.4358
▁ক্ষতিগ্রস্ত	-10.4359
▁উৎসর্গ	-10.4368
▁উপভাষা	-10.4368
▁গৌতম	-10.4371
সময়	-10.4371
▁ডো	-10.4373
র্দ	-10.4377
▁অভিজাত	-10.4378
▁কর্ণাটক	-10.4382
য়ি	-10.4383
▁অনুপাত	-10.4384
▁বন্যা	-10.4389
▁প্রবণতা	-10.4394
▁অবসান	-10.4399
▁হাউজ	-10.4399
▁হস্তান্তর	-10.4405
▁ভিতর	-10.4406
▁পুরস্কারে	-10.4406
▁সাফল্যের	-10.4411
▁একদল	-10.4412
me	-10.4414
▁18	-10.4416
▁চেন্নাই	-10.4417
▁পানীয়	-10.4417
▁বোর্ডের	-10.4417
▁ক্যামেরা	-10.4422
স্বরূপ	-10.4434
▁নাচ	-10.4434
▁ইন্দোনেশিয়ার	-10.4437
▁শিক্ষালাভ	-10.4437
▁ট্রান্স	-10.444
▁মারি	-10.4442
▁১২টি	-10.4443
দ্বাং	-10.4451
▁সারি	-10.4456
▁একাডেমিক	-10.4457
▁মঠ	-10.4458
তাল	-10.446
▁অনুভব	-10.4462
সিয়া	-10.4463
▁আলোচিত	-10.4465
▁পূর্বপুরুষ	-10.4465
▁বৈদিক	-10.4466
▁১লা	-10.4469
▁নিম্নরূপ	-10.447
▁আর্টস	-10.4471
▁জাহাজের	-10.4471
▁অফিসে	-10.4478
▁প্রকারের	-10.448
▁খালিদ	-10.4481
▁দেখেন	-10.4484
▁অশোক	-10.4484
▁শীতকালীন	-10.4486
▁কাই	-10.4486
▁পরপরই	-10.4487
▁১৯১৪	-10.45
৫১	-10.4501
▁লিখেন	-10.4505
▁ব্রাউন	-10.4509
▁ওঠা	-10.4512
▁লোকজন	-10.4513
▁যুবক	-10.4513
▁থেকেও	-10.452
▁মিডিয়াম	-10.4521
▁সাড়ে	-10.4522
▁আরোপ	-10.4528
ক্ষেত্রে	-10.4529
▁চির	-10.4532
▁সনদ	-10.4535
▁মাজার	-10.4538
▁মার্চে	-10.4543
▁সংখ্যাগরিষ্ঠ	-10.4543
▁ল্যাঙ্কাশায়ার	-10.4543
ঝ	-10.4548
▁ইলেকট্রনিক	-10.455
▁তৃণমূল	-10.4555
▁সাড়া	-10.4562
▁অরণ্য	-10.4566
▁বিদায়	-10.4569
▁উত্তম	-10.4571
৮৬	-10.4575
▁পতিত	-10.4576
▁পারস্পরিক	-10.4578
▁বিবেকানন্দ	-10.4578
▁সংক্ষেপে	-10.4578
▁ধাপ	-10.458
▁১৯৩৩	-10.4581
▁৯৯	-10.4583
▁পাত্র	-10.4587
at	-10.4591
▁কোপা	-10.4593
বেল	-10.4593
▁অক্টোবরে	-10.4597
▁রেখেছেন	-10.4599
▁গেলেও	-10.4606
▁অবতার	-10.4606
▁গিয়েছিলেন	-10.4607
▁১৯৪১	-10.4615
▁নষ্ট	-10.4616
▁গেট	-10.4617
▁হাসিনা	-10.4619
▁an	-10.462
▁ভাইয়ের	-10.4627
▁নজর	-10.4631
▁ছায়াপথ	-10.4635
▁প্রজাতন্ত্রের	-10.4635
▁বাণী	-10.4636
ম্যা	-10.4636
▁বিজয়ের	-10.464
লাই	-10.4641
▁সুপারিশ	-10.4642
▁বিরল	-10.4644
▁নিরাপদ	-10.465
▁গ্যা	-10.4651
vi	-10.4652
▁ব্রিটিশদের	-10.4654
▁Ma	-10.466
▁শোনা	-10.4665
▁নগরী	-10.4666
om	-10.4666
▁পরিলক্ষিত	-10.4672
▁উৎসবের	-10.4673
▁শিলা	-10.4674
▁গড়া	-10.4675
▁কানাডার	-10.4679
▁দিল	-10.468
▁পরই	-10.4688
▁বেতন	-10.469
▁সিস্টেমের	-10.4693
▁ক্রমবর্ধমান	-10.4695
▁সাপ্তাহিক	-10.4696
দিয়া	-10.47
▁অক্ষ	-10.4701
▁খ্যাত	-10.4702
▁আমিন	-10.4703
▁বৈধ	-10.4704
▁জনতা	-10.4704
▁মহ	-10.4704
▁নীতির	-10.4705
কিউ	-10.4706
▁দুঃখ	-10.4708
ট্রি	-10.4713
▁জানিয়ে	-10.4714
▁শিয়া	-10.4719
ine	-10.472
▁দাবা	-10.4722
ive	-10.4722
পুরুষ	-10.4725
▁কাহিনি	-10.4725
▁বেসরকারী	-10.4731
▁পরিদর্শন	-10.4731
কৃষ্ণ	-10.4734
ভিল	-10.4737
▁দ্বন্দ্ব	-10.4751
▁চুক্তিতে	-10.4751
im	-10.4754
৬৭	-10.4755
িটি	-10.4758
▁অসমীয়া	-10.4759
▁আরবের	-10.4761
৭২	-10.4763
▁ভবনে	-10.4765
তান	-10.4765
▁অভিযোগে	-10.4767
র্জে	-10.4772
টায়	-10.4772
▁পাশের	-10.4774
দর	-10.4775
▁স্মিথ	-10.4776
▁হর	-10.4776
▁থে	-10.4777
ব্জাং	-10.4778
▁অধীনস্থ	-10.4779
▁রাশি	-10.4781
▁সাজানো	-10.4781
▁শতাধিক	-10.4782
▁প্রতিভা	-10.4785
▁জাতিগত	-10.4789
▁পৌরাণিক	-10.479
▁বাছাই	-10.479
▁মাওলানা	-10.4791
▁কুল	-10.4792
▁পাতার	-10.4795
▁লেন	-10.4799
▁জনের	-10.4804
দুটি	-10.4805
▁বিচারক	-10.4805
▁উনিশ	-10.4805
▁১৯১২	-10.4806
▁জ্ঞানের	-10.4808
▁গোল্ড	-10.481
▁হংকং	-10.4815
▁প্রয়োজনে	-10.4815
’,	-10.4815
সুর	-10.4818
▁উপায়ে	-10.4819
▁আবেগ	-10.4823
▁বৃষ্টি	-10.4827
▁মেক্সিকো	-10.4831
▁অন্তর্ভূক্ত	-10.4832
জিন	-10.4832
▁সম্মানিত	-10.4835
▁বালক	-10.4836
▁উইন্ডোজ	-10.4837
▁মোটামুটি	-10.4838
▁ভূগর্ভস্থ	-10.4838
▁বন্ধুত্ব	-10.4838
▁গতির	-10.4838
▁সমিতির	-10.4839
▁ফিলিস্তিন	-10.4839
▁মুসা	-10.4841
▁মতই	-10.4844
ফুল	-10.4846
সাম	-10.4847
▁আপনার	-10.4848
▁ক্র	-10.4848
▁মেদিনীপুর	-10.4849
▁পরিধান	-10.485
▁পূর্বেই	-10.4851
▁১৯৪৪	-10.4851
▁ঘাট	-10.4855
▁তোমাদের	-10.4864
▁তদন্ত	-10.4864
▁সর	-10.4866
▁টাইপ	-10.4867
▁কক্সবাজার	-10.4871
▁মতামত	-10.4874
▁প্রতিযোগী	-10.4874
লাইন	-10.4876
▁হচ্ছিল	-10.488
▁এগুলোর	-10.4882
▁উসমান	-10.4889
▁পূরণ	-10.4893
বিশেষ	-10.4894
▁ফেরত	-10.4895
৭১	-10.4896
▁মিলন	-10.4898
▁ল্যাটিন	-10.4898
▁গাওয়া	-10.4899
▁১৯০৫	-10.4901
▁সোনার	-10.4908
▁রুম	-10.4909
▁ডিভাইস	-10.4909
▁ফ্লয়েড	-10.491
▁মধু	-10.491
▁বসবাসকারী	-10.4915
"-	-10.4919
▁মিথ্যা	-10.4919
▁আরা	-10.4921
▁যাতায়াত	-10.4922
▁মুখ্যমন্ত্রী	-10.4922
▁মানবিক	-10.4926
▁সূত্রে	-10.4926
নোর	-10.4927
ীত	-10.4927
▁পূজার	-10.4928
ীরা	-10.4928
▁মেঘ	-10.4931
▁ফেলেন	-10.4931
▁রকমের	-10.4931
▁চমৎকার	-10.4934
▁উপাচার্য	-10.4938
▁হিন্দুদের	-10.4938
ন্ধ	-10.494
ion	-10.4942
৪১	-10.4943
to	-10.4948
র্থ	-10.4949
▁মিস	-10.495
▁অবলম্বন	-10.4952
▁৯৫	-10.4953
ত্	-10.4954
▁সেন্ট্রাল	-10.4954
▁মূল্যবান	-10.4959
▁ধারাবাহিকভাবে	-10.4962
▁পত্রিকাটি	-10.4964
▁মাথার	-10.4965
▁জরিপ	-10.497
▁স্বাদ	-10.4972
৬৯	-10.4974
▁ধরেন	-10.4975
go	-10.4975
▁হিসেব	-10.4979
▁মস্তিষ্ক	-10.498
▁অপরের	-10.498
▁সরঞ্জাম	-10.4982
▁টাঙ্গাইল	-10.4982
▁উৎসাহিত	-10.4986
র্ণ	-10.4987
▁he	-10.4989
▁জেন	-10.4991
▁কেমব্রিজ	-10.4994
▁শুমারি	-10.4994
িয়াল	-10.4995
▁শৈশব	-10.4999
▁ইংরেজী	-10.5001
▁মহাকাব্য	-10.5003
সকল	-10.5003
গর	-10.5003
▁বছরই	-10.5007
ঙ্গার	-10.501
▁পৌরসভার	-10.5011
থু	-10.5013
▁উত্তরাধিকারী	-10.5017
ক্ষেত্র	-10.5017
▁কমেডি	-10.5018
ানু	-10.5019
▁ভাড়া	-10.502
▁শস্য	-10.5021
লক	-10.5021
াইন	-10.5021
স্টিক	-10.5022
পুরে	-10.5022
▁নেদারল্যান্ডস	-10.5023
▁আক	-10.5023
▁ঋতু	-10.5025
▁বালি	-10.5026
▁*	-10.5032
▁চেয়েছিলেন	-10.5035
লাস	-10.5039
▁বিদেশে	-10.5041
▁স্পিন	-10.5041
▁পদার্থবিজ্ঞানী	-10.5046
▁w	-10.5049
▁স্ট্রিট	-10.505
পুত্র	-10.5053
▁পরপর	-10.5053
শিক্ষা	-10.5054
ালি	-10.5054
▁৯টি	-10.5055
▁চামড়া	-10.5055
▁কাপে	-10.506
▁আটলান্টিক	-10.5061
▁হোয়াইট	-10.5067
▁বাড়তে	-10.5068
হ্	-10.5068
দ্ধ	-10.507
▁অমর	-10.507
▁ঝ	-10.507
▁বিতরণ	-10.5073
▁দম্পতির	-10.5074
▁নদ	-10.5076
▁সীমান্তে	-10.5077
res	-10.5078
জিয়া	-10.5084
▁বিকিরণ	-10.5084
ক্কা	-10.5084
▁বদর	-10.5086
পরি	-10.5086
▁স্পোর্টস	-10.5087
▁ধ	-10.509
৬৫	-10.5092
▁অ্যাশেজ	-10.5092
▁মুর	-10.5094
▁খালি	-10.5096
▁সাহা	-10.5098
৭৩	-10.5098
▁আজিজ	-10.5098
হারিস	-10.51
▁সুরকার	-10.51
▁অ্যালবামের	-10.5101
▁সিরাজ	-10.5104
জীবন	-10.5104
ঘা	-10.5105
▁অতীতে	-10.5105
▁ব্যথা	-10.5106
▁জাল	-10.5112
▁এশিয়ায়	-10.5113
▁প্লে	-10.5114
▁নাটকের	-10.5116
▁প্রত্যাবর্তন	-10.5116
▁ক্ষমা	-10.5121
মূর্তি	-10.5124
▁প্রিন্স	-10.5125
যান	-10.5129
▁মোঃ	-10.513
▁মুম্বই	-10.5132
▁বিরোধ	-10.5134
▁সুস্থ	-10.5134
ve	-10.514
▁হঠাৎ	-10.5141
▁আনোয়ার	-10.5141
▁প্রযুক্তির	-10.5142
▁পেরে	-10.5144
▁রাইট	-10.5145
▁সাঁতার	-10.5146
▁মুক্তিযুদ্ধে	-10.5147
মন্ত্রী	-10.5148
▁not	-10.515
বীর	-10.5152
▁সৎ	-10.5155
ব্যবস্থা	-10.5157
▁শিল্পে	-10.5157
▁আয়ের	-10.5158
তন্ত্র	-10.5162
▁কিছুই	-10.5166
গ্রন্থ	-10.5167
▁যন্ত্রপাতি	-10.5168
▁বাড়িয়ে	-10.5168
▁ফিলিপাইন	-10.5172
দ্গা	-10.5177
▁আনতে	-10.5177
▁নক্ষত্র	-10.5183
কান্ত	-10.5187
জ্জ	-10.5188
▁অয়লার	-10.519
▁পটার	-10.5192
▁প্যারা	-10.5195
▁কোর	-10.5199
▁ইন্দ্র	-10.52
▁ইতিবাচক	-10.5203
▁প্লা	-10.5208
ীতে	-10.521
▁উমাইয়া	-10.5213
▁আকৃষ্ট	-10.5215
▁সংগ্রহের	-10.5217
▁কেপ	-10.5221
▁দেল	-10.5223
▁চৌ	-10.5225
াইড	-10.5225
▁ইউনেস্কো	-10.5228
▁পড়াশুনা	-10.5228
▁প্রচণ্ড	-10.5228
▁রবি	-10.5232
▁করানো	-10.5232
প্ল	-10.5237
▁আখ	-10.5237
▁সেসব	-10.524
▁মাধ্যমেই	-10.5245
▁শরণার্থী	-10.5248
▁বিহারের	-10.5249
▁প্রচারণা	-10.5252
▁ষোড়শ	-10.5252
▁ফরিদপুর	-10.5256
▁ঘরের	-10.5256
প্রথম	-10.5256
▁তোমরা	-10.5267
▁সংকট	-10.5269
▁মৌজা	-10.527
▁মাঝারি	-10.5272
▁و	-10.5273
▁বাসিন্দা	-10.5275
▁বৎসর	-10.5279
▁কর্মকাণ্ড	-10.528
▁চট্টগ্রামে	-10.5283
▁বালিকা	-10.5285
▁কত	-10.5286
রক্ষক	-10.5288
و	-10.5289
▁চওড়া	-10.529
▁বললেন	-10.5291
▁পেট	-10.5295
ফের	-10.5297
পন্থী	-10.5298
▁মালয়	-10.5301
▁মোতাবেক	-10.5302
▁মৎস্য	-10.5303
▁ডঃ	-10.5306
▁স্থানটি	-10.5307
ওয়াল	-10.5308
মতে	-10.5311
▁সিনিয়র	-10.5315
▁বাঁধা	-10.5319
ব্যাপী	-10.532
▁রয়েল	-10.532
▁সমালোচকদের	-10.5323
▁বাহিনীতে	-10.5324
▁ঠোঁট	-10.5326
hi	-10.5326
কন	-10.5328
▁হারায়	-10.5329
▁মালিকানাধীন	-10.5332
▁দলিল	-10.5333
▁গীত	-10.5337
▁জটিলতা	-10.5338
▁জর্ডান	-10.534
▁ঘুম	-10.5342
▁ঋষি	-10.5342
▁তল	-10.5346
▁১৯০০	-10.5356
▁দৃষ্টিভঙ্গি	-10.5358
▁অসীম	-10.536
▁কমান্ড	-10.5361
▁যোগ্য	-10.5364
৮২	-10.5368
▁জনসাধারণের	-10.5369
▁একুশে	-10.5372
▁খেয়ে	-10.5373
▁দেহাবসান	-10.5378
▁বিচারপতি	-10.538
▁মনোযোগ	-10.5382
▁হৃদয়	-10.5383
▁উঠতে	-10.5387
▁অষ্টাদশ	-10.539
▁সাক্ষাৎ	-10.5391
▁১৯৪৩	-10.5393
▁শাসিত	-10.5393
▁জাদু	-10.5395
▁১৯১৭	-10.5396
▁ওয়াই	-10.54
▁পারবেন	-10.5401
কাম	-10.5402
▁ডিভিশন	-10.5404
ার্ড	-10.5406
▁সিংহাসনে	-10.5406
▁জিনিস	-10.5407
▁নূর	-10.5409
▁পালা	-10.541
▁টুর্নামেন্ট	-10.5411
৯৩	-10.5417
▁১৯২৭	-10.5419
▁মধ্যভাগে	-10.542
▁ব্যাস	-10.5422
▁মূসা	-10.5422
▁গল্পের	-10.5426
▁বাসস্থান	-10.5426
▁ধাতব	-10.5428
▁বর্ধিত	-10.5428
▁মহাবিদ্যালয়	-10.5429
▁ইত্যাদির	-10.5432
▁রয়ে	-10.5433
▁পেস	-10.5436
▁সংখ্যালঘু	-10.544
▁কবিতার	-10.544
৯৮	-10.5442
▁গৌড়	-10.5443
▁হাড়	-10.5445
▁প্রজাতিটি	-10.5446
▁বইয়ে	-10.545
▁ভবিষ্যৎ	-10.5454
▁ইংলিশ	-10.5454
▁দফা	-10.5454
▁কঙ্গো	-10.5455
▁১২০	-10.5456
▁প্রকাশক	-10.5457
▁মর	-10.5459
▁লেখাপড়া	-10.5467
▁কাগজ	-10.5472
▁কাউন্সিলের	-10.5473
▁গণপ্রজাতন্ত্রী	-10.5473
▁গীতিকার	-10.5474
▁পাকা	-10.5476
▁বৈচিত্র্য	-10.5476
▁মল	-10.5477
▁অধ্যায়	-10.548
▁প্যারিসে	-10.5487
▁অধি	-10.5489
▁সন্ধি	-10.5494
▁সাহসিকতা	-10.5505
▁বার্সেলোনার	-10.5505
▁শিক্ষিত	-10.5507
▁উপন্যাসটি	-10.5514
প্	-10.5516
▁মেডিক্যাল	-10.5518
▁১৯২৫	-10.5522
▁জোসেফ	-10.553
▁বাহরাইন	-10.553
৮৩	-10.5536
▁ইতিহাসবিদ	-10.5536
▁আদালতে	-10.5537
▁শঙ্কর	-10.5537
▁যন্ত্রের	-10.5541
▁ধ্বংসাবশেষ	-10.5543
▁ধ্যান	-10.5544
▁বিনিময়	-10.5549
▁বাগ	-10.555
▁গণহত্যা	-10.555
▁নল	-10.5551
▁গান্ধীর	-10.5554
▁চুরি	-10.5556
▁তলা	-10.5557
▁ছাত্রী	-10.5558
▁বিগ	-10.5559
▁ছা	-10.5561
▁বিজ্ঞানীরা	-10.5564
▁মঞ্চে	-10.5568
▁শিশুর	-10.5569
j	-10.5571
▁দুর্ঘটনা	-10.5576
▁মোকাবেলা	-10.5578
▁১১টি	-10.5582
▁সেপ্টেম্বরে	-10.5582
▁বোধ	-10.5583
রাউন্ডার	-10.5585
▁কর্ণ	-10.5594
▁দীর্ঘদিন	-10.5597
লেস	-10.5598
▁জোয়ার	-10.5599
▁আত্মসমর্পণ	-10.5607
$	-10.5607
▁রাশিয়ান	-10.5609
ওয়ালা	-10.561
▁বন্ধনে	-10.5611
▁সিভিল	-10.5611
▁গদ্য	-10.5611
▁৭ম	-10.5617
▁it	-10.5619
▁ফুলের	-10.5623
▁হামলার	-10.5623
▁চিনি	-10.5623
▁পেশায়	-10.5626
▁বাদামী	-10.5626
▁যমুনা	-10.5627
▁বিরত	-10.5635
ুদ্দিন	-10.5637
সিস	-10.5637
▁পারা	-10.5638
▁মানুষদের	-10.5638
▁অ্যাসোসিয়েশন	-10.5646
নীতি	-10.5652
টিই	-10.5653
▁সমুদ্রের	-10.5653
▁কোল	-10.5655
গুণ	-10.5656
▁প্রাতিষ্ঠানিক	-10.5657
▁আইনে	-10.566
▁বারের	-10.5663
▁লিখতে	-10.5677
▁ফ্রাঙ্ক	-10.5684
▁রশ্মি	-10.5685
এবং	-10.5688
▁বাজেট	-10.5691
▁বিতর্কের	-10.5692
▁মাঠের	-10.5698
▁উদযাপন	-10.5699
▁ইয়াং	-10.57
্যান্ট	-10.5701
লিক	-10.5704
6%	-10.5704
রিক	-10.5705
▁বনু	-10.571
৬২	-10.5712
▁বর্জন	-10.5712
কোষ	-10.5712
▁পাউন্ড	-10.5712
▁অসম্ভব	-10.5713
▁সমর্থক	-10.5714
▁পালক	-10.5715
▁বিমানবন্দরটি	-10.5717
▁দুর্গা	-10.572
▁ফন	-10.5723
▁মালা	-10.5724
▁উইকিপিডিয়ার	-10.5725
▁এয়ারলাইন্স	-10.5726
▁ঘটতে	-10.5727
আউট	-10.5727
িজম	-10.5732
▁সংস্কারের	-10.5744
▁কালা	-10.5745
▁কয়েকবার	-10.575
▁সেগুলি	-10.5751
▁পথের	-10.5752
▁করেনি	-10.5753
▁রাধা	-10.5756
▁অনুভূতি	-10.5761
▁দলটির	-10.5766
▁দেশীয়	-10.5768
▁বিবিসি	-10.577
▁অত্যাচার	-10.5772
▁কর্পোরেশনের	-10.5774
▁মেয়াদে	-10.5776
▁পারতেন	-10.5779
▁পদ্ম	-10.578
▁ঘটানো	-10.5781
▁বেইজিং	-10.5781
▁বিদেশি	-10.5782
▁রবীন্দ্র	-10.5785
▁বিদ্রোহের	-10.5787
ুস	-10.579
কিয়া	-10.579
▁ফার	-10.5795
▁আয়তনের	-10.5798
▁ডক্টর	-10.5802
▁যুক্তরাজ্যে	-10.5803
মূল	-10.5804
লন	-10.5805
▁নব্য	-10.5808
▁ভক্তি	-10.5813
ভী	-10.5815
▁চারজন	-10.5817
▁দাঁত	-10.5819
▁১৯১৩	-10.582
▁দূতাবাস	-10.5823
▁ওলন্দাজ	-10.5825
▁রচয়িতা	-10.5827
▁নেহেরু	-10.583
▁ক্রমাগত	-10.583
্যে	-10.583
ie	-10.583
Xu	-10.5831
▁টিনটিন	-10.5835
ধু	-10.5835
মানের	-10.5837
বির	-10.5843
os	-10.5845
▁এড	-10.5849
▁ব্রিটিশরা	-10.5849
▁প্রতিপক্ষ	-10.5849
▁১৯১০	-10.585
▁আনে	-10.5851
▁উপলব্ধি	-10.5851
▁চ্যালেঞ্জ	-10.5856
াক	-10.5859
▁রাজস্থান	-10.5865
▁বর্ণমালা	-10.5868
▁সময়েই	-10.5868
▁অসামান্য	-10.5869
▁প্রতিবেদনে	-10.5871
▁লোকসংখ্যা	-10.5872
▁কাশ্মীর	-10.5873
▁শিরোনামে	-10.5873
ন্ন	-10.5874
▁মার্	-10.5877
▁সমাবেশ	-10.5882
▁ব্রে	-10.5884
▁লাইট	-10.5887
▁শরীরে	-10.5887
▁উল্লিখিত	-10.5896
পের	-10.5896
▁বেদান্ত	-10.5896
▁১৯০৮	-10.5899
▁পেশা	-10.5901
▁ভাত	-10.5903
ফো	-10.5904
▁টাকার	-10.5904
com	-10.5907
কথা	-10.5909
▁স্মারক	-10.5909
▁অক্সিজেন	-10.5909
▁আমদানি	-10.5909
▁রথ	-10.5911
▁পেলে	-10.5914
po	-10.5916
▁আত্মীয়	-10.592
▁যানবাহন	-10.5922
▁দার্জিলিং	-10.5922
▁ফেরার	-10.5924
▁আসর	-10.5927
▁বিমানের	-10.5933
▁আনার	-10.5936
▁বৌদ্ধধর্মের	-10.594
৯১	-10.5942
▁ওল্ড	-10.5943
▁k	-10.5945
ci	-10.5946
▁এখানেই	-10.5946
▁দেখার	-10.5951
বাহী	-10.5957
▁সংস্করণে	-10.5957
লির	-10.5958
▁তখনই	-10.596
হী	-10.596
▁কেনিয়া	-10.5964
▁বাদে	-10.5966
ব্যা	-10.5967
▁এইসব	-10.5968
▁হেল	-10.5969
▁তত	-10.597
▁জাপানী	-10.597
▁থাকতেন	-10.5975
▁কমিয়ে	-10.5978
▁মেয়র	-10.598
▁বেদ	-10.598
▁আধা	-10.5981
গণের	-10.5982
co	-10.5985
ফর	-10.5987
▁কাল্পনিক	-10.5989
▁ডলারের	-10.5992
মোর	-10.5992
▁রানী	-10.5994
ছড়ি	-10.5994
▁ব্যক্ত	-10.5996
▁লেফটেন্যান্ট	-10.5996
িক্স	-10.5997
▁এসেছিল	-10.5999
▁নিয়েছিল	-10.6001
ভূক্ত	-10.6001
▁অভিষিক্ত	-10.6003
▁সংগৃহীত	-10.6003
▁মদ	-10.6004
▁রোধ	-10.6006
▁খেলতেন	-10.6009
▁J	-10.6011
▁হট	-10.6011
▁বাদশাহ	-10.6013
▁সৈন্যরা	-10.6016
▁স্বয়ং	-10.6016
▁বিচারে	-10.6017
▁কর্তৃপক্ষের	-10.6022
র্ষ	-10.6025
▁অংশগ্রহন	-10.6026
▁প্রাণীদের	-10.6029
জিত	-10.6036
▁ব্যবহারকারীদের	-10.604
▁কমপ্লেক্স	-10.6044
▁হুগলি	-10.6046
▁পদ্মা	-10.605
▁সনের	-10.6052
▁একইভাবে	-10.6055
▁পূর্বদিকে	-10.6057
▁পর্দা	-10.6058
▁শিক্ষাদান	-10.6062
▁বিট	-10.6063
রাব	-10.6066
▁লিগ	-10.6068
▁সুনাম	-10.607
▁উপাদানের	-10.6077
▁পাবনা	-10.6077
▁সুতরাং	-10.6085
▁পাঠক	-10.6086
▁লাইফ	-10.6088
▁ফিল্ড	-10.6088
ওয়ান	-10.609
কারি	-10.609
ph	-10.6091
ব্র	-10.6094
▁চুল	-10.6095
▁স্বর্ণপদক	-10.6097
▁খাবারের	-10.6097
▁নেতাদের	-10.6098
▁কাপুর	-10.6098
▁প্রাপ্তবয়স্ক	-10.6099
▁ডানা	-10.6102
Xr	-10.6107
▁আলোচনার	-10.6107
▁অস্ট্রেলিয়ায়	-10.6111
চ্ছ	-10.6113
টস	-10.6113
▁রক্ষার	-10.6116
ঝা	-10.6118
▁ছায়া	-10.6124
▁h	-10.6125
▁জান	-10.6125
▁নিয়মিতভাবে	-10.6127
ti	-10.6127
▁তলায়	-10.613
ৰ	-10.6132
▁শিল্পকলা	-10.6132
▁এলাকাটি	-10.6133
▁সাগরে	-10.6136
বতী	-10.6136
▁মহাবিশ্ব	-10.6141
▁দর্শকদের	-10.6141
▁হিমালয়	-10.6144
▁মতোই	-10.6147
▁খাতুন	-10.6152
▁আল্লাহ্	-10.6155
▁বিশ্বযুদ্ধে	-10.6156
থেকে	-10.6162
ণের	-10.6162
▁ক্ষয়	-10.6166
▁২৫০	-10.6166
▁পেন	-10.617
শার	-10.617
চক্র	-10.617
▁সিল	-10.6171
▁মক্কায়	-10.6173
▁পোপ	-10.6175
▁রাস্তার	-10.6178
▁মহাসাগরের	-10.6178
▁গভীরতা	-10.6185
▁প্রস্তাবিত	-10.6185
▁বসন্ত	-10.6185
সংখ্যক	-10.6188
▁উভয়ই	-10.6189
▁হেক্টর	-10.6193
▁পুনর্	-10.6193
▁চ্যাম্পিয়নস	-10.6193
▁বয়স্ক	-10.6195
▁অা	-10.6201
▁জাভা	-10.6202
▁আর্জেন্টিনার	-10.6203
▁বন্দরটি	-10.6207
▁প্রদর্শনের	-10.621
▁ধর্মাবলম্বী	-10.6211
▁হলিউড	-10.6223
▁এসেছিলেন	-10.6225
▁সাহেব	-10.6225
▁প্রভূত	-10.6227
র্জ	-10.6229
▁পুনরুদ্ধার	-10.6234
▁ফরাসী	-10.6234
▁সেনারা	-10.6234
▁আয়োজনের	-10.6234
▁পাইলট	-10.6235
▁ইয়ান	-10.624
▁ভূমিকম্প	-10.624
ভারত	-10.6242
গ্রা	-10.6245
▁জিয়াউ	-10.6248
▁উপসর্গ	-10.6248
▁জানুয়ারিতে	-10.6249
▁বাংলাদেশি	-10.625
▁আব	-10.6251
▁ব্যাক	-10.6252
tion	-10.6252
▁উপজাতি	-10.6257
▁লরেন্স	-10.6263
▁ছাদ	-10.6263
▁শুভ	-10.6265
▁মধ্যম	-10.6267
▁মেয়াদ	-10.6279
▁মহাসাগরীয়	-10.6281
▁অনুদান	-10.6282
েন্স	-10.6285
পশ্চিমাঞ্চল	-10.6286
▁খ্রিষ্টান	-10.6288
▁সম্মানে	-10.6289
▁আইনজীবী	-10.629
▁লাগানো	-10.6295
য়াস	-10.6297
▁৯৬	-10.6299
▁রন	-10.6299
▁সাদ	-10.6302
▁সম্পাদিত	-10.6303
▁পরিবেশের	-10.6305
▁প্রণালী	-10.6309
▁আংশিক	-10.631
▁co	-10.631
▁ঘাঁটি	-10.6311
▁অটো	-10.6314
▁অঙ্গনে	-10.6314
▁সাধারনত	-10.6318
কট	-10.6318
▁১৯০৬	-10.632
▁গির্জা	-10.6324
ল্দান	-10.6331
▁কম্পিউটারের	-10.6332
▁মহাদেশের	-10.6335
▁সংসদে	-10.6337
▁নিলে	-10.6339
▁বাউল	-10.6341
স্কা	-10.6342
▁পদার্থবিজ্ঞানে	-10.6342
▁খনি	-10.635
▁সিনেমার	-10.6354
▁চিন	-10.6355
▁উদ্ভিদের	-10.6357
স্তান	-10.6359
▁মাঝখানে	-10.6359
▁ধ্রুপদী	-10.6361
▁রুপ	-10.6362
▁পুল	-10.6362
▁হুসাইন	-10.6365
ভু	-10.6366
▁গুন	-10.6367
▁খন্ড	-10.6369
▁টেলিভিশনে	-10.6374
▁পায়ের	-10.6374
শিল্প	-10.6375
▁দেবার	-10.638
▁আজারবাইজান	-10.638
▁মালিকানা	-10.6384
রুম	-10.6385
▁ব্যস্ত	-10.6385
▁স্বামীর	-10.6386
▁অধিষ্ঠিত	-10.6386
▁ধারণাটি	-10.639
র্দো	-10.6392
ian	-10.6395
▁ষড়যন্ত্র	-10.6399
ig	-10.64
▁রাষ্ট্রভাষা	-10.6402
▁শ্রেণি	-10.6405
টিয়া	-10.6407
▁শাস্ত্রীয়	-10.6411
রায়	-10.642
▁আচার্য	-10.6424
▁সম্পদের	-10.6424
▁ডেপুটি	-10.6428
ভাগে	-10.6429
▁কোয়ার্টার	-10.6429
ধর	-10.6437
▁দশটি	-10.6439
▁শাস্ত্র	-10.644
টাস	-10.6442
লোক	-10.6442
▁নিউজ	-10.6444
▁ঘটনায়	-10.6445
▁উঠেছিল	-10.645
ts	-10.6451
▁রাখাইন	-10.6452
▁অভয়ারণ্য	-10.6456
▁প্রবর্তিত	-10.6456
▁লাগিয়ে	-10.6456
▁টমাস	-10.6459
জ্ঞ	-10.6461
▁নৌবাহিনীর	-10.6467
▁এসকল	-10.6474
মুলক	-10.6484
▁একাধারে	-10.6484
▁দাখিল	-10.6485
▁সংস্কৃতিতে	-10.6486
▁মেরু	-10.649
▁চৌধুরীর	-10.6494
▁চ্যাম্পিয়নশীপে	-10.6495
▁ফ্রান্সে	-10.6498
▁গণতন্ত্র	-10.6499
▁জলে	-10.6499
▁গোবিন্দ	-10.6501
লেও	-10.6503
উপ	-10.6503
▁জেল	-10.6507
▁ক্যাচ	-10.6509
শতক	-10.651
▁ধাপে	-10.6511
ou	-10.6512
জনক	-10.6512
▁তেমনি	-10.6516
▁কুস্তি	-10.6517
▁হয়তো	-10.6517
▁এদিকে	-10.6519
▁নৈতিক	-10.652
▁জালাল	-10.6521
▁প্রেক্ষাপটে	-10.6524
▁কাদের	-10.6526
ty	-10.6526
▁কষ্ট	-10.6527
▁সুদান	-10.6528
▁লোকদের	-10.6528
▁আত্মহত্যা	-10.6531
▁খেতে	-10.6533
▁পড়লে	-10.6538
রাত	-10.6551
▁ছোপ	-10.6553
▁আরাকান	-10.6558
ারী	-10.6558
মাই	-10.6562
শাস্ত্র	-10.6564
▁গোপাল	-10.6564
▁নিরপেক্ষ	-10.6567
মির	-10.657
▁খেলছেন	-10.6572
৬১	-10.6574
▁অসুস্থতা	-10.6576
”।	-10.6577
▁সন্ন্যাসী	-10.6579
▁ভ্রমণের	-10.6586
▁ইয়ে	-10.6586
pe	-10.6587
করন	-10.6588
▁স্পেস	-10.6591
▁con	-10.6593
▁আখ্যা	-10.6593
▁অজানা	-10.6599
▁উপনিষদ্	-10.6599
▁রোম	-10.66
▁হস্ত	-10.6601
▁ফেব্রুয়ারী	-10.6607
▁লিপিতে	-10.6607
দ্বয়	-10.6609
▁রাজতন্ত্র	-10.6614
▁টাই	-10.6616
▁দখলে	-10.6617
মিক	-10.6619
▁পাননি	-10.6623
▁নিয়ন্ত্রন	-10.6624
ক্ষা	-10.6626
▁চেয়েও	-10.6627
▁আসরে	-10.6628
▁ব্যতিক্রম	-10.663
▁প্রথাগত	-10.6638
ist	-10.6642
▁দেহে	-10.6646
ট্রা	-10.6648
ant	-10.6652
▁ব্রিজ	-10.6653
▁প্রযোজ্য	-10.6655
ন্দি	-10.6659
গামী	-10.6659
▁চৌম্বক	-10.6659
প্যা	-10.6661
▁সঞ্চালন	-10.6663
▁টোকিও	-10.6664
▁মিছিল	-10.6668
▁নেতিবাচক	-10.6669
▁হত্যাকাণ্ড	-10.667
▁বেশকিছু	-10.6672
ীয়া	-10.6676
▁কুরআনে	-10.6677
▁নিকোলাস	-10.6678
▁চেক	-10.6678
▁লাইভ	-10.6684
▁স্বর	-10.6684
▁বড়ো	-10.6685
ভিয়া	-10.6687
▁কুয়েত	-10.6688
▁তুলনামূলকভাবে	-10.6689
▁জন্যই	-10.6695
▁বয়সের	-10.6697
▁দুর্গাপূজা	-10.6698
▁কালের	-10.67
উস	-10.6708
▁ল্যাব	-10.6709
▁ঢাল	-10.6709
▁পুরাণে	-10.6712
▁এটাই	-10.6713
▁বিস্ফোরণ	-10.6715
খণ্ড	-10.6717
ভারতীয়	-10.6717
▁নিম্নোক্ত	-10.6727
▁লং	-10.6728
▁ধরতে	-10.6728
▁অভিবাসী	-10.6728
▁পরগণা	-10.6729
খে	-10.6733
▁মৃত্যুদণ্ড	-10.6742
▁সকালে	-10.6743
▁সেচ	-10.6743
▁পরও	-10.6744
▁উপদেশ	-10.6745
ধার	-10.6752
▁সাঈদ	-10.6753
▁কোচের	-10.6754
▁উঠেন	-10.6755
▁পোষণ	-10.6756
▁ব্রহ্মপুত্র	-10.6759
ভাব	-10.6761
৭৪	-10.6762
▁সুনির্দিষ্ট	-10.6765
▁উভয়েই	-10.6766
▁হাল	-10.6767
দেহ	-10.6768
▁ওয়েস্টার্ন	-10.677
▁হ্যাট্রিক	-10.677
▁মাত্রায়	-10.6771
▁কফি	-10.6774
পন	-10.6774
▁যৌনতা	-10.6776
▁অ্যাওয়ার্ড	-10.6777
সূচক	-10.6778
▁নীচে	-10.6778
ন্দ্র	-10.6779
▁ম্যারি	-10.6779
▁অসমের	-10.6783
▁উত্তোলন	-10.6785
▁আকর্ষণীয়	-10.6787
ac	-10.6788
▁জার্নাল	-10.6789
▁সেনাদের	-10.6789
▁প্রবেশের	-10.679
▁সার্	-10.6791
▁স্মরণীয়	-10.6791
▁মক্কার	-10.6797
▁মুক্তিযোদ্ধাদের	-10.6801
▁পর্বতমালার	-10.6804
▁বাচ্চা	-10.6805
ud	-10.6808
▁প্রবেশদ্বার	-10.6815
▁দেশটিতে	-10.6821
▁সকলের	-10.6824
▁বিস্তৃতি	-10.6824
গেন	-10.6824
▁দিলেন	-10.683
▁উদ্ধৃতি	-10.6833
ঈ	-10.6834
▁ফিল্মফেয়ার	-10.6834
রুপ	-10.6835
▁ঘটনাটি	-10.6836
▁ভালোবাসা	-10.6838
▁মাইক্রোসফট	-10.6838
▁মোগল	-10.6848
▁স্মরণে	-10.6848
▁অভাবে	-10.6851
স্টি	-10.6852
▁নির্দেশে	-10.6852
▁ভাগের	-10.6857
ংগ	-10.6857
▁ঔপন্যাসিক	-10.6858
▁ন্যস্ত	-10.6858
▁জন্মগ্রহন	-10.6858
▁ওয়ে	-10.686
প্রো	-10.686
▁শনাক্ত	-10.6865
▁Y	-10.6866
▁হিন্দ	-10.6869
▁স্কোর	-10.687
▁দফতর	-10.6872
▁বেঁধে	-10.6872
সাল	-10.6872
▁সংযোজন	-10.6872
বিষয়ক	-10.6874
▁অর্জুন	-10.6876
শিয়া	-10.6882
▁অধুনা	-10.6887
J	-10.6898
▁রক্ষণাবেক্ষণ	-10.6902
▁সুন্নি	-10.6903
ীভূত	-10.6905
ডেল	-10.6906
▁ঊ	-10.6907
▁একাদশের	-10.6911
মাত্র	-10.6912
▁তুলনামূলক	-10.6913
▁আবৃত	-10.6913
▁have	-10.6917
▁আনেন	-10.6917
পক্ষ	-10.6919
▁গণিতের	-10.6921
▁বেস	-10.6923
▁এলিজাবেথ	-10.6924
পাদ	-10.6925
▁ডন	-10.6925
▁৯৮	-10.6926
▁সতর্ক	-10.6929
▁সংঘাত	-10.6931
▁সিনেমায়	-10.6932
▁পাঠদান	-10.6935
হারা	-10.6939
▁প্রয়োজনীয়তা	-10.6945
▁অভ্যুত্থান	-10.6953
▁রাতের	-10.6954
▁নরম	-10.6957
ভেল	-10.6958
▁উত্তেজনা	-10.696
▁অস্ট্রেলিয়ান	-10.696
▁কাব্যগ্রন্থ	-10.6965
র্গ্যা	-10.6966
▁সরকারকে	-10.6969
▁চাচা	-10.6969
▁বরাদ্দ	-10.6975
▁হিব্রু	-10.6976
▁সংক্রমণ	-10.6981
▁শীত	-10.6982
▁হকি	-10.6982
▁চরিত্রটি	-10.6985
sh	-10.6986
▁বস্ত্র	-10.6987
▁পাশা	-10.6987
▁পোষাক	-10.699
▁বৌদ্ধবিহারের	-10.6996
▁৯৩	-10.6997
্ৰ	-10.6997
▁এভাবেই	-10.7
বড়	-10.7002
▁পরিপূর্ণ	-10.7004
▁নয়টি	-10.7005
▁ওমান	-10.7006
▁বিভাজন	-10.7009
▁রিং	-10.701
ন্য	-10.7012
▁মেরে	-10.7016
▁উপত্যকায়	-10.7019
▁ইব্রাহিম	-10.702
▁all	-10.702
▁শীর্ষে	-10.7022
▁রাষ্ট্রপতির	-10.7024
াশ	-10.7024
▁প্রচারের	-10.7026
▁রুদ্র	-10.7032
দর্শন	-10.7034
েশ্বরী	-10.7034
টিন	-10.7044
▁—	-10.7045
▁সুফিয়ান	-10.7045
▁করো	-10.7047
▁বার্লিন	-10.705
িম	-10.705
▁দৃষ্টিকোণ	-10.705
▁আইরিশ	-10.7051
▁ভ্যান	-10.7054
সেট	-10.7056
বুক	-10.7058
স্ট্রি	-10.7064
▁মহাভারত	-10.7064
▁তখনকার	-10.7064
কালের	-10.7065
▁আফ	-10.7066
াকৃতির	-10.7066
▁ভাগ্য	-10.7067
▁ফ্রে	-10.7067
▁পুরোনো	-10.7072
্লি	-10.7073
▁সঠিকভাবে	-10.7074
িদ	-10.7074
ান্তর	-10.7078
▁বস	-10.7081
মিটার	-10.7083
▁অর্	-10.7086
▁সভার	-10.7089
ভাষা	-10.7091
▁হবেন	-10.7091
▁ক্যাডেট	-10.7095
তাই	-10.7096
বর্গ	-10.7097
▁যেগুলি	-10.71
▁ক্ষেত্রেও	-10.71
▁লেগে	-10.71
▁সৌদ	-10.7107
▁ক্রো	-10.7109
▁প্রশংসিত	-10.7109
গ্রহণ	-10.711
▁প্যান	-10.7111
নামা	-10.7112
▁মুল	-10.7113
▁মনি	-10.7113
দক্ষিণ	-10.7114
▁লিবিয়া	-10.7118
K	-10.712
শাহ	-10.7124
▁অদ্যাবধি	-10.7124
▁ব্রিটেনের	-10.7125
▁শীঘ্রই	-10.7126
▁বলি	-10.713
ল্লি	-10.713
▁মালদ্বীপ	-10.7133
ত্বের	-10.7134
র্ড	-10.7135
▁সাংবিধানিক	-10.7139
▁কুকুর	-10.7142
▁সম্মতি	-10.7143
▁আর্দ্র	-10.7144
▁মুদ্রণ	-10.7156
▁প্রতিস্থাপন	-10.7157
▁বুঝায়	-10.7164
▁একীভূত	-10.7164
গল	-10.7169
▁মহাসচিব	-10.717
di	-10.717
W	-10.7171
ছোস	-10.7172
েন্দ্রনাথ	-10.7172
▁ক্লে	-10.7173
▁ইসমাইল	-10.7185
গতভাবে	-10.7191
▁করান	-10.7195
▁স্যাটেলাইট	-10.72
ক্সি	-10.7203
▁চিত্রিত	-10.7203
▁ভবিষ্যতে	-10.7207
▁বিচিত্র	-10.7207
▁4	-10.7208
▁রশিদ	-10.7209
▁উল্লেখিত	-10.7215
▁Re	-10.7217
▁সমভূমি	-10.7218
▁দেশগুলোর	-10.7218
▁খাজা	-10.722
▁গাই	-10.722
▁গুহা	-10.7223
▁লাহোর	-10.7223
▁রুটি	-10.7224
▁ভঙ্গ	-10.7225
▁পপ	-10.7227
▁পাড়ি	-10.7229
▁ঘোষনা	-10.7229
▁ধারায়	-10.7232
▁সেবার	-10.7234
বাহ	-10.7235
▁ছড়া	-10.7239
▁ঐতিহাসিকভাবে	-10.7239
▁ঝড়	-10.724
▁৯৭	-10.7243
▁ত্রয়োদশ	-10.7245
▁পাণ্ডুলিপি	-10.7245
▁স্প্যানিশ	-10.7245
▁সাপেক্ষে	-10.7246
▁৬০০	-10.7249
▁ঠাকুরের	-10.7251
▁ঘূর্ণিঝড়	-10.7253
▁রোজ	-10.7254
▁সজ্জিত	-10.7256
▁আক্রমণে	-10.7258
াইল	-10.7258
▁ওয়েলসের	-10.7258
▁হাতি	-10.726
▁শিক্ষাবিদ	-10.7262
নায়	-10.7262
▁মাস্টার্স	-10.7265
▁পর্যটকদের	-10.7268
সিল	-10.7269
লতা	-10.727
▁প্রেরিত	-10.7276
▁ব্যবহারিক	-10.7278
লিপি	-10.7278
▁স্বর্গ	-10.728
▁আজম	-10.7284
▁প্রজন্মের	-10.7284
▁ইহুদী	-10.7287
উন	-10.7288
▁প্রাইভেট	-10.7291
▁গেরিলা	-10.7291
▁মসজিদে	-10.7296
pi	-10.7299
▁মহানগর	-10.7304
▁বুদ্ধের	-10.7305
▁জলাশয়	-10.7307
▁অন্তর্	-10.7307
▁য	-10.7308
▁ক্রীড়াশৈলী	-10.731
▁ইয়েমেন	-10.7321
▁রাস্তায়	-10.7325
▁তখনও	-10.7328
▁নির্মাণে	-10.7334
▁উড	-10.7337
▁গ্রীষ্মে	-10.734
▁ন্যা	-10.7342
▁ডিসি	-10.7344
▁ব্যাংকের	-10.7344
খো	-10.7346
ানি	-10.7351
▁বাধ্যতামূলক	-10.7352
টেল	-10.7356
▁বাঁশ	-10.7356
▁কাপের	-10.7361
▁ত্রিনিদাদ	-10.7368
▁বিকশিত	-10.7368
▁বইটির	-10.7374
▁আমিরাত	-10.7375
উই	-10.7377
▁জোন	-10.7377
▁নাগরিকদের	-10.738
mo	-10.738
▁জীবের	-10.7382
▁নিখুঁত	-10.7383
▁ক্রান্তীয়	-10.7383
▁অফিসিয়াল	-10.7384
▁পদার্থবিজ্ঞানের	-10.7385
▁সচেতন	-10.7387
রিস	-10.739
▁সম্মুখ	-10.7392
িরা	-10.7393
▁প্রস্তাবনা	-10.7393
▁কারাগারে	-10.7393
▁ঘাস	-10.7394
▁সময়কার	-10.7394
▁জ্যামিতি	-10.7394
▁শ্যাম	-10.7396
ন্দে	-10.7396
▁সমাহিত	-10.7399
▁সেলসিয়াস	-10.7399
রাহ	-10.7401
▁ওয়াটার্স	-10.7403
চাঁদ	-10.7404
▁م	-10.7405
▁v	-10.7413
সীমা	-10.7418
▁বোর	-10.7424
▁চালাতে	-10.7425
াজ	-10.7425
▁রাজত্বকালে	-10.7428
▁সিডনি	-10.7429
▁অ্যানড্রয়েড	-10.743
and	-10.743
▁ঘূর্ণন	-10.7434
▁বৈশাখ	-10.7436
জ্ঞান	-10.7437
লিস	-10.7438
▁হরিণ	-10.7441
▁অধিদপ্তর	-10.7445
▁বিভব	-10.7447
▁ব্যাপার	-10.7447
▁ক্রমশ	-10.7448
▁এমসিসি	-10.7448
▁ফুটিয়ে	-10.745
▁মহাদেশ	-10.7453
জাম	-10.7456
▁যোদ্ধা	-10.7457
▁ভগবান	-10.7461
▁পারত	-10.7463
▁পারদর্শী	-10.7464
▁যাচাই	-10.7464
▁‘‘	-10.7465
▁De	-10.7478
▁নিজাম	-10.7478
▁শতকরা	-10.7479
▁অনন্ত	-10.748
▁কৃষ্ণের	-10.7482
▁১০ম	-10.7486
nd	-10.7487
জ্	-10.7489
▁সম্মত	-10.749
▁কীভাবে	-10.749
▁১০১	-10.7501
ধারা	-10.7502
নান	-10.7505
▁বর্তনী	-10.7508
▁পাহাড়ি	-10.7512
▁বললে	-10.7513
বৃত্তি	-10.7514
▁আঁ	-10.7515
▁রকেট	-10.7516
প্রা	-10.7517
মতি	-10.7518
▁মেটাল	-10.7519
▁চিত্রশিল্পী	-10.752
টিও	-10.7521
▁জিম্বাবুয়ের	-10.7521
যু	-10.7523
▁অঙ্গরাজ্যের	-10.7525
ানী	-10.7527
▁কিউ	-10.7527
▁পীর	-10.7531
▁স্ক	-10.7532
সেস	-10.7534
মধ্য	-10.7536
▁বিনামূল্যে	-10.7539
▁জার্মানিতে	-10.7545
▁বনাম	-10.7545
▁চিকিৎসার	-10.7549
▁গোয়া	-10.7549
বুল	-10.755
▁ট্যা	-10.7552
▁পরাজয়	-10.7553
▁ব্রেক	-10.7554
▁মনোনিবেশ	-10.7554
▁সহযোগিতায়	-10.7555
▁পুরানো	-10.7558
▁কর্মকর্তাদের	-10.7559
▁কাউকে	-10.7562
▁শান্ত	-10.7562
▁সবকিছু	-10.7562
▁কারিগরি	-10.7566
▁বন্দি	-10.7569
▁রাসূল	-10.757
▁পিছিয়ে	-10.757
ভূ	-10.7572
▁রোহিঙ্গাদের	-10.7573
দ্রা	-10.7575
▁১৯১৬	-10.7575
কার্য	-10.7579
▁বিভাগীয়	-10.7582
▁মাতৃ	-10.7583
▁মাতৃভাষা	-10.7586
▁ক্রমে	-10.7586
▁ভাইস	-10.7586
▁ক্রু	-10.7595
▁ডেথ	-10.7601
▁জিম	-10.7601
▁নীতিমালা	-10.7603
▁সাধক	-10.7605
ম্ম	-10.7606
বাজ	-10.7611
▁রচনায়	-10.7614
▁শের	-10.7616
▁নিকটতম	-10.7618
ভ্	-10.7622
▁ডেম	-10.7624
▁মোহন	-10.7626
▁সম্পূর্ণরূপে	-10.7627
▁পৃষ্ঠ	-10.7628
▁সম্পর্কযুক্ত	-10.7629
▁সন্ধ্যা	-10.7632
▁বয়	-10.7635
▁অধিকতর	-10.7637
▁একা	-10.7638
▁নাট্যকার	-10.7639
ম্মা	-10.7641
োদ	-10.7648
▁প্রধানমন্ত্রীর	-10.7648
▁which	-10.7649
▁পর্যাপ্ত	-10.7649
▁লোহিত	-10.765
▁গার্ডেন	-10.765
▁চেতনা	-10.7655
▁গুজরাট	-10.7657
▁ভৌত	-10.7661
ক্যাল	-10.7661
▁অ্যালবামটি	-10.7663
▁চার্জ	-10.7665
▁সারির	-10.7671
▁ব্ল	-10.7675
ভাবেই	-10.7676
▁পরিভাষা	-10.7678
▁শর্মা	-10.7681
পুরের	-10.7682
১০০	-10.7683
▁ভার্	-10.7684
▁পট	-10.7687
▁গল	-10.769
তল	-10.769
▁জেনে	-10.7692
▁মিন	-10.7693
▁দ্বীপপুঞ্জের	-10.7695
▁পায়ে	-10.7695
▁pro	-10.7696
▁এসোসিয়েশন	-10.7696
▁সন	-10.7696
▁অদ্বৈত	-10.7697
▁ইউরোপিয়ান	-10.7704
▁ভয়াবহ	-10.7708
সমূহকে	-10.7712
খান	-10.7717
▁১৯০২	-10.7717
▁অস্কার	-10.7717
পান	-10.7717
▁এলে	-10.7718
ণী	-10.7719
পুরা	-10.772
▁চৈতন্য	-10.7721
খু	-10.7723
▁নীচের	-10.7724
▁10	-10.7724
▁মস্কো	-10.7724
est	-10.7725
▁আলু	-10.7726
বুর্গ	-10.7739
রেল	-10.7739
▁ট্র	-10.774
▁বব	-10.7741
tra	-10.7742
কির	-10.7743
▁অস্বাভাবিক	-10.7745
▁পুতুল	-10.7745
ঙ্গি	-10.7745
▁ইয়ার	-10.7745
পূর্বাঞ্চল	-10.7747
▁দূত	-10.7748
▁১৯১৫	-10.7751
▁জাত	-10.7751
▁ইহা	-10.7753
বন্ধ	-10.7753
▁স্বাক্ষরিত	-10.7754
ব্রাহ্মণবাড়িয়া	-10.7755
▁ভাষাসমূহ	-10.7758
▁এপ্রিলে	-10.7761
িণী	-10.7765
ত্তি	-10.7771
▁আবাস	-10.7775
▁যাই	-10.7776
▁প্রেসিডেন্সি	-10.7779
ক্ট	-10.7781
পেন	-10.7782
সমাজ	-10.7787
কোট	-10.7788
রেট	-10.7788
▁দেবতার	-10.7791
াউ	-10.7791
▁বাণিজ্যের	-10.7792
▁সিলেটের	-10.7792
▁সংলাপ	-10.7792
▁সিডি	-10.7793
▁ইস	-10.7796
্সের	-10.7797
▁অর্থের	-10.7801
▁ঐতিহ্যের	-10.7803
▁ছাপা	-10.7803
▁্য	-10.7804
মিয়া	-10.7805
দাতা	-10.7806
▁ধার	-10.7808
▁ফেডারেল	-10.7808
▁প্রতিফলন	-10.7808
▁আণবিক	-10.7809
▁বনে	-10.7809
▁আবদুর	-10.7809
▁মেঘনা	-10.7817
তির	-10.7819
▁বিশ্বাসী	-10.782
▁হাদীস	-10.7821
▁st	-10.7821
▁প্রতিশ্রুতি	-10.7823
ফাই	-10.7823
▁এরূপ	-10.7824
▁শ্বেত	-10.7824
▁গৃহযুদ্ধ	-10.7827
পাকিস্তান	-10.7828
▁উত্তরাধিকার	-10.7828
▁নাগরিকত্ব	-10.7831
▁খৃষ্টাব্দে	-10.7832
▁জমিতে	-10.7834
▁এদেশে	-10.7834
▁যান্ত্রিক	-10.7834
দেবী	-10.7836
▁এপি	-10.7836
▁কাক	-10.7841
▁ইতিমধ্যে	-10.7841
▁প্রশাসনের	-10.7842
▁১৯০১	-10.7848
ধান	-10.7853
▁ধরার	-10.7855
মারা	-10.7857
The	-10.7857
▁নৌবাহিনী	-10.7858
কশন	-10.7859
▁টিন	-10.7862
▁কর্	-10.7864
▁উপমহাদেশে	-10.7866
▁আসামের	-10.7868
▁ট্র্যাক	-10.787
▁এদেরকে	-10.7871
▁খামার	-10.7875
ভিচ	-10.7884
▁রোমান্টিক	-10.789
▁ডক্টরেট	-10.789
▁লাই	-10.7892
▁১৯০৯	-10.7893
▁ক্যান	-10.7901
▁৩০০টি	-10.7903
▁হেড	-10.7905
▁সাদৃশ্য	-10.7905
▁বাদ্যযন্ত্র	-10.7905
▁ধরণ	-10.7906
▁হোস্টেল	-10.7907
▁বিমানবন্দরের	-10.7907
▁ওয়েন	-10.7911
▁বিষয়গুলো	-10.7914
man	-10.7915
▁সংস্থাটি	-10.7916
ানা	-10.7916
▁পশ্চিমবঙ্গে	-10.7917
কারক	-10.7918
▁পিতৃ	-10.7921
▁সম্প্রসারিত	-10.7922
▁পুষ্টি	-10.7923
▁পলিটেকনিক	-10.7928
▁পারস্যের	-10.7932
▁বিধি	-10.7934
▁দায়	-10.794
সেনা	-10.7943
▁ক্ষেত্রের	-10.7944
▁ফোর্স	-10.7944
▁নথি	-10.7951
ডন	-10.7953
▁৮ম	-10.7955
▁পরিনত	-10.7955
▁আব্দুল্লাহ	-10.7957
▁তাইওয়ান	-10.7958
▁গার্ড	-10.7958
▁ফ্রান্সিস	-10.796
▁বিবর্তনের	-10.7963
টেক	-10.7964
▁লেখায়	-10.7968
▁থাই	-10.7969
▁চেহারা	-10.7971
শিক্ষাপ্রতিষ্ঠান	-10.7972
▁উপস্থাপনা	-10.7972
▁থ	-10.7973
গী	-10.7973
▁ক্রা	-10.7976
▁মিলিমিটার	-10.798
সিংহ	-10.7981
ায়ণ	-10.7981
▁করল	-10.7982
যার	-10.7982
▁বাঁকুড়া	-10.7983
▁অধিবেশনে	-10.7986
িট	-10.7988
▁সুভাষ	-10.7988
▁সংরক্ষণের	-10.7989
▁পিঠে	-10.799
▁নারীরা	-10.799
▁অগ্রগতি	-10.7993
ফোর	-10.7996
▁হ্রদের	-10.7996
▁হাতের	-10.7997
র্গ	-10.7999
▁মহাকর্ষ	-10.7999
▁গম	-10.8003
▁পরিত্যক্ত	-10.8003
▁বুদ্ধিজীবী	-10.8004
▁হিমবাহ	-10.8004
▁তৈরিতে	-10.8004
▁ওডিআইয়ে	-10.8006
স্তি	-10.8006
▁হাওর	-10.8007
▁স্থায়ীভাবে	-10.8014
▁গ্রিন	-10.8015
▁প্রথমবার	-10.8016
▁ভূগোল	-10.8022
▁গোটা	-10.8023
স্ত্র	-10.8029
রাজা	-10.803
সাগর	-10.803
▁বাদামি	-10.8031
▁টান	-10.8032
▁গোপনে	-10.8035
▁পরিগণিত	-10.8036
▁গজ	-10.8038
▁ডাটা	-10.8042
▁কাচ	-10.8044
্টো	-10.805
▁পৈতৃক	-10.8053
▁ইন্দিরা	-10.8053
▁বিরতি	-10.8054
▁নিউক্লিয়াস	-10.8054
▁আবাসস্থল	-10.8054
▁বৃদ্ধ	-10.8054
▁১৮৯০	-10.8057
fe	-10.8059
▁১১০	-10.806
▁কুরাইশ	-10.8068
▁ভারসাম্য	-10.8069
▁কোষের	-10.8072
▁১৯০৪	-10.8074
▁সার্বভৌম	-10.8077
▁মদিনায়	-10.8078
▁জ্বর	-10.8086
▁আজকে	-10.8087
▁Le	-10.8091
▁লাইনের	-10.8095
▁৯৪	-10.8099
▁স্টেশনের	-10.8099
▁বারবার	-10.81
▁সর্বকনিষ্ঠ	-10.8102
▁কথ্য	-10.8103
▁সার্ভার	-10.8103
▁হিটলার	-10.8104
▁সন্তানদের	-10.8105
▁অদৃশ্য	-10.8105
▁সুফি	-10.8107
য়াং	-10.8108
▁জমিদারি	-10.8109
ট্রো	-10.8111
▁খাত	-10.8116
▁সিদ্ধ	-10.8118
▁অবিভক্ত	-10.812
▁মহারাজা	-10.812
জুড়ে	-10.8121
▁বিচ্ছেদ	-10.8121
বিভাগ	-10.8122
িংয়ের	-10.8122
বাল	-10.8123
▁শিলালিপি	-10.8124
▁চো	-10.8129
▁বঙ্গীয়	-10.813
▁ডিপ্লোমা	-10.8135
▁দেবে	-10.8135
▁সোর্স	-10.8137
▁শাল	-10.8137
per	-10.8144
▁প্রজন্ম	-10.8144
▁পিসি	-10.8146
▁আগমনের	-10.8147
▁আইল্যান্ড	-10.8147
▁আন্ত	-10.8147
িদের	-10.8148
▁ঈসা	-10.8148
▁চাকুরী	-10.8152
▁ভিক্ষু	-10.8155
▁যন্ত্রাংশ	-10.8157
ag	-10.8158
▁নম্বরে	-10.8158
▁হিন্দুধর্মের	-10.8159
▁ক্রীড়াবিদ	-10.8163
মালিক	-10.8169
▁ফলস্বরূপ	-10.8171
▁সপ্তাহের	-10.8174
বৈজ্ঞানিক	-10.8176
▁লিওন	-10.8179
▁মহকুমার	-10.8184
▁সালাহউদ্দিন	-10.8186
▁অবনতি	-10.8186
▁অথচ	-10.8186
▁খ্রিঃ	-10.8188
▁ইসরায়েলের	-10.8188
▁রক্ষিত	-10.819
▁মাইক্রো	-10.8195
াগার	-10.8196
▁মেট্রিক	-10.8198
▁ছোটগল্প	-10.8203
পোর্ট	-10.8204
les	-10.8207
নিউ	-10.8207
▁১০৮	-10.8211
▁১৬টি	-10.8211
▁পদবী	-10.8211
চক	-10.8213
▁দেখিয়ে	-10.8218
গ্রহ	-10.8219
▁পিছনের	-10.822
▁বুঝানো	-10.8221
▁মেয়ের	-10.8221
▁হায়দ্রাবাদ	-10.8228
দন	-10.8228
▁নির্দেশিকা	-10.823
োত্তর	-10.8234
▁বার্ন	-10.8235
▁কিংস	-10.824
▁সমান্তরাল	-10.8241
▁জঙ্গল	-10.8248
আস	-10.8249
▁ইসরাইল	-10.8253
▁অপরাধের	-10.8255
▁কিতাব	-10.8256
▁ফুটবলের	-10.8257
▁জনবহুল	-10.8258
▁চারদিকে	-10.8259
▁তানজানিয়া	-10.8261
▁নদিয়া	-10.8264
▁Ch	-10.8267
িফ	-10.8268
ন্থ	-10.8268
▁বিপর্যয়	-10.8269
▁লেবানন	-10.8269
কিং	-10.827
▁আসনটি	-10.8273
▁হার্ড	-10.8274
ডিং	-10.8274
▁জীববিজ্ঞান	-10.8275
ডব্লিউ	-10.8275
▁সুস্পষ্ট	-10.8277
দ্দ	-10.8278
▁অ্যালান	-10.8279
▁ব্যক্তিবর্গ	-10.8286
▁অণুযায়ী	-10.8286
▁কাহিনীর	-10.8288
▁বৈঠকে	-10.8289
▁has	-10.8289
▁যাবতীয়	-10.8305
▁ছাত্ররা	-10.8308
▁দাঁড়	-10.8309
প্রিয়	-10.8313
শালা	-10.8314
▁লিপির	-10.8314
স্বাক্ষরতার	-10.8314
▁মারাত্মক	-10.8315
▁বন্য	-10.8319
▁স্থগিত	-10.832
ca	-10.8321
▁রেশম	-10.8322
▁লাও	-10.8324
▁ইসলামে	-10.8325
▁চলা	-10.8326
▁হাব	-10.8327
ষণ	-10.8327
▁রেজা	-10.8327
▁শাসকদের	-10.8328
ঙ্গল	-10.8328
ভের	-10.8329
▁মুর্শিদাবাদ	-10.8331
ক্র	-10.8331
▁উদার	-10.8331
কর্মী	-10.8332
▁সাময়িকী	-10.8332
▁i	-10.8333
▁ক্যাল	-10.8334
▁নির্মান	-10.8334
▁গায়িকা	-10.8338
▁লুকিয়ে	-10.8338
টান	-10.8341
▁উপন্যাসে	-10.8346
▁প্রবাসী	-10.835
▁কর্মীদের	-10.835
▁আয়োজক	-10.8354
▁ক্ষেপণাস্ত্র	-10.8354
▁ক্রিস	-10.8358
▁১৯০৭	-10.8358
পুরাণ	-10.8359
▁হাসি	-10.8361
▁কমিক	-10.8362
▁সেদিন	-10.8363
▁বাহু	-10.8364
৮১	-10.8368
▁ছন্দ	-10.837
▁দৈত্য	-10.8371
▁ড্রাইভ	-10.8372
▁বোম্বে	-10.8375
▁পোকা	-10.8378
▁মাইক	-10.8378
▁ছাত্রাবাস	-10.8388
▁বামহাতি	-10.8388
▁সহিংসতা	-10.839
be	-10.839
▁সাম্রাজ্যে	-10.8391
▁চাঁদপুর	-10.8391
▁সফলভাবে	-10.8392
মণ্ডল	-10.8392
▁বিবাদ	-10.8393
▁প্রেমের	-10.8394
▁দলগুলো	-10.8395
ঢাকা	-10.8398
▁বিমানবন্দরে	-10.8401
ম্ত্শান	-10.8405
▁অধ্যাপনা	-10.8405
▁নাইজেরিয়া	-10.8405
▁অনূদিত	-10.8405
রাষ্ট্র	-10.8407
▁সম্	-10.8407
▁ক্যাম্পাসে	-10.841
▁ধ্রুবক	-10.8411
▁সারে	-10.8411
▁মেন	-10.8415
▁দিল্লিতে	-10.8415
ন্টি	-10.842
▁ওভারে	-10.8422
▁ক্রোমোজোম	-10.8422
▁প্রতিশোধ	-10.8422
▁ব্যারেট	-10.8423
▁অনা	-10.8423
শের	-10.8424
▁নারীবাদী	-10.8426
▁রেখেছিলেন	-10.8427
ies	-10.8432
▁হতেন	-10.8434
▁ফায়ার	-10.8434
▁সংস্পর্শে	-10.8435
য়েট	-10.8439
▁জরুরি	-10.8439
▁নাম্বার	-10.844
▁পাচ্ছে	-10.8441
▁গর্ভে	-10.8443
▁কাজটি	-10.8445
▁no	-10.8447
স্ট্র	-10.8449
▁বিবৃতি	-10.845
▁ত্রিশ	-10.845
২০০	-10.8451
নীল	-10.8455
ow	-10.8455
▁রক্ষণশীল	-10.8457
▁আর্থ	-10.8459
▁স্টক	-10.846
▁তর	-10.8461
▁কাতার	-10.8463
▁রোগীর	-10.8464
কাত	-10.8467
ন্তন	-10.8468
▁হস্তক্ষেপ	-10.8468
ষে	-10.8471
▁গন	-10.8471
শ্বর	-10.8472
▁পুনর্গঠন	-10.8474
▁জ্যোতিষশাস্ত্র	-10.8475
প্রদান	-10.8478
▁ওপরে	-10.848
▁শৈলী	-10.8482
▁যথাযথ	-10.8483
পট	-10.8485
াপ	-10.8487
▁বিএ	-10.849
ect	-10.8494
▁অ্যাড	-10.8495
▁নিক	-10.8506
▁শৈশবে	-10.8508
▁নারায়ণগঞ্জ	-10.851
দেশের	-10.8511
▁কাঠামোর	-10.8511
▁জার্সি	-10.8511
েত	-10.8511
▁ছোট্ট	-10.8518
র্ম	-10.852
▁কর্মসূচি	-10.8521
▁সুরা	-10.8523
▁রিপাবলিক	-10.8524
▁প্রতিফলিত	-10.8525
▁কৌশলগত	-10.8528
▁জ্বালানি	-10.8529
▁অত্র	-10.853
‘	-10.8534
▁সিরিজটি	-10.8535
▁গেমসের	-10.8536
▁চিন্তাধারা	-10.8536
▁সেক্টর	-10.8537
টিভ	-10.8539
▁জিলা	-10.8539
▁প্রতিবাদে	-10.854
▁ধারে	-10.854
এক্স	-10.8541
ভান	-10.8541
▁নির্যাতনের	-10.8541
▁ডেস্কটপ	-10.8543
জির	-10.8543
▁ছাড়িয়ে	-10.8543
▁কন্ঠ	-10.855
▁মেধা	-10.855
▁শ্র	-10.8557
▁আফগানিস্তানে	-10.8557
▁হরমোন	-10.856
▁Z	-10.8561
▁নির্গত	-10.8562
ভেদে	-10.8563
▁দক্ষতার	-10.8565
▁la	-10.8566
▁নাটকীয়	-10.8567
▁রেটিং	-10.8568
▁প্রচেষ্টায়	-10.8571
▁রাষ্ট্রদূত	-10.8579
▁দলগুলোর	-10.8581
▁মাদক	-10.8581
▁মহাকর্ষীয়	-10.8582
▁ভাষাটি	-10.8585
▁নাটকটি	-10.8586
▁সম্প্রচারিত	-10.8586
▁চালানোর	-10.859
▁টেবিল	-10.8591
নির্ভর	-10.8591
▁কার্টুন	-10.8595
▁তাজিকিস্তান	-10.8595
▁মহাত্মা	-10.8595
▁বাষ্প	-10.8596
▁ম্যাগ	-10.8596
▁ডিস্ক	-10.8598
▁বলেই	-10.8604
mi	-10.8607
▁বেলজিয়াম	-10.8609
উম্মে	-10.8609
▁ফেব্রুয়ারিতে	-10.8612
▁ঐক্য	-10.8614
▁ছাপ	-10.8616
▁পড়েছিল	-10.862
মাতা	-10.8621
▁সড়কের	-10.8622
▁দর	-10.8623
▁বসানো	-10.8623
▁পরিকল্পনার	-10.8624
▁নির্ভরযোগ্য	-10.8626
▁এটাকে	-10.8627
▁চল্লিশ	-10.8628
▁ইয়ো	-10.8628
শাল	-10.8628
রেন	-10.8629
▁মহাজাগতিক	-10.863
▁অধিবাসীদের	-10.8631
▁মির	-10.8631
▁বুদ্ধি	-10.8633
▁অনার্স	-10.8633
▁নিরাপত্তার	-10.8634
▁মানিক	-10.8636
▁বানর	-10.8641
▁ইজ	-10.8645
▁ভাষাবিজ্ঞান	-10.8645
ous	-10.8645
উদ্দীন	-10.8646
▁বিল্ডিং	-10.8647
বারের	-10.8649
র্ট	-10.8649
▁মূল্যায়ন	-10.865
▁ফেলতে	-10.8652
▁our	-10.8654
শিল্পী	-10.8658
ary	-10.8663
▁কম্বোডিয়া	-10.8665
▁জন্যও	-10.8665
▁বিকাশের	-10.8666
▁পূ	-10.867
▁বৈশিষ্ট্যের	-10.8671
রহাট	-10.8675
▁পাঠিয়ে	-10.8675
অন	-10.8675
▁দ্বার	-10.8675
▁রেখেছিল	-10.8676
▁World	-10.8677
▁কিউবা	-10.868
বস্তু	-10.8682
▁শহুরে	-10.8682
▁সুপ্রিম	-10.8682
▁পৃষ্ঠপোষক	-10.8685
হল	-10.8692
▁কিউব	-10.8696
▁Bo	-10.8696
▁কথাটি	-10.8698
▁প্রণীত	-10.87
▁ex	-10.8701
▁১৮৯৬	-10.8704
াঞ্চল	-10.8707
▁আধান	-10.8707
▁শুদ্ধ	-10.8708
▁উইন	-10.8715
ga	-10.8715
ঙ্গু	-10.8716
চো	-10.8716
▁পরাজয়ের	-10.8719
▁রাজাদের	-10.8722
▁আলোকচিত্র	-10.8724
▁নিবাস	-10.8725
▁La	-10.8728
▁ধারাবাহিকে	-10.8732
চর্চা	-10.8734
▁সোসাইটির	-10.8734
▁Mo	-10.8739
▁গ্রাহক	-10.8742
▁নিন্দা	-10.8745
▁গন্ধ	-10.8745
▁পরস্পরের	-10.8746
▁পরিকল্পিত	-10.8746
মনি	-10.8748
ফিন	-10.8749
▁ক্যাপ	-10.8758
িলা	-10.876
▁বিক্রম	-10.8763
▁জেট	-10.8763
ight	-10.8763
▁পটভূমি	-10.8765
▁অঙ্কন	-10.8766
▁সমতা	-10.8768
বিদ্যার	-10.8769
▁মালি	-10.8769
▁ফয়সাল	-10.877
▁গবেষণাপত্র	-10.877
▁শেষভাগে	-10.8771
▁ব্রত	-10.8774
▁দাউদ	-10.8776
▁খাতে	-10.8776
si	-10.8777
▁ফাঁসি	-10.8779
▁কার্যক্রমের	-10.8779
▁ফ্রন্ট	-10.878
▁ভাষাভাষী	-10.878
▁কুই	-10.8781
▁উপভোগ	-10.8782
গুরু	-10.8783
যন্ত্র	-10.8786
out	-10.8786
▁দুর্ভিক্ষ	-10.8788
▁সিনা	-10.8788
্নী	-10.879
▁বন্ড	-10.8793
▁৯ম	-10.8794
▁কিছুকাল	-10.8797
▁সিদ্ধান্তে	-10.8798
পাতা	-10.88
▁শর	-10.8803
▁জেরুজালেম	-10.8805
▁দৈনন্দিন	-10.8806
▁স্কটিশ	-10.8806
ফ্	-10.881
▁পরেও	-10.8814
▁কালাম	-10.8814
ss	-10.8816
▁নানান	-10.8817
▁ব্যাটসম্যানের	-10.8821
▁গঠনে	-10.8821
▁উর্বর	-10.8822
▁কনিষ্ঠ	-10.8822
খালি	-10.8823
▁ম্যাজিস্ট্রেট	-10.8824
▁টেলিফোন	-10.8824
▁স্বত্ত্বেও	-10.8824
▁চলাকালে	-10.8825
▁ভন	-10.8825
▁শহরতলি	-10.8825
▁স্পিনার	-10.8826
সাদ	-10.883
▁সমৃদ্ধি	-10.8833
▁একটিমাত্র	-10.8834
▁squad	-10.8841
▁প্রজেক্ট	-10.8841
▁মাদ্রাজ	-10.8842
▁un	-10.8842
থো	-10.8844
▁রব	-10.8847
▁প্রত্নতত্ত্ব	-10.8848
▁কোরীয়	-10.8849
▁ব্র্যান্ড	-10.885
ভাল	-10.8851
তাকে	-10.8852
▁দূর্বল	-10.8854
▁স্কট	-10.8855
▁অংশীদার	-10.886
কাজ	-10.886
▁প্রয়াস	-10.8862
▁খোদাই	-10.8864
▁গ্যাসের	-10.8865
▁তুলেছিলেন	-10.8866
▁১০৩	-10.8867
▁সুন্দরবন	-10.8869
▁বন্দরের	-10.8872
্যাপ	-10.8873
▁ফুটে	-10.8876
কুই	-10.8876
▁সদস্যপদ	-10.8876
▁বার্	-10.8877
▁অধিগ্রহণ	-10.8878
▁পেরেছিলেন	-10.8879
যায়িদ	-10.888
▁ভোলা	-10.8882
াদ	-10.8883
ব্যাক	-10.8886
▁বাতাস	-10.889
▁উপাসনা	-10.8891
▁শিশ্ন	-10.8891
▁হলঃ	-10.8891
ba	-10.8892
▁ভূমির	-10.8892
▁ইয়র্কশায়ারের	-10.8893
দেশীয়	-10.8894
▁সমঝোতা	-10.8895
▁পরিত্যাগ	-10.8896
▁পরদিন	-10.8898
আন	-10.8899
▁শিক্ষার্থীরা	-10.8902
▁তথ্যের	-10.8903
গ্র	-10.8903
▁পরীক্ষামূলক	-10.8904
▁বিলুপ্তি	-10.8904
▁মিলান	-10.8906
নারী	-10.8906
▁ফিলিস্তিনি	-10.8908
▁আহসান	-10.8913
▁বিধবা	-10.8913
▁প্রস্তর	-10.8915
ছু	-10.8919
▁লালন	-10.8923
▁১৪টি	-10.893
▁মালয়েশিয়ার	-10.8931
▁পার্কে	-10.8933
▁ডার্ক	-10.8934
▁কোরআন	-10.8934
▁উপরন্তু	-10.8935
▁অন্যদের	-10.8935
বিশ্ব	-10.894
▁শার	-10.8944
▁সমর্থিত	-10.8944
▁ধর	-10.8947
▁লৌহ	-10.8949
▁অ্যানিমেশন	-10.8949
▁পুড়িয়ে	-10.895
মিল	-10.895
▁দূরবর্তী	-10.895
প্ট	-10.8956
▁শিল্পীদের	-10.8959
▁১০৫	-10.8961
▁বিষ্ণুর	-10.8962
▁উচ্চতার	-10.8964
শহর	-10.8964
ঞ্জি	-10.8966
▁ইথিওপিয়া	-10.8967
▁জংশন	-10.8968
▁জিডিপি	-10.8968
▁চাইলে	-10.8969
▁বৃষ্টির	-10.897
▁টেক	-10.897
▁ক্রে	-10.8976
▁বালা	-10.8979
▁He	-10.8984
▁ভিটামিন	-10.8985
▁নিবন্ধন	-10.8989
ণ্ট	-10.899
▁জুনে	-10.899
▁ফজলুল	-10.899
▁জার্মানী	-10.8992
min	-10.8994
▁জীবিকা	-10.8999
▁সংবিধানের	-10.9
▁জন্মে	-10.9003
▁দেড়	-10.9006
হাব	-10.9007
▁কখনোই	-10.9009
▁আলবার্ট	-10.9012
▁অক্সাইড	-10.9012
▁মালভূমি	-10.9013
▁সেলিম	-10.9013
বোন	-10.9015
▁ডিস	-10.9015
রোগ	-10.9016
ind	-10.9017
স্টা	-10.9018
▁অন্ধ	-10.902
▁পত্নী	-10.9022
▁প্রভু	-10.9025
ব্রি	-10.9026
▁খ্রিস্টধর্ম	-10.9026
▁সমালোচনার	-10.9028
▁লেডি	-10.9031
▁সার্বিক	-10.9031
▁লুই	-10.9032
▁ইস্টার্ন	-10.9036
▁কুমারী	-10.9039
▁সমালোচিত	-10.904
োল	-10.9042
▁ধু	-10.9044
▁চালনা	-10.9052
▁নিত্য	-10.9052
▁সমূহের	-10.9052
▁দূরত্বে	-10.9052
▁আবারও	-10.9053
▁An	-10.9056
▁পেলেও	-10.9058
▁অভিভাবক	-10.9058
▁মুদ্রিত	-10.9058
▁কামান	-10.9058
▁কৌ	-10.9059
তিক	-10.906
▁উদ	-10.9061
কস	-10.9063
▁বসা	-10.9063
রেজ	-10.9067
স্কো	-10.907
▁কুন	-10.9072
▁ট্রাই	-10.9074
op	-10.9074
▁করেন৷	-10.9078
act	-10.9078
▁সহকর্মী	-10.9081
▁মুভি	-10.9082
ate	-10.9089
জিল	-10.909
কূল	-10.9097
▁ডেকে	-10.9104
াবলি	-10.9106
▁আচরণের	-10.9106
নিন	-10.9107
উর	-10.9107
▁বনাঞ্চল	-10.9107
রেখা	-10.9108
▁কাছেই	-10.9109
বিন্দু	-10.911
▁প্রচন্ড	-10.9113
▁আলজেরিয়া	-10.9113
▁উদ্বেগ	-10.9113
▁সুন্দরী	-10.9114
▁গ্রীন	-10.9116
▁কালচে	-10.9116
▁মারাঠা	-10.9117
পদ্ধতি	-10.9121
▁পরা	-10.9124
▁ভাষাকে	-10.9126
▁সবজি	-10.9127
▁মরুভূমি	-10.9127
▁তালিকার	-10.9129
▁এমি	-10.9131
▁ত্রিভুজ	-10.9131
লফ	-10.9132
the	-10.9133
▁পূর্ববঙ্গ	-10.9137
▁আজীবন	-10.914
▁বিবাহিত	-10.9141
▁ট্রাস্ট	-10.9143
টাউন	-10.9146
তিন	-10.9148
তুল	-10.9149
▁Ar	-10.9152
▁স্বার্থ	-10.9153
▁হলোঃ	-10.9153
গ্রি	-10.9158
▁সভাপতির	-10.916
▁পৌছে	-10.9161
▁বাল	-10.9162
ard	-10.9167
ত্রা	-10.9168
▁পরীক্ষণ	-10.9168
▁ব্যবসার	-10.9169
▁চলচিত্র	-10.917
▁জিতেছে	-10.9173
▁চ্যাম্পিয়ন্স	-10.9173
▁প্রাচ্য	-10.9175
রিও	-10.9177
▁ইনি	-10.9183
▁তামা	-10.9184
▁অ্যাকাডেমি	-10.9186
▁বান্দরবান	-10.9186
▁রেফারি	-10.9187
▁অলিম্পিকের	-10.9189
▁চিত্রকর্ম	-10.9189
▁বাসায়	-10.919
▁হিম	-10.9193
ish	-10.9194
▁বঙ্গাব্দে	-10.9195
▁হিসেবেই	-10.9198
▁হাফ	-10.9198
▁চিপ	-10.9201
▁পুরু	-10.9201
▁স্টোন	-10.9201
▁আকাশে	-10.9201
▁সম্রাটের	-10.9201
▁কীর্তি	-10.9205
▁সুরক্ষিত	-10.9205
▁প্রতিকৃতি	-10.9209
বিক	-10.921
▁পরিবহণ	-10.9214
▁স্কটল্যান্ড	-10.9218
▁সাময়িক	-10.9219
▁স্ট্রিং	-10.922
▁হাস্যরসাত্মক	-10.9223
▁কোবরা	-10.9224
▁অ্যাট	-10.9225
▁স্কুলটি	-10.9226
হন	-10.9228
▁অঙ্কিত	-10.923
▁জাগ	-10.9231
সভা	-10.9231
▁বাজারের	-10.9232
▁হাজির	-10.9239
end	-10.9241
▁রিজার্ভ	-10.9242
▁সার্বজনীন	-10.9242
জিং	-10.9242
▁সমতুল্য	-10.9242
▁বোয়িং	-10.9242
▁জীবদ্দশায়	-10.9243
▁বহাল	-10.9244
▁প্রসাদ	-10.9245
ালয়	-10.9245
▁বিশ্বাসের	-10.9245
▁মাউন্ট	-10.9249
▁যোগান	-10.925
▁চল	-10.9254
কেট	-10.9255
উজ	-10.9257
পাই	-10.9258
▁ঘটিয়ে	-10.9258
গতি	-10.9259
▁পদাতিক	-10.926
ম্ত্শো	-10.9261
▁অ্যাপ্লিকেশন	-10.9261
▁কাঁটা	-10.9262
▁অস	-10.9264
▁we	-10.9264
▁নামীয়	-10.9266
ুম	-10.9268
▁একপ্রকার	-10.9271
▁বাড়িটি	-10.9272
আহ	-10.9275
্যের	-10.9275
▁হারানো	-10.9276
▁স্ক্রিন	-10.9279
▁আইনি	-10.9283
▁কাবুল	-10.9286
▁শোক	-10.9288
▁পাতলা	-10.929
▁সিম	-10.929
▁বিজ্ঞানীদের	-10.9294
▁বিজ্ঞানে	-10.9295
if	-10.9296
▁এমনভাবে	-10.9298
▁সপ্তদশ	-10.9298
▁খ্রিষ্টপূর্ব	-10.93
মেট	-10.9303
গুন	-10.9303
▁অপেরা	-10.9305
প্রকাশ	-10.9309
▁কলম্বো	-10.9312
মারি	-10.9315
▁ভেক্টর	-10.9316
▁অনুচ্ছেদ	-10.9317
no	-10.9319
▁ফকির	-10.9322
▁বানান	-10.9322
র্চ	-10.9325
▁আদান	-10.9326
বৃন্দ	-10.9328
▁মাদার	-10.9334
▁কাজকর্ম	-10.9334
খ্যাতনামা	-10.9335
▁কেরালা	-10.9336
▁যুগ্ম	-10.9336
্ডার	-10.9337
▁আয়ন	-10.9337
ার্থ	-10.9342
▁পৌঁছায়	-10.9342
▁জয়ে	-10.9342
প্ত	-10.9344
▁অনেকটাই	-10.9345
▁তাপমাত্রার	-10.9345
age	-10.9346
▁ভরের	-10.9346
▁বারাণসী	-10.9348
▁আটকে	-10.9353
▁উজবেকিস্তান	-10.9354
ঙ্গো	-10.9355
গ্রস্ত	-10.9356
▁স্নান	-10.9357
্বা	-10.9357
▁পরিমাপের	-10.9357
ওয়াই	-10.9358
▁মাহ	-10.9358
েক	-10.9362
▁গাছে	-10.9362
▁সুলতানের	-10.9364
▁নাবিক	-10.9365
▁রানওয়ে	-10.9367
▁মনোবিজ্ঞান	-10.9368
gen	-10.9369
▁রত্ন	-10.9369
▁জনগণনা	-10.937
▁আর্মেনীয়	-10.9373
▁বাহ্যিক	-10.9373
▁হারান	-10.9373
▁বিদ্যাসাগর	-10.9373
▁সহযোগে	-10.9375
▁কলম্বিয়া	-10.9376
▁পাঠায়	-10.9378
▁সামন্ত	-10.9382
▁their	-10.9383
▁সাইকেল	-10.9389
▁জয়নগর	-10.9391
templatequote	-10.9392
ep	-10.9393
▁মুলত	-10.9398
ru	-10.94
▁চূড়া	-10.94
▁5	-10.9402
▁সর্বদা	-10.9404
করা	-10.9405
▁হেম	-10.9405
▁কাবা	-10.9405
▁পুরোহিত	-10.9409
▁ইকবাল	-10.9411
আমার	-10.9411
ডের	-10.9412
▁ওসমানী	-10.9412
▁জাহাজটি	-10.9416
▁কোয়া	-10.9418
▁বর্ষপঞ্জি	-10.942
▁গুল	-10.942
▁বোনের	-10.9422
কেল	-10.9423
▁বিদেশ	-10.9424
▁বৈঠক	-10.9427
কিছু	-10.9429
▁চতুর্দশ	-10.9429
▁ফ্যাশন	-10.9431
ণে	-10.9434
▁পৌছায়	-10.9435
▁তিউনিসিয়া	-10.9441
▁মোটা	-10.9443
▁ma	-10.9445
▁দুপুর	-10.9445
▁টুকরো	-10.9448
▁রৌপ্য	-10.9448
▁সমাবর্তন	-10.9448
▁শুকনো	-10.9449
মূল্য	-10.945
▁বিপদ	-10.9451
▁ফোর	-10.9453
our	-10.9455
ঞ্জা	-10.9457
্তি	-10.9457
▁আব্বাসীয়	-10.9458
▁টেনে	-10.9461
▁মেগা	-10.9462
▁রণ	-10.9462
কোর	-10.9465
্ল	-10.9465
▁নওয়াব	-10.9467
▁শোষণ	-10.9468
খার	-10.947
▁বিশ্বকোষ	-10.9471
মিত	-10.9474
চরণ	-10.9475
▁সুইডেন	-10.9478
▁কাট	-10.9481
▁খে	-10.9483
▁জনপদ	-10.9483
▁বাৎসরিক	-10.9486
▁লাইব্রেরী	-10.9486
▁বিড়াল	-10.9486
েক্ট	-10.9489
▁কর্মজীবনে	-10.9491
▁দৈর্ঘ্যের	-10.9503
▁মুগ্ধ	-10.9504
▁}	-10.9511
20	-10.9516
লাইট	-10.9517
▁ফার্ম	-10.9517
ll	-10.952
▁অন্যটি	-10.9521
▁পেল	-10.9521
▁১৩টি	-10.9522
▁মিউজিয়াম	-10.9524
▁সমারসেট	-10.9524
▁ব্যাটিংয়ের	-10.9526
▁স্টে	-10.9527
▁দেশগুলো	-10.9527
▁হিরো	-10.9528
▁তাও	-10.9528
▁এইভাবে	-10.9528
▁মরিস	-10.9529
▁দুর্নীতি	-10.9531
▁উন্নয়নশীল	-10.9531
▁স্টেডিয়ামের	-10.9537
▁দণ্ড	-10.9537
ালী	-10.9537
ল্যা	-10.9538
▁দাতব্য	-10.9544
▁part	-10.9545
▁ক্যুরি	-10.9546
▁আগষ্ট	-10.9547
▁পররাষ্ট্র	-10.9548
▁গোলাকার	-10.9548
▁সংসার	-10.9551
▁অধিবাসীরা	-10.9552
জয়	-10.9554
▁পঞ্চাশ	-10.9554
▁সনাক্ত	-10.9555
▁অস্ট্রিয়া	-10.9557
▁দায়ে	-10.9558
▁পক্ষের	-10.9559
▁মিশরে	-10.9559
▁কুষ্টিয়া	-10.9562
▁কর্মসূচী	-10.9563
▁শ্রীরামপুর	-10.9563
▁ওয়াট	-10.9565
▁কোথায়	-10.9565
▁অন্ধকার	-10.9566
▁যাওয়ায়	-10.9566
▁কদর	-10.9566
▁পরিবহনের	-10.9568
গেট	-10.9568
▁করেই	-10.9569
জ্জা	-10.957
▁আবর্তন	-10.9572
▁জাহাজে	-10.9575
_{	-10.9576
▁তত্ত্বাবধায়ক	-10.9582
▁সাইপ্রাস	-10.9582
▁আড়াই	-10.9582
▁পিতামহ	-10.9583
ত্রি	-10.9584
▁হাইকোর্ট	-10.9584
▁সকলেই	-10.9586
▁মিশে	-10.9589
▁বরণ	-10.9591
▁দেওয়ান	-10.9594
▁রামায়ণ	-10.9594
▁ঢুকে	-10.9596
▁স্থাপত্যের	-10.9597
▁নিম্নে	-10.9599
▁স্বাধীনভাবে	-10.9599
▁মিশিয়ে	-10.9602
▁ইউনুস	-10.9602
frac	-10.9602
▁প্যাকেজ	-10.9602
ঙ্গাগ	-10.9603
▁আগস্টে	-10.9606
▁অন্ত	-10.9609
▁রঙিন	-10.961
▁স্রোত	-10.961
▁6	-10.9612
▁ভাষণ	-10.9613
▁এড়িয়ে	-10.9616
▁খাদিজা	-10.962
▁স্টেশনে	-10.9621
▁থমাস	-10.9621
▁ট্রাম্প	-10.9622
গাম	-10.9627
ন্সি	-10.963
▁হুমায়ূন	-10.964
▁অভ্যাস	-10.964
▁উইকেটের	-10.9641
▁সংগে	-10.9642
▁গর্ত	-10.9644
▁ভিন্নতা	-10.9645
▁সিটির	-10.9646
▁হাইওয়ে	-10.9647
স্থিত	-10.9649
▁গ্রা	-10.9652
▁৭০০	-10.9654
▁পরিপ্রেক্ষিতে	-10.9654
▁ইরানি	-10.9657
▁শুক্র	-10.9657
▁ডিপার্টমেন্ট	-10.9659
▁ক্লার্ক	-10.9659
▁জঙ্গি	-10.966
▁আও	-10.9661
াগ	-10.9661
▁ফারুক	-10.9662
▁প্রকল্পটি	-10.9662
▁বিচারের	-10.9664
▁বাগদাদ	-10.9669
কাটা	-10.967
বিন	-10.967
▁আমলের	-10.9673
বত	-10.9674
▁জাহাঙ্গীর	-10.9674
▁কারন	-10.9676
▁চ্যা	-10.9678
্রা	-10.9678
▁হালনাগাদ	-10.9678
▁উত্তরাখণ্ড	-10.9679
▁অধিবর্ষ	-10.9679
▁মৃতদেহ	-10.9679
▁তীর্থ	-10.9684
সিক	-10.9684
িউ	-10.9686
▁লক্ষ্মীপুর	-10.9688
▁গণমাধ্যম	-10.969
্টন	-10.9694
▁উপাধিতে	-10.9695
▁প্রতিস্থাপিত	-10.9698
▁অধিভুক্ত	-10.97
▁বয়সেই	-10.97
দশ	-10.9701
▁১৮৯৯	-10.9703
ভারতের	-10.9703
কিন্তু	-10.9705
▁পল্লী	-10.9707
▁ভাষাবিজ্ঞানী	-10.9709
দূর	-10.971
▁বাজ	-10.971
▁লিস্ট	-10.9712
▁শামসু	-10.9713
▁দালান	-10.9719
▁খ্রিস্ট	-10.9722
ন্দর	-10.9724
▁স্টেশনটি	-10.9726
্লা	-10.9728
▁প্রযুক্তিগত	-10.973
▁আলফা	-10.9731
চ্যুত	-10.9731
য়েজ	-10.9731
▁সবাইকে	-10.9732
▁২৪টি	-10.9734
াকৃতি	-10.9735
স্টোন	-10.9737
▁ডেভেলপমেন্ট	-10.9737
▁স্টাফ	-10.9737
▁ওমর	-10.974
▁স্কাই	-10.974
টুকু	-10.9742
▁তিনিও	-10.9742
এসসি	-10.9744
▁স্যাম	-10.9745
▁প্ৰ	-10.9745
গ্ন	-10.9746
▁পালনের	-10.9747
▁ভাস্কর	-10.9749
▁মেয়াদী	-10.975
কলা	-10.975
▁মেলবোর্ন	-10.9751
▁বৌদ্ধবিহার	-10.9751
▁চাপা	-10.9753
ইয়ে	-10.9753
▁উপত্যকার	-10.9754
▁পদের	-10.9755
▁অজ্ঞাত	-10.9756
▁হাঁস	-10.9758
▁প্লেট	-10.9758
▁যাপন	-10.9761
ট্র	-10.9762
▁সৈকত	-10.9763
▁স্তবক	-10.9764
▁পুর	-10.977
পোল	-10.977
ফাইনালে	-10.977
স্তর	-10.9771
▁ইরাকে	-10.9774
▁মিনিটের	-10.9775
▁ট্রা	-10.9775
▁কলাম	-10.9776
▁মেডিসিন	-10.9776
ছাত্রী	-10.9777
▁চাকমা	-10.9777
▁ফার্স্ট	-10.9778
▁থি	-10.9779
▁পুত্রের	-10.978
নাই	-10.9785
▁চাক	-10.9787
▁শৃঙ্গ	-10.9788
▁গোড়ার	-10.9789
্তা	-10.9795
▁বিতাড়িত	-10.9795
▁অ্যান্টি	-10.9796
লায়	-10.9801
ism	-10.9802
▁প্রতিযোগিতাটি	-10.9803
▁আত্মার	-10.9804
▁ধীর	-10.9804
▁ব্যাঙ্ক	-10.9804
ঘাত	-10.981
▁গাজী	-10.981
▁বীরভূম	-10.9815
▁আব্দুর	-10.9816
▁উৎ	-10.9816
▁আয়ারল্যান্ডের	-10.9817
মুর	-10.9819
▁রাসেল	-10.982
বিট	-10.9821
▁সালমান	-10.9823
ল্প	-10.9827
▁কারও	-10.9827
শূন্য	-10.9828
থান	-10.9828
ইড	-10.9833
হরি	-10.9834
▁রুপি	-10.9834
▁দিবা	-10.9837
▁পরিস্থিতিতে	-10.9838
▁ঘেরা	-10.9838
▁প্রকল্পে	-10.9839
ইউরোপীয়	-10.9839
▁প্রসব	-10.984
▁কোট	-10.984
▁মতবাদের	-10.9841
ধ্বনি	-10.9843
▁জন্মস্থান	-10.9843
▁নাসির	-10.9849
চিন	-10.9849
▁স্তোত্র	-10.9855
▁কমিউনিটি	-10.9855
▁ছিদ্র	-10.9855
▁উপপ্রজাতি	-10.9855
জম	-10.9856
▁সঙ্গীতে	-10.9857
▁১৮৯৮	-10.9858
▁দর্শনীয়	-10.9862
▁ব্রি	-10.9864
▁ট্রি	-10.9869
ধীন	-10.987
▁ক্ষয়ক্ষতি	-10.9874
▁আবিস্কার	-10.9875
▁এঁদের	-10.9875
▁ব্রায়ান	-10.9875
মায়	-10.9877
▁so	-10.988
▁মেহ	-10.9882
he	-10.9882
যো	-10.9883
▁সাপের	-10.9883
▁দারিদ্র্য	-10.9883
▁কেল্লা	-10.9887
▁লিখন	-10.9893
▁উত্থাপন	-10.9894
▁সাংগঠনিক	-10.9894
▁কংগ্রেসে	-10.9895
্না	-10.9897
ea	-10.9897
▁৮০০	-10.9899
খি	-10.9899
▁খি	-10.9902
▁সুরক্ষা	-10.9903
▁ফ্রেড	-10.9904
বার্ট	-10.9908
▁ওভালে	-10.9908
স্বাধীনতা	-10.9909
▁প্রসেসর	-10.9909
▁টপ	-10.9913
▁বিশ্রাম	-10.9914
▁নদের	-10.9915
ক্রি	-10.9915
ver	-10.9917
য়ার্স	-10.9923
শ্চ	-10.9923
িংটন	-10.9924
▁সাধারন	-10.9925
▁রোডের	-10.9926
▁সাম্যবাদী	-10.9926
▁বৈশিষ্ট	-10.9928
রত্ন	-10.9929
ব্বা	-10.9931
▁ক্ষতিগ্রস্থ	-10.9934
▁রিভিউ	-10.9934
▁সর্বশ্রেষ্ঠ	-10.9934
▁ফেলো	-10.9937
▁হাজী	-10.9937
তান্ত্রিক	-10.9942
▁মালদ্বীপের	-10.9943
কৌশল	-10.9946
টনের	-10.9949
▁নিচু	-10.9951
▁দীক্ষা	-10.9954
left	-10.9955
▁কৃষিকাজ	-10.9955
▁গিটার	-10.9955
▁ক্ষতিকর	-10.9956
পূজা	-10.9958
▁রিকশা	-10.9958
▁India	-10.9959
do	-10.9959
মেল	-10.9962
▁মোটর	-10.9962
▁বিবেচনায়	-10.9963
▁can	-10.9964
ম্পা	-10.9965
▁বুকে	-10.9967
মণি	-10.9968
▁গুলোর	-10.9971
ডল	-10.9972
▁প্রজাপতি	-10.9973
▁চিড়িয়াখানা	-10.9974
▁ব্যাচেলর	-10.9974
▁জীবাণু	-10.9974
▁ইন্টারফেস	-10.9974
▁জন্মদিন	-10.9976
▁উত্তরপ্রদেশ	-10.9977
▁শিরা	-10.9981
▁বুধ	-10.9981
▁গঙ্গার	-10.9981
ten	-10.9985
▁আনু	-10.9988
▁বাবর	-10.9992
▁কন্নড়	-10.9994
▁রাষ্ট্রে	-10.9995
av	-10.9997
জাই	-10.9998
▁১৮৯৫	-10.9998
মন্দির	-11.0004
স্য	-11.0006
ন্যা	-11.0008
ণ্য	-11.0009
da	-11.0009
▁ব্যঞ্জনধ্বনি	-11.0014
▁ভ্রাতা	-11.0014
000	-11.0015
▁কথায়	-11.0017
কবি	-11.0017
▁গ্রহণযোগ্য	-11.0018
দ্পাল	-11.002
লিকা	-11.002
idae	-11.0024
▁প্রজা	-11.0024
জুর	-11.0026
▁বনের	-11.0026
▁Al	-11.0029
বালা	-11.0031
▁দিল্লী	-11.0031
▁অতীত	-11.0033
▁জহির	-11.0034
▁শ্	-11.0036
ভাস	-11.0036
▁ঘা	-11.0037
tu	-11.0038
▁১৮৯৭	-11.0039
▁উদ্যানের	-11.004
▁হিউ	-11.0044
কাই	-11.0045
ংস	-11.0045
▁ইংরেজদের	-11.0046
▁গ্রীষ্মকালে	-11.0047
গুলোয়	-11.0049
▁Li	-11.0052
▁se	-11.0052
গুপ্ত	-11.0052
▁ইন্টেল	-11.0053
▁পরিমান	-11.0054
▁ঠান্ডা	-11.0054
▁সর্পিলাকার	-11.0054
▁ডাকে	-11.0056
▁পাবার	-11.0057
▁বানিয়ে	-11.0057
াকা	-11.0062
▁গলা	-11.0063
▁নেতারা	-11.0065
▁শাক	-11.0071
▁বক্তা	-11.0076
▁সিংহাসন	-11.0076
▁ভেতরের	-11.0081
▁নুর	-11.0085
▁ব্লা	-11.0088
▁গল্পে	-11.0092
ge	-11.0094
▁মধ্যবিত্ত	-11.0094
▁উদ্বুদ্ধ	-11.0094
▁ফিরোজ	-11.0095
▁চার্লি	-11.0098
▁শেল	-11.0098
▁আদলে	-11.0099
▁বহির্	-11.0103
▁মধ্যযুগের	-11.0103
▁গ্রাউন্ডে	-11.0104
▁সনাতন	-11.0105
▁স্তন	-11.0108
▁জ্যোতি	-11.0108
▁১১৪	-11.011
▁সোল	-11.0113
▁কার্যকলাপ	-11.0113
▁রাইফেল	-11.0115
ার্ট	-11.0116
▁হিজরি	-11.0118
▁me	-11.0119
তলী	-11.0121
▁বণিক	-11.0121
▁১০৬	-11.0123
▁সমুদ্রপৃষ্ঠ	-11.0126
▁সমকামিতা	-11.0126
▁শট	-11.0127
▁১৫টি	-11.0128
▁ওয়াহাব	-11.0129
▁পিট	-11.013
▁জম্মু	-11.0135
▁বর্জ্য	-11.0135
▁সন্ত্রাসী	-11.0136
গ্রে	-11.0137
▁জ্যামিতিক	-11.0138
নিজ	-11.0141
তুর	-11.0141
▁একসঙ্গে	-11.0142
▁লিগা	-11.0144
▁শ্রমিকদের	-11.0146
▁বিএনপি	-11.0148
▁আলীর	-11.015
▁অনুপস্থিত	-11.015
▁যজ্ঞ	-11.0151
▁প্রয়োগের	-11.0152
▁অ্যাকশন	-11.0157
▁চিলি	-11.016
▁আশঙ্কা	-11.016
▁দীর্ঘতম	-11.0161
▁১৯০৩	-11.0161
▁ডেল	-11.0165
able	-11.0167
কল্পে	-11.0168
▁অর্থনীতিবিদ	-11.017
▁রিও	-11.0174
▁অভিজ্ঞ	-11.0174
▁do	-11.0174
ill	-11.0175
▁জরুরী	-11.0176
দর্শ	-11.0176
▁সমাধানের	-11.0177
▁পিছু	-11.0177
গম	-11.0178
▁গুটি	-11.0181
▁হাবিব	-11.0183
▁সাহাবী	-11.0184
ang	-11.0185
▁জগ	-11.0186
▁its	-11.0186
▁উপনীত	-11.0191
▁ব্যান্ডটি	-11.0191
▁দলাই	-11.0193
▁সাতক্ষীরা	-11.0193
য়েস	-11.0193
▁চলার	-11.0194
▁নামায	-11.0195
▁যৌনসঙ্গম	-11.0196
▁মনের	-11.0196
▁পাহাড়ে	-11.0196
▁অনুষ্ঠানটি	-11.0198
▁প্রতিহত	-11.0199
পথে	-11.0205
▁প্রেমে	-11.0207
গিরি	-11.0208
ারে	-11.0211
▁স্বার্থে	-11.0214
চ্চ	-11.0214
▁সরস্বতী	-11.0215
▁সেনের	-11.0215
▁দাফন	-11.0216
▁ডেনিস	-11.0218
▁কিশোরগঞ্জ	-11.022
▁আসাদ	-11.0226
বেদ	-11.0228
va	-11.0231
▁মিনি	-11.0234
▁শ্রেণির	-11.0236
▁তামিলনাড়ু	-11.0237
▁পৌরসংস্থা	-11.0237
▁নথিভুক্ত	-11.0238
▁অলৌকিক	-11.0238
▁পোল	-11.0242
▁সুবাদে	-11.0244
▁মোর	-11.0247
শিয়ান	-11.0247
▁জোন্স	-11.0247
▁গামা	-11.0247
▁ব্যাটম্যান	-11.0248
▁দীন	-11.0252
23	-11.0252
▁লর্ডসে	-11.0253
সাইড	-11.0255
▁সার্কিট	-11.0258
▁অ্যাসিড	-11.026
▁মোল্লা	-11.0262
▁পর্দায়	-11.0264
▁বলের	-11.0264
যাত্রা	-11.0265
▁নাও	-11.0267
▁0	-11.027
পোর	-11.027
▁আলোকে	-11.0273
▁অ্যাপল	-11.0278
▁দীর্ঘস্থায়ী	-11.0278
▁বাঁ	-11.0279
▁মনোভাব	-11.0281
▁জর্জিয়া	-11.0283
▁বেশিরভাগই	-11.0285
বিধি	-11.0287
▁সমর্থনে	-11.0294
▁সিন	-11.0294
▁কম্প	-11.0295
নালী	-11.0298
▁রাউন্ড	-11.03
▁ফুটবলে	-11.0301
▁বইতে	-11.0302
▁অনুপ্রেরণা	-11.0302
▁রাগবি	-11.0307
▁জনসন	-11.0309
তবে	-11.0311
▁গিল	-11.0314
▁স্নায়ু	-11.0318
দাদ	-11.0319
▁উদ্যোক্তা	-11.0319
▁ম্যান্ডেলা	-11.0319
▁চেম্বার	-11.0319
▁হাজারের	-11.0322
▁নকশার	-11.0322
▁প্যানেল	-11.0322
▁অভিধান	-11.0326
▁পার্থ	-11.0329
▁বাণিজ্যিকভাবে	-11.0329
▁বামন	-11.0331
10	-11.0332
▁নাকি	-11.0333
▁উইকিপিডিয়ায়	-11.0334
▁হুমকির	-11.0334
▁আগা	-11.0335
wa	-11.0336
▁২০শ	-11.034
▁ইউটিসি	-11.0341
▁আর্মেনিয়া	-11.0341
র্ব	-11.0341
▁প্রবৃদ্ধি	-11.0342
সিয়ান	-11.0342
▁অসুবিধা	-11.0343
ম্বর	-11.0348
▁দশমিক	-11.0353
▁ফর্ম	-11.0354
gu	-11.0354
▁ক্রি	-11.0355
▁সাফ	-11.0356
চী	-11.0357
▁ট্রাক	-11.0361
▁নওগাঁ	-11.0362
▁হিজরী	-11.0362
▁বাহক	-11.0366
ak	-11.037
▁মুম্বইয়ে	-11.0373
ated	-11.0375
মধ্যে	-11.0376
▁খণ্ডে	-11.0379
ঢ়	-11.038
▁বন্দুক	-11.0381
▁মিলিটারি	-11.0382
▁মতাদর্শ	-11.0382
▁পুরুলিয়া	-11.0382
▁২০টি	-11.0383
াধীন	-11.0383
▁ইয়র্কশায়ার	-11.0385
▁পাঞ্জাবের	-11.0385
তাত্ত্বিক	-11.0385
▁মাল্টি	-11.0386
▁প্রে	-11.0386
িওন	-11.0388
▁জাদুকর	-11.0389
▁শান	-11.0391
▁বেড়া	-11.0394
▁কুর	-11.0396
োনা	-11.0401
অনু	-11.0402
▁গবেষনা	-11.0402
▁পুঁথি	-11.0402
▁পাল্টা	-11.0403
স্থা	-11.0403
ফেন	-11.0404
▁বাহন	-11.0404
লজি	-11.0404
▁মূলনীতি	-11.0409
▁রাসুল	-11.041
▁রাস	-11.0412
▁কক্ষে	-11.0412
বাচক	-11.0412
▁লোহার	-11.0413
ৎসু	-11.0416
▁শিবির	-11.0417
▁মনুষ্য	-11.0417
▁ওয়াটার	-11.0421
▁ডায়া	-11.0422
▁১৬০	-11.0423
▁ঝাড়খণ্ড	-11.0423
▁this	-11.0423
▁ডিজনি	-11.0424
▁জাদুঘরে	-11.0424
iv	-11.0426
▁পাশেই	-11.0432
▁পাখিদের	-11.0433
▁স্প	-11.0434
দাম	-11.0434
গের	-11.0436
▁সুবিধার	-11.0437
▁বিগ্রহ	-11.0437
তৃতীয়াংশ	-11.0438
▁কর্মসংস্থান	-11.0444
পরবর্তী	-11.0447
▁ছে	-11.0455
▁8	-11.0457
ইয়ের	-11.0459
ফ্রি	-11.046
▁মণ্ডল	-11.046
উদ	-11.0461
াচার	-11.0462
▁১৮৮০	-11.0462
▁কাটিয়ে	-11.0465
▁আনুগত্য	-11.0465
▁স্বীয়	-11.0465
▁চাকুরি	-11.0466
ময়ী	-11.0466
▁বন্দরে	-11.0467
▁ইম	-11.0469
▁যুবরাজ	-11.0473
▁থিয়েটারে	-11.0475
োভ	-11.0476
ম্ভ	-11.0476
▁নগরীর	-11.048
▁গতিতে	-11.0482
ড়ী	-11.0484
ance	-11.0485
▁১০৭	-11.0486
▁নেতৃবৃন্দ	-11.0486
▁এন্টি	-11.0488
▁আসীন	-11.0489
পস	-11.049
▁ধর্মতত্ত্ব	-11.0498
▁জোড়	-11.05
ভোগ	-11.0501
▁ষোল	-11.0502
▁কায়	-11.0502
▁ঐতিহ্যগত	-11.0504
▁জং	-11.0504
▁ডাম্বলডোর	-11.0507
▁আর্য	-11.0508
▁উপকূলের	-11.0509
থ্র	-11.0512
▁শ্লোক	-11.0512
▁সংস্করণের	-11.0513
দিনের	-11.0513
▁কাঁচা	-11.0519
যুদ্ধ	-11.0519
▁কাব্যের	-11.0519
▁আলোচনায়	-11.0521
▁প্রমান	-11.0522
▁পূর্ণিমা	-11.0522
▁সীমাবদ্ধতা	-11.0523
বেরি	-11.0524
▁১০৪	-11.0526
▁জামাল	-11.0526
▁হার্ভার্ড	-11.0528
▁প্লাস্টিক	-11.0529
▁Cup	-11.0529
িনের	-11.0529
mb	-11.0529
▁স্টেডিয়ামটি	-11.0529
বৃত্ত	-11.0531
▁উক্তি	-11.0532
▁বৌদ্ধধর্ম	-11.0534
▁মনসা	-11.0534
▁বাস্তবে	-11.0534
▁অস্তিত্বের	-11.0537
▁নন্দ	-11.0541
ক্তি	-11.0541
▁প্রদানকারী	-11.0545
গাছ	-11.0548
▁আনাতোলিয়া	-11.0549
▁বোগার্ট	-11.055
স্তে	-11.055
▁সংগ্রামের	-11.0556
▁ঘোষণার	-11.0558
▁প্রতিমা	-11.0558
▁১০২	-11.0561
▁যোনি	-11.0561
▁স্বা	-11.0562
রেস	-11.0566
কিশোর	-11.0567
তিয়া	-11.0569
▁পরিবেশিত	-11.0569
▁সিঁড়ি	-11.0571
▁সাক্ষী	-11.0572
েদ	-11.0573
▁আহমেদের	-11.0573
ট্	-11.0575
▁ভিয়েনা	-11.0575
▁শিক্ষকদের	-11.0583
▁এমপি	-11.0585
▁কমই	-11.0586
শ্ব	-11.0587
▁ভাষ্য	-11.0589
▁ট্রাম	-11.0589
▁অগ্রণী	-11.0592
▁সিয়েরা	-11.0592
▁মৃত্যুদন্ড	-11.0592
▁লেবেল	-11.0593
▁দৌড়	-11.0596
উল্লাহ	-11.0598
ধী	-11.0599
▁বাঘের	-11.0601
▁থাইল্যান্ডের	-11.0603
কান্দি	-11.0611
▁কল্পকাহিনী	-11.0612
▁আর্সেনাল	-11.0613
▁পরিশ্রম	-11.0613
▁পরিসরে	-11.0613
শির	-11.0614
▁স্কটল্যান্ডের	-11.0616
▁শাসনকালে	-11.0618
▁জনকে	-11.062
▁দার	-11.0623
▁এসি	-11.0626
য়ী	-11.0628
▁শুনতে	-11.0632
▁Ba	-11.0634
▁বণ্টন	-11.0634
▁দ্বিপাক্ষিক	-11.0635
▁পায়নি	-11.0637
}}}	-11.0639
▁কবিতায়	-11.0642
▁স্ট্র	-11.0643
▁হিমালয়ের	-11.0645
ছড়া	-11.065
▁সার্বিয়া	-11.065
▁ফাই	-11.0651
▁ক্ষতির	-11.0655
▁সাসেক্স	-11.0656
▁প্রায়শঃ	-11.0656
▁were	-11.0658
প্রসাদ	-11.0659
▁খাওয়ার	-11.0661
সাহিত্য	-11.0661
ক্ষেপ	-11.0662
▁ফক্স	-11.0664
▁সাধু	-11.0664
খ্রি	-11.0666
ুজ্জামান	-11.0666
▁শাহের	-11.0667
ানুসারে	-11.0668
িনি	-11.0669
▁অংশবিশেষ	-11.067
▁থিম	-11.0671
▁পতাকার	-11.0671
▁ভূমধ্যসাগর	-11.0674
বর্ষ	-11.0676
▁জলাভূমি	-11.068
▁ভূমিতে	-11.0684
▁মিশ্রিত	-11.0685
bi	-11.0688
ব্লো	-11.0689
▁টেলর	-11.069
▁one	-11.0692
▁অঞ্চলকে	-11.0692
কারীরা	-11.0695
▁বুল	-11.0697
▁অস্পষ্ট	-11.0699
▁ম্যানেজমেন্ট	-11.0699
াবলী	-11.0699
▁বৃত্ত	-11.0701
▁কমল	-11.0708
▁জানি	-11.0711
মেদ	-11.0712
ম্বু	-11.0713
▁মঙ্গোলিয়া	-11.0714
▁অনুরোধে	-11.0718
▁সচেতনতা	-11.072
▁ততোধিক	-11.072
▁দাপ্তরিক	-11.072
▁ভেবে	-11.0721
ীম	-11.0731
দুল	-11.0733
▁মহম্মদ	-11.0733
▁করবার	-11.0738
▁বিধায়	-11.0738
▁রাজধানীর	-11.0742
▁সংগ্রাহক	-11.0742
▁নাতি	-11.0743
▁হিজরত	-11.0743
▁উড়ান	-11.0743
▁একমত	-11.0744
নাট্য	-11.0747
▁গল্পটি	-11.0749
▁শৃঙ্খলা	-11.075
▁এডি	-11.0751
অব	-11.0751
▁উপস্থিতিতে	-11.0753
▁রাও	-11.0753
আলা	-11.0755
▁ফলক	-11.0756
৩০০	-11.0758
▁উপার্জন	-11.0763
▁বার্বাডোস	-11.0763
▁অর্জিত	-11.0764
▁জীবনযাপন	-11.0764
▁কুশ	-11.0765
▁ছিলনা	-11.0766
▁প্রারম্ভিক	-11.0768
▁দোল	-11.0768
বায়	-11.0769
নদী	-11.077
▁আসন্ন	-11.0771
দহ	-11.0773
io	-11.0776
▁রোডে	-11.0777
▁ঘটলে	-11.0778
▁দিয়েই	-11.0782
সঙ্গীত	-11.0783
▁কন্ট্রোল	-11.0785
▁রাজ্জাক	-11.0785
▁সুড়ঙ্গ	-11.0785
সেকেন্ড	-11.0786
▁ট্রেনিং	-11.0786
▁আঠারো	-11.0787
▁গ্রামগুলো	-11.0787
জনের	-11.079
▁বলকান	-11.0791
থিয়া	-11.0796
▁ভেদ	-11.0797
জেল	-11.08
▁ট্রেড	-11.08
▁আউ	-11.0802
▁কাশী	-11.0803
থের	-11.0804
▁স্বভাব	-11.0805
▁দোষী	-11.0806
▁অ্যান্ড্রু	-11.0809
ইং	-11.0809
▁ডাবল	-11.0809
▁সঙ্গীতশিল্পী	-11.0809
সনের	-11.0817
নেল	-11.0817
▁১১২	-11.0821
বলি	-11.0822
▁লিঙ্গের	-11.0822
▁ম্যাগাজিনের	-11.0824
▁বসুর	-11.0824
....	-11.0825
ভাষ	-11.0828
▁পঞ্চদশ	-11.0829
▁রাশিয়ায়	-11.0829
▁রাজবাড়ী	-11.0831
▁পুর্ব	-11.0832
▁মধ্যপ্রাচ্য	-11.0839
▁বাক্স	-11.0839
▁who	-11.0842
শিপ	-11.0842
▁নিজেদেরকে	-11.0844
▁মরিচ	-11.0845
টাইম	-11.0847
▁বামপন্থী	-11.0849
▁আকবরের	-11.085
▁উড্ডয়ন	-11.085
▁ঝর্ণা	-11.085
▁এভারেস্ট	-11.085
▁দেবতাদের	-11.0851
নিয়াম	-11.0851
▁তর্ক	-11.0853
▁আশ্রম	-11.0859
▁ক্ষত	-11.0862
▁ব্রাজিলীয়	-11.0863
কুন	-11.0866
▁১৮০	-11.0867
▁রবিন	-11.0868
▁প্রকাশ্যে	-11.087
▁কয়েকদিন	-11.087
▁সুন্দরবনের	-11.0872
▁আন্দামান	-11.0872
▁ছেলেদের	-11.0873
▁চাষের	-11.0874
ব্ব	-11.0876
▁পরমাণুর	-11.0877
▁ছায়াপথের	-11.0878
মন্ত্র	-11.0883
গাল	-11.0883
াট	-11.0884
ফ্রে	-11.0884
সূত্র	-11.0886
▁মোহ	-11.0886
▁আপেক্ষিক	-11.0887
▁টেলিভিশনের	-11.0888
▁বোল	-11.0891
▁বিশ্বরেকর্ড	-11.0894
▁সমাদৃত	-11.0894
▁উইকিমিডিয়া	-11.0894
িমা	-11.0895
▁হেলেন	-11.0895
চিহ্ন	-11.0896
ka	-11.0897
▁ইন্	-11.0899
▁করেছি	-11.0901
▁সুইডেনের	-11.0904
▁সামঞ্জস্য	-11.0911
oc	-11.0913
ens	-11.0914
▁বাঙ্গালী	-11.0916
▁দ্বিগুণ	-11.0917
▁মানদণ্ড	-11.0917
▁দাশ	-11.092
▁খোঁজ	-11.0922
োম	-11.0923
▁হ্যারির	-11.0925
▁রিজ	-11.0927
াঙ্ক	-11.0928
▁যুগল	-11.0928
▁কর্মের	-11.0929
▁জ্যোতিষ	-11.093
ফিল	-11.0931
▁জামায়াতে	-11.0931
োয়ার	-11.0932
্যান্স	-11.0935
মানব	-11.0936
ইসলাম	-11.0936
▁অভিজ্ঞতার	-11.0936
▁জিতেছেন	-11.0937
্টার	-11.0938
▁বিলি	-11.0938
▁বুলগেরিয়া	-11.0938
▁প্রচ্ছদ	-11.0938
▁চারুকলা	-11.0938
▁সাংহাই	-11.0938
কল্প	-11.0938
▁কেইন	-11.0939
▁সম্মানসূচক	-11.0939
▁ভারতবর্ষের	-11.0941
বাণিজ্য	-11.0943
▁টুর্নামেন্টে	-11.0943
▁আলফ্রেড	-11.0943
▁লড়াইয়ে	-11.0946
▁ভূখণ্ড	-11.0947
্যাট	-11.0947
সাস	-11.0947
▁বাসভবন	-11.0947
▁১৫ই	-11.0951
▁নাটোর	-11.0953
▁but	-11.0956
▁দূর্গ	-11.0956
▁সূক্ষ্ম	-11.096
line	-11.096
▁খিলান	-11.096
▁বায়ুমণ্ডল	-11.0962
▁অস্বীকৃতি	-11.0966
▁ভীম	-11.0966
▁এরশাদ	-11.0967
ক্রো	-11.0968
▁রফি	-11.0968
▁আইনসভা	-11.0969
▁হোল	-11.0972
▁কৃতিত্বের	-11.0972
েস্ট	-11.0972
▁বুশ	-11.0972
▁সহ্য	-11.0973
পার্	-11.0975
▁সুইজারল্যান্ড	-11.0975
▁মল্লিক	-11.0977
▁ভিয়েতনামে	-11.098
▁পেরু	-11.0981
▁উপাখ্যান	-11.0982
▁কতিপয়	-11.0982
▁ঢিবি	-11.0982
▁নামাঙ্কিত	-11.0982
▁ভূতাত্ত্বিক	-11.0983
▁স্কয়ার	-11.0985
হানি	-11.0989
▁ইভেন্ট	-11.099
▁পাতায়	-11.0991
▁সেক্টরের	-11.0992
▁বঞ্চিত	-11.0992
▁সাক্ষাৎকারে	-11.0993
▁মুদ্রার	-11.0993
▁দেশগুলির	-11.0995
▁পরিস্থিতির	-11.0998
▁রেকর্ডিং	-11.1004
▁অদ্ভুত	-11.1004
▁জওহরলাল	-11.1004
▁তেলুগু	-11.1004
▁সালতানাত	-11.1004
▁নির্বাচকমণ্ডলী	-11.1004
▁আসবে	-11.1005
▁বেষ্টিত	-11.1006
▁নগ্ন	-11.1007
▁সাথেই	-11.1008
▁অ্যাপ	-11.1011
শ্রেণী	-11.1014
▁বধ	-11.1014
প্পা	-11.1016
▁জর্দান	-11.1016
▁রাঙ্গামাটি	-11.1024
▁এগারো	-11.1026
▁মিডলসেক্স	-11.1026
▁কারাদণ্ড	-11.1026
▁কনডম	-11.1027
▁বুধের	-11.103
▁এলি	-11.103
ফট	-11.1031
▁এসআর	-11.1033
▁সিটিতে	-11.1039
▁বাতাসের	-11.104
Xn	-11.1042
▁পছন্দের	-11.1043
ন্তে	-11.1046
▁এজেন্ট	-11.1047
▁আক্ষরিক	-11.1048
▁মিয়ানমার	-11.1048
▁গুয়াহাটি	-11.1049
▁ইয়াহিয়া	-11.1049
▁চর্চার	-11.1049
জেস	-11.105
ni	-11.1058
নীর	-11.106
▁সাঁতারু	-11.1064
র্স	-11.1066
▁মার্কেট	-11.1069
▁কৃত	-11.1069
াভি	-11.1069
ke	-11.107
ানোর	-11.107
▁প্রামাণ্য	-11.107
▁প্রযোজিত	-11.1071
▁বিবর্তিত	-11.1071
▁প্রভাষক	-11.1071
▁জেতেন	-11.1071
▁বিচরণ	-11.1076
11	-11.1079
▁ভোর	-11.1082
▁উনি	-11.1083
▁অভিনেতার	-11.1089
▁গোলরক্ষক	-11.1089
▁দেখ	-11.1092
▁নবদ্বীপ	-11.1094
▁পরিধি	-11.1095
▁গুড়	-11.1097
▁সেজন্য	-11.1098
▁১৮৮৮	-11.1099
▁সেতুর	-11.1101
▁ইরানে	-11.1105
▁দিনটি	-11.1107
▁অষ্ট	-11.1107
চীন	-11.1108
▁শিল্পকর্ম	-11.1113
▁গ্রুপে	-11.1113
▁উপনদী	-11.1117
▁পড়ানো	-11.1118
▁জাতের	-11.1122
▁চালক	-11.1122
▁অস্থি	-11.1127
▁বৈষম্য	-11.113
বিয়া	-11.1132
▁সংঘের	-11.1134
▁উত্তরসূরি	-11.1138
▁উত্তপ্ত	-11.1138
▁বিজনেস	-11.1138
▁আলাউদ্দিন	-11.1138
▁টীকা	-11.1138
bo	-11.1139
▁সাধিত	-11.1139
▁জাহান	-11.114
▁স্টিভ	-11.1141
েন্ড	-11.1142
▁মাইন	-11.1143
▁সংঘর্ষে	-11.1145
▁আরবী	-11.1145
▁ভাবা	-11.1145
জোয়া	-11.1148
নায়ক	-11.1148
▁সম্বলিত	-11.1151
▁কিম	-11.1153
সিং	-11.1153
▁অং	-11.1156
▁পাটনা	-11.1159
▁অপরটি	-11.1159
▁নুরুল	-11.1159
▁শিকারী	-11.116
▁উগান্ডা	-11.116
▁দেখাশোনা	-11.116
▁মালদহ	-11.1161
▁শাহজাহান	-11.1161
▁মধ্যপ্রাচ্যের	-11.1163
বিদ্যায়	-11.1164
▁ঘানা	-11.1165
▁ঊর্ধ্ব	-11.1165
▁লিউ	-11.1165
▁সোজা	-11.1166
▁you	-11.1175
ুরা	-11.1179
▁ন্যূনতম	-11.1183
▁মশলা	-11.1183
▁গিলমোর	-11.1183
শ্য	-11.1184
▁শাহ্	-11.1187
শেষ	-11.1187
সারি	-11.1188
রাক	-11.1191
▁লালচে	-11.1191
খন্ড	-11.1192
▁স্টোরি	-11.1194
mm	-11.1194
▁ব্যাবস্থা	-11.1197
▁ল্যাপটপ	-11.1198
▁নক	-11.1202
পুরী	-11.1203
▁শহরকে	-11.1203
▁পার্লামেন্ট	-11.1205
▁স্টিফেন	-11.1206
▁সহিত	-11.1206
▁তীরবর্তী	-11.1206
▁মনসুর	-11.1207
▁কার্তিক	-11.1207
▁ঠিকানা	-11.1208
▁শিক্ষায়	-11.1208
ern	-11.1211
▁স্থলে	-11.1212
▁১৮৬০	-11.1213
বিন্যাস	-11.1213
▁গ্রীষ্ম	-11.1215
দারি	-11.1215
রাগ	-11.1215
▁মূর্তিটি	-11.1217
▁ফুসফুস	-11.122
▁লেখকের	-11.122
▁চাকা	-11.1222
▁প্রতিপক্ষের	-11.1222
▁পেশাদারী	-11.1224
নিয়ার	-11.1225
▁১৮শ	-11.1225
▁মেরামত	-11.1229
▁জাম	-11.1229
▁ভ্যা	-11.1231
▁জনবসতি	-11.1231
▁চেয়ার	-11.1232
▁বহুমুখী	-11.1238
▁সত্তা	-11.1239
▁ব্রহ্মা	-11.1241
▁দেখাতে	-11.1241
▁পরিষদে	-11.1243
▁এতো	-11.1247
▁জঙ্গলে	-11.1248
▁বায়ুর	-11.1248
▁ইব্রাহীম	-11.1251
▁সদ্য	-11.1251
▁মহাসাগরে	-11.1252
গ্রাগ্স	-11.1252
▁দরুন	-11.1252
▁সুনামগঞ্জ	-11.1252
▁পাঠাতে	-11.1253
▁পরিবেশনা	-11.1253
▁উচু	-11.1254
▁মল্ল	-11.1255
▁সত্যিকার	-11.1259
▁ঘাটতি	-11.1261
▁আলাপ	-11.1264
▁বিমানটি	-11.1266
বিজ্ঞানী	-11.1267
▁অন্তঃ	-11.1269
▁সন্ন্যাস	-11.1272
▁সোয়া	-11.1273
পাউবো	-11.1273
▁আদমশুমারী	-11.1273
▁গোস্বামী	-11.1274
▁ড্যা	-11.1275
▁সাথেও	-11.1276
▁হায়দার	-11.1276
▁সার্বভৌমত্ব	-11.128
বাহিনী	-11.128
▁রিড	-11.128
▁16	-11.1281
জেলা	-11.1282
▁মহাযান	-11.1283
▁রেলের	-11.1284
▁১৬শ	-11.1287
▁এসেছেন	-11.1288
▁নাসের	-11.129
▁শেখর	-11.1292
▁দর্শনে	-11.1293
রঞ্জন	-11.1293
▁অপরিহার্য	-11.1296
▁অশ্বারোহী	-11.1296
▁বিষাক্ত	-11.1296
▁সেনেগাল	-11.1296
▁ড্যানিয়েল	-11.1296
পর্যন্ত	-11.1299
গর্ভ	-11.13
▁সাঁ	-11.1301
শেস	-11.1303
▁মহাদেশীয়	-11.1305
▁মডেলের	-11.1305
য়ার্ড	-11.1306
▁বটে	-11.1312
▁রক্তের	-11.1313
▁নকল	-11.1313
▁আলাইহি	-11.1315
▁আদায়ের	-11.1315
জিৎ	-11.1316
▁গোর	-11.1317
▁আধিকারিক	-11.1319
▁টেলিযোগাযোগ	-11.1319
▁পতঙ্গ	-11.1319
▁উদ্দীন	-11.1321
▁আহরণ	-11.1321
পিত	-11.1322
▁যাঁরা	-11.1328
▁অনুপ্রবেশ	-11.1331
▁রাজবাড়ি	-11.1332
▁কামনা	-11.1339
▁উদ্ভাবিত	-11.1342
▁১৮৮৯	-11.1347
কারের	-11.1348
▁চম্	-11.1348
▁আবদ	-11.1348
▁কক্ষপথ	-11.1349
▁রেজিমেন্ট	-11.1349
ুই	-11.1351
▁অনেকের	-11.1352
▁থ্রি	-11.1355
▁ডাঃ	-11.1356
ষ্	-11.1357
▁লিখা	-11.1357
▁জরায়ু	-11.1357
▁ব্রিগেড	-11.1364
▁ইঞ্জিনিয়ার	-11.1364
▁হেলিকপ্টার	-11.1365
▁নামাজের	-11.1368
▁তাপমাত্রায়	-11.137
▁একধরনে	-11.137
জাতি	-11.1375
▁দৃষ্টিতে	-11.1375
▁পৌঁছ	-11.1376
▁সীমান্তের	-11.138
▁মঙ্গোল	-11.1381
নব	-11.1384
ম্বল	-11.1386
▁কার্যকারিতা	-11.1388
▁হজ্জ	-11.1388
▁ব্যাঙ	-11.1389
▁pre	-11.1391
▁অভিন্ন	-11.1391
▁Me	-11.1393
ক্ক	-11.1395
▁বহিঃ	-11.1396
▁অপরাধী	-11.1398
▁ফির	-11.1399
দায়	-11.1403
োক	-11.1403
্যান্ড	-11.1404
▁দ্বিতীয়বারের	-11.1405
▁বসবাসের	-11.1408
▁সমুদ্রে	-11.141
▁যৌক্তিক	-11.1411
▁স্টিল	-11.1411
▁সবই	-11.1412
▁অ্যাব	-11.1413
▁শিক্ষকের	-11.1413
চের	-11.1415
76	-11.1416
াইয়ের	-11.1417
▁বেলায়	-11.1418
▁ঘটাতে	-11.1418
▁কণিকা	-11.1419
▁Con	-11.1419
▁স্কেল	-11.142
▁ধারন	-11.1422
one	-11.1422
▁St	-11.1422
▁ওয়ার্নার	-11.1422
পাস	-11.1422
od	-11.1424
ran	-11.1424
▁বনভূমি	-11.1427
▁নয়া	-11.1429
▁কোম্পানীর	-11.1429
▁বাফটা	-11.1433
স্টে	-11.1433
▁তুষার	-11.1434
▁ভ্যাটিকান	-11.1434
▁তিমুর	-11.1435
▁এতটা	-11.1437
▁বাক	-11.1437
▁মুত্তালিব	-11.1447
▁মধ্যযুগে	-11.1447
▁দোয়া	-11.1448
▁লুট	-11.1448
পাঠ	-11.145
পক	-11.145
▁১০৯	-11.1451
▁হুগলী	-11.1457
▁পোলিশ	-11.1458
▁ফ্রেঞ্চ	-11.1458
▁মণি	-11.1461
▁তুলা	-11.1464
▁পেরিয়ে	-11.1466
ical	-11.1467
▁ঐতিহ্যগতভাবে	-11.1468
▁কাটে	-11.1476
▁চার্চের	-11.1478
▁ল্যাবরেটরি	-11.148
▁নিষ্	-11.1481
▁মহাদেব	-11.1482
▁উমরের	-11.1483
▁সাবা	-11.1484
▁ভাঙ্গা	-11.1485
▁bo	-11.1486
▁গুড	-11.1487
ai	-11.1488
▁বঙ্গোপসাগর	-11.1489
19	-11.1489
▁ঘটনাকে	-11.1489
▁চলাচলের	-11.149
▁প্লেয়ার	-11.1494
▁আস্তে	-11.1494
সমৃদ্ধ	-11.1495
▁ইউক্রেন	-11.1495
দ্ব	-11.1496
▁২৫শে	-11.1502
▁উদীয়মান	-11.1504
▁ভবিষ্যদ্বাণী	-11.1504
▁মৌখিক	-11.1504
▁জায়গার	-11.1504
বহ	-11.1504
▁গাল	-11.1504
ীক	-11.151
▁মারাদোনা	-11.1511
▁পুরাণের	-11.1515
▁বিন্দুতে	-11.1515
চন	-11.1515
▁ঘি	-11.1517
িয়েট	-11.1518
▁গ্রেড	-11.1523
▁আহ	-11.1523
▁সাম্প্রদায়িক	-11.1527
মুন	-11.1531
▁১১৩	-11.1531
▁১৮৭৬	-11.1532
▁সনি	-11.1534
▁রাত্রি	-11.1534
ক্ষি	-11.1536
▁মাঝ	-11.1536
▁সূচক	-11.1536
▁শীর্ষক	-11.154
▁চ্যাম্পিয়নশিপে	-11.1542
▁রোল	-11.1542
প্রকৃতি	-11.1542
▁পরিবেশগত	-11.1546
▁কার্যত	-11.1549
▁বিরাজ	-11.155
▁ক্যারিবীয়	-11.155
▁আঙ্গুল	-11.155
00	-11.1551
দলের	-11.1553
▁ল্যান্ড	-11.1554
▁গর্ভ	-11.1554
সম্	-11.1555
চালিত	-11.1556
▁দখলের	-11.1556
▁সুজা	-11.1557
▁Na	-11.1557
▁পরিশোধ	-11.1558
▁কমিকস	-11.1558
বলে	-11.156
▁বর্ষা	-11.156
শালী	-11.156
ডাঙ্গা	-11.1561
ven	-11.1569
▁চিল	-11.1569
▁ডিউক	-11.1569
au	-11.1571
িকে	-11.1573
▁লক্ষ্মণ	-11.1574
▁দিত	-11.1575
▁তেজস্ক্রিয়	-11.1575
▁ধর্মনিরপেক্ষ	-11.1584
▁রিভার	-11.1585
▁রজার	-11.1585
▁মগ	-11.1587
▁mo	-11.1596
▁নিষ্কাশন	-11.1597
▁ব্যুরো	-11.1597
▁ম্যাজেন্টা	-11.1597
▁সরীসৃপ	-11.1597
▁জোরপূর্বক	-11.1598
▁১১১	-11.1601
▁বন্ধুদের	-11.1603
▁বসবাসরত	-11.1604
ার্	-11.1609
▁জুলাইয়ে	-11.1614
ভেদ	-11.1614
▁খড়	-11.1614
▁পটিয়া	-11.1617
োনি	-11.1618
▁জাহাঙ্গীরনগর	-11.1622
▁মনোরম	-11.1623
▁ওজনের	-11.1625
▁খুজে	-11.1627
▁খুশি	-11.1628
সেন্ট	-11.1629
▁বিএনপির	-11.1629
▁মিলার	-11.1631
গ্রাফ	-11.1637
▁বিনয়	-11.1638
▁ইনকা	-11.1641
▁কাউ	-11.1641
▁মুরাদ	-11.1641
▁দীর্ঘকাল	-11.1644
▁সহস্রাধিক	-11.1644
▁সঞ্জয়	-11.1644
জীবী	-11.1647
৩টি	-11.1648
৮০০	-11.165
▁প্রশিক্ষণের	-11.165
▁গ্ল	-11.165
িসের	-11.1652
বৃদ্ধি	-11.1653
port	-11.1653
50	-11.1656
24	-11.1656
▁অববাহিকা	-11.166
▁প্রবেশপথ	-11.1661
▁ইয়ং	-11.1664
ট্টা	-11.1667
▁অত্যধিক	-11.1668
▁সম্বোধন	-11.1668
▁তফসিল	-11.1668
▁বাড়তি	-11.1668
▁নাৎসি	-11.1668
লিয়ান	-11.1668
▁লাঠি	-11.1669
▁নিবেদন	-11.167
▁ময়দানে	-11.1671
▁পন্থা	-11.1673
▁other	-11.1673
▁কৌতুক	-11.1675
▁লেখালেখি	-11.1677
▁গণমাধ্যমে	-11.1679
▁লক্ষণীয়	-11.168
▁অক্ষম	-11.1681
▁নির্বাহ	-11.1681
▁সাম্প্রতিককালে	-11.1682
হিল	-11.1683
▁ইভেন্টে	-11.1684
থার	-11.1684
▁বাঁশি	-11.1686
সিটি	-11.1687
▁চাপের	-11.169
▁বিবি	-11.1691
▁পুনর্নির্মাণ	-11.1692
▁গভীরভাবে	-11.1699
▁পিপলস	-11.1702
▁পরিবারকে	-11.1704
▁অসুর	-11.1706
ted	-11.1712
▁পৌঁছানো	-11.1712
▁স্পেশাল	-11.1715
Y	-11.1716
ck	-11.1717
▁রাখ	-11.172
য়াম	-11.1722
ন্দু	-11.1723
▁কমতে	-11.1727
▁কোস্ট	-11.1727
▁নায়েক	-11.1728
▁উসমানীয়দের	-11.1731
▁ফেলার	-11.1733
▁পাড়	-11.1737
▁অঙ্ক	-11.1737
▁কম্পিউটারে	-11.1737
▁প্রাসাদের	-11.1739
▁মিরপুর	-11.1739
▁সুইডিশ	-11.1739
▁শুকিয়ে	-11.174
▁মহামারী	-11.174
▁ভাসানী	-11.1741
াত্মক	-11.1741
▁ব্যাক্টেরিয়া	-11.1742
▁আঘাতে	-11.1742
বক	-11.1745
tor	-11.1749
▁পাঁচজন	-11.175
িব	-11.175
▁হেই	-11.1751
▁পুজো	-11.1752
▁অন্যত্র	-11.1754
▁মিমি	-11.1755
▁যেভাবে	-11.1755
▁মিড	-11.1755
▁পারসিক	-11.1757
সম্পদ	-11.176
▁ব্যবহারে	-11.1761
▁নিয়ন্ত্রক	-11.1763
▁খসড়া	-11.1763
ত্ত্ব	-11.1763
▁চিন্তাবিদ	-11.1764
▁ভিন	-11.1765
▁ছাগল	-11.1766
▁আপত্তি	-11.1766
▁এজ	-11.1768
▁ভূপৃষ্ঠ	-11.1768
▁আমা	-11.1771
াচার্য	-11.1784
▁মুক্তিবাহিনীর	-11.1785
ম্বি	-11.1786
▁অভিযাত্রী	-11.1787
াং	-11.1787
▁সাইন	-11.1788
▁en	-11.1789
▁আক্রমণাত্মক	-11.1789
▁সতী	-11.179
▁up	-11.1793
▁সিদ্ধান্তের	-11.1793
▁ফারসি	-11.1795
▁চলচ্চিত্রটিতে	-11.1796
▁সংগীতের	-11.1798
▁সমর	-11.1801
বংশ	-11.1802
▁আলাদাভাবে	-11.1803
▁পাঞ্জাবি	-11.1804
স্ক্যা	-11.1806
▁রান্নার	-11.1809
▁ভৈরব	-11.1809
ঙ্গে	-11.1809
▁হননি	-11.181
▁সাল্লাল্লাহু	-11.1811
▁গ্নু	-11.1811
▁গতিবেগ	-11.1812
▁সেনগুপ্ত	-11.1812
▁ইসরায়েলি	-11.1817
ীকৃত	-11.1817
▁লেখকদের	-11.1817
স্কার	-11.1818
▁১৭শ	-11.182
▁ট্যাংক	-11.182
জীবি	-11.1821
শিয়াল	-11.1823
▁উৎপাদক	-11.1827
▁গাড়ির	-11.1827
শক্তির	-11.1828
red	-11.1829
রীতি	-11.183
উট	-11.1831
▁ছেদ	-11.1831
▁শ্রেণীবিন্যাস	-11.1836
tt	-11.1836
▁শর্ট	-11.1836
ম্য	-11.1839
▁পার্	-11.1839
প্রাণ	-11.184
▁জলদস্যু	-11.1841
▁জাদুঘরের	-11.1842
▁করেছিলো	-11.1842
▁নবীন	-11.1843
▁কুইন	-11.1843
▁হতাশা	-11.1844
ব্রে	-11.1844
▁ধর্মসম্প্রদায়	-11.1845
▁বক্ষ	-11.1847
▁লীলা	-11.1848
▁উদয়	-11.185
▁চলছিল	-11.1851
ভিস	-11.1851
▁অনিয়মিত	-11.1854
▁ধ্বংসের	-11.1854
▁বুট	-11.1855
▁গ্রহাণু	-11.1859
▁রায়চৌধুরী	-11.1859
▁একইসাথে	-11.1861
▁১৮৫৭	-11.1865
িস্তান	-11.1866
▁লিন	-11.1867
▁সোমালিয়া	-11.1868
সকে	-11.1871
গির	-11.1875
সূ	-11.1876
▁নেদারল্যান্ড	-11.1878
▁চাপে	-11.1879
ুরিয়া	-11.1883
75	-11.1884
শাসন	-11.1887
য়াত	-11.1887
▁মানা	-11.1893
▁ভয়ে	-11.1896
▁ঝু	-11.1897
▁অধ্যুষিত	-11.1898
ana	-11.1898
▁খ্রি	-11.19
▁বিভিন্নভাবে	-11.19
▁ব্রাহ্ম	-11.1903
▁রাখতেন	-11.1905
▁কলি	-11.1907
▁কিংবদন্তী	-11.1907
▁হার্ডওয়্যার	-11.1908
▁দেয়ালে	-11.1908
▁ক্রিকেটারের	-11.1908
▁বর্ন	-11.1908
▁অনুগ্রহ	-11.1908
▁সাজা	-11.191
over	-11.191
র্মা	-11.191
্রো	-11.1911
▁কোম্পানিটি	-11.1912
জ্যোতির্বিজ্ঞানী	-11.1913
▁১৮৯২	-11.1913
▁রাউলিং	-11.1913
▁মাপের	-11.1914
স্তু	-11.1914
▁ঠাকুরগাঁও	-11.1918
▁মাখ	-11.192
▁রেকর্ডস	-11.1921
▁ভৌগলিক	-11.1921
লিও	-11.1921
▁কলম	-11.1924
▁টেল	-11.1925
▁কাব	-11.1925
▁কোর্সে	-11.1925
▁কর্মকাণ্ডের	-11.1927
▁9	-11.1931
মুক্তি	-11.1932
▁ক্রমান্বয়ে	-11.1932
▁এটার	-11.1932
▁টেক্সটাইল	-11.1932
ঝি	-11.1934
▁নিতেন	-11.1934
কানুন	-11.1938
▁মাপ	-11.1938
▁অঞ্চলগুলি	-11.194
▁বাছাইপর্বে	-11.1941
ধে	-11.1942
▁সন্তুষ্ট	-11.1943
▁সংশোধনী	-11.1943
▁পার্সি	-11.1943
ঙ্কা	-11.1945
▁ইল	-11.1947
▁সম্পূর্ণভাবে	-11.1948
ris	-11.1949
▁বীরত্ব	-11.195
▁স্বাস্থ্যের	-11.1951
mer	-11.1954
ডিয়া	-11.1955
▁নিয়েই	-11.1955
▁চাঁপাইনবাবগঞ্জ	-11.1956
▁সেহেতু	-11.1956
▁পদার্থবিদ্যা	-11.1956
▁লিলি	-11.1957
▁জ্বালানী	-11.1957
বাবা	-11.1959
▁গোলদাতা	-11.1959
▁আবহ	-11.1959
ঙা	-11.1961
▁বন্ধনী	-11.1963
▁গানটির	-11.1966
77	-11.1967
▁লোহা	-11.1969
▁গাজীপুর	-11.1969
ওয়ার্ড	-11.1972
ide	-11.1973
▁সহকারে	-11.1974
▁ইসহাক	-11.1981
▁নামিবিয়া	-11.1981
▁শুটিং	-11.1982
হাত	-11.1986
সাব	-11.1987
▁জৈবিক	-11.1987
▁বদলি	-11.1988
▁ছোটবেলা	-11.1992
▁শ্রেণিতে	-11.1992
▁সৌরজগত	-11.1995
▁নিবন্ধিত	-11.1995
▁ভবিষ্যতের	-11.1995
▁রাজত্বের	-11.1995
িয়ায়	-11.1997
▁মহারাজ	-11.2
▁সোম	-11.2002
▁কুক	-11.2004
://	-11.2004
▁উপপাদ্য	-11.2005
▁ইস্পাত	-11.2005
▁ইনস্টল	-11.2005
▁প্রত্যয়	-11.2007
que	-11.2013
▁পৃষ্ঠা	-11.2018
গ্রু	-11.202
▁চাদ	-11.2021
▁মামলায়	-11.2022
▁গবেষকরা	-11.2022
▁y	-11.2023
▁পরিণতি	-11.2023
▁স্ট্যা	-11.2025
▁দিগন্ত	-11.2027
▁হকের	-11.203
▁স্নেহ	-11.203
বাবু	-11.2031
▁টনি	-11.2032
▁আবরণ	-11.2033
▁কিন	-11.2035
▁প্লেটো	-11.204
▁সমকামিতার	-11.204
▁মধ্যভাগ	-11.2041
▁প্রাসাদে	-11.2043
স্ট্রো	-11.2044
নিস	-11.2045
▁উৎপাদনে	-11.2047
▁ফোর্ট	-11.2047
▁তাক	-11.2049
▁ত্রাণ	-11.205
▁মেট্রোপলিটন	-11.2054
▁হাটহাজারী	-11.2054
▁নূহ	-11.2054
▁পাসপোর্ট	-11.2055
▁প্রগতিশীল	-11.2055
▁হাস	-11.2057
▁১৮৯১	-11.2058
▁বোস	-11.2058
▁সাংবাদিকতা	-11.206
▁গেয়ে	-11.2061
▁দুর্গের	-11.2062
▁||	-11.2064
▁প্রচেষ্টার	-11.2065
▁যু	-11.2065
mon	-11.2066
▁গোলক	-11.2066
োজ	-11.2066
▁ভক্তদের	-11.2067
▁বাঙালী	-11.2072
কেন	-11.2077
▁দেশগুলোতে	-11.2077
▁বিছানা	-11.2079
▁অপহরণ	-11.2079
▁কোচবিহার	-11.2079
ডিসি	-11.2079
▁চাষাবাদ	-11.2081
▁নিখিল	-11.2081
▁ক্ষমতাচ্যুত	-11.2081
পুকুর	-11.2082
▁রাজীব	-11.2082
কক্ষ	-11.2083
ধ্ব	-11.2083
▁নির্মাণকাজ	-11.2083
▁বিশপ	-11.2084
▁সম্মুখে	-11.2086
▁উইং	-11.2087
▁রোমানিয়া	-11.2089
▁ভেন	-11.2089
▁ছুটির	-11.209
▁পিপল	-11.209
▁নাথ	-11.2091
▁নিয়েও	-11.2092
▁কল্প	-11.2094
▁রানার্স	-11.2094
ংয়ের	-11.2094
▁তথাপি	-11.2095
ফেল	-11.2098
▁দয়া	-11.2099
▁জ্যোতির্বিদ্যা	-11.2101
বাগান	-11.2102
▁তমোপদার্থ	-11.2103
▁বখতিয়ার	-11.2103
▁আম্	-11.2107
▁দুর্যোগ	-11.2111
▁যাবৎ	-11.2113
▁স্থিতিশীল	-11.2115
▁জিজ্ঞাসা	-11.2117
▁থাকতো	-11.2118
দাই	-11.2119
▁দূষণ	-11.2122
▁সুরে	-11.2123
▁আইসি	-11.2123
▁বর্ণালী	-11.2129
▁ঈদ	-11.213
▁ব্যবস্থাপক	-11.2132
দ্দা	-11.2132
▁ডাকনামে	-11.2133
hy	-11.2133
▁গড	-11.2134
▁বায়ো	-11.2135
▁কনসার্ট	-11.2135
ডস	-11.2135
ুদ্দীন	-11.2137
কুর	-11.2138
▁জিও	-11.2138
▁ভাজা	-11.2139
▁ম্যাক্স	-11.2139
▁আংশিকভাবে	-11.2139
▁দরবার	-11.2141
ঙ্গী	-11.2142
তঃ	-11.2143
▁সিজার	-11.2147
▁বর্গের	-11.2148
▁ঘাড়	-11.2152
▁অর্থোডক্স	-11.2153
▁পিরামিড	-11.2153
▁স্বায়ত্তশাসন	-11.2153
▁অলংকার	-11.2153
▁কর্মকাণ্ডে	-11.2153
ব্স্তান	-11.2153
▁জনৈক	-11.2154
▁আইফোন	-11.2154
▁শেফিল্ড	-11.2154
▁প্রয়াত	-11.2155
▁ঈদুল	-11.2155
▁স্বীকৃতিস্বরূপ	-11.2156
▁সন্দেশ	-11.2156
▁জানার	-11.2157
নন্দ	-11.2158
▁অধিকৃত	-11.2158
▁ডিন	-11.216
▁সেতুটি	-11.2161
৪০০	-11.2162
হাতি	-11.2165
▁রোজা	-11.2167
ফিক	-11.217
▁ভূত	-11.2171
▁গীতা	-11.2173
▁জরিপে	-11.2177
▁নীলফামারী	-11.2178
▁সংকলিত	-11.2178
▁সৌভাগ্য	-11.2178
▁সীতা	-11.2178
▁সন্দ্বীপ	-11.2178
▁ভারপ্রাপ্ত	-11.2179
▁শহীদুল্লাহ	-11.218
▁যত্ন	-11.2181
▁সত্যজিতের	-11.2182
▁দায়িত্বভার	-11.2183
সামাজিক	-11.2183
▁১৮৮৭	-11.2183
সভাপতি	-11.2184
▁15	-11.2185
▁অঙ্গরাজ্য	-11.2186
রাজ্য	-11.2189
▁ঢ	-11.2191
▁ক্ল	-11.2192
▁দূরত্বের	-11.2195
ধারণ	-11.2195
▁বেজ	-11.2196
দ্বয়ের	-11.2199
কুণ্ড	-11.22
▁সাধনা	-11.22
▁ফৌজ	-11.2202
▁অসহযোগ	-11.2203
▁নেতৃস্থানীয়	-11.2203
▁বোম্বাই	-11.2203
▁বোলারের	-11.2203
▁প্রস্তুতকারক	-11.2204
▁এলেন	-11.2204
▁দ্রুতগামী	-11.2205
বাংলাদেশের	-11.2206
▁দামেস্ক	-11.2206
▁বন্যার	-11.2207
▁অগ্র	-11.2207
▁রবিবার	-11.2208
চ্ছে	-11.2208
▁শেষপর্যন্ত	-11.2209
▁মৌ	-11.2212
▁ছানা	-11.2214
ানের	-11.2215
▁প্রাপ্তির	-11.2216
▁দুর্গাপুর	-11.2218
▁কখনই	-11.2219
বেলা	-11.2223
লেই	-11.2224
▁গৃহে	-11.2226
▁ইয়র্কের	-11.2227
▁স্মৃতিসৌধ	-11.2228
▁উৎখাত	-11.2228
▁দাশগুপ্ত	-11.2228
▁নৌবহর	-11.2228
▁পড়ালেখা	-11.2228
▁আত্মজীবনী	-11.223
▁পৃষ্ঠপোষকতা	-11.2232
ত্রে	-11.2232
▁ব্যবস্থাপনার	-11.2232
▁জ্যা	-11.2233
▁ড্রাগন	-11.2235
▁আপাত	-11.2237
▁চিংড়ি	-11.2239
▁গণহত্যার	-11.224
▁লোম	-11.2242
▁কৃষকদের	-11.2242
▁দেয়ালের	-11.2244
▁তীব্রতা	-11.2247
▁বলবিদ্যা	-11.225
▁স্বাগত	-11.2251
▁বিহারী	-11.2251
▁বছরেই	-11.2251
▁মামলার	-11.2252
▁ফটিকছড়ি	-11.2253
▁দীক্ষিত	-11.2253
াসের	-11.2253
▁দ্রুততম	-11.2255
▁স্পিকার	-11.2257
▁ক্ষেত্রফল	-11.2258
all	-11.2259
উদ্দেশ্যপ্রণোদিত	-11.2265
▁একদিকে	-11.2267
▁ধারক	-11.2268
মঙ্গল	-11.227
▁পুনরাবৃত্তি	-11.227
▁দুর্বলতা	-11.227
▁ওয়ালিদ	-11.2275
ভূষণ	-11.2277
▁জরিমানা	-11.2278
▁ডিরেক্টর	-11.2278
▁উচ্চভূমি	-11.2279
▁গাউস	-11.2279
▁সারিতে	-11.228
দেবতা	-11.2281
▁বিপন্ন	-11.2281
ডিন	-11.2282
▁গিল্ড	-11.2284
▁এফএ	-11.2284
মুহাম্মাদ	-11.2285
নস	-11.2288
▁গোলটি	-11.2288
ay	-11.2289
▁মৈত্রী	-11.2289
ons	-11.229
cr	-11.229
ue	-11.2293
দলীয়	-11.2302
লিঙ্গ	-11.2303
▁আক্রমন	-11.2304
▁স্রষ্টা	-11.2306
▁মাসুদ	-11.2307
▁৩০টি	-11.2309
িষ্ট	-11.2317
▁অ্যাক্ট	-11.232
ave	-11.232
▁অগাস্ট	-11.2322
▁মেক্সিকোর	-11.2323
▁রাজাকার	-11.2324
লব্ধ	-11.2324
▁আলা	-11.2325
ip	-11.2326
▁একত্র	-11.2326
▁আদিম	-11.2327
▁সুভাষচন্দ্র	-11.2329
▁হানাদার	-11.2329
▁গানগুলো	-11.233
▁অভিমত	-11.233
িকার	-11.2333
▁সাইড	-11.2334
মাদ	-11.2335
▁উত্তরণ	-11.2336
পৃষ্ঠ	-11.2338
ীকরণের	-11.2343
ah	-11.2345
▁প্রত্ন	-11.2345
উইক	-11.2345
ber	-11.2346
▁একাডেমির	-11.2347
▁7	-11.2348
▁স্টিভেন	-11.2349
ুরি	-11.2349
▁হারাম	-11.2349
▁সেক্রেটারি	-11.2354
▁কাজাখস্তান	-11.2354
টিভি	-11.2354
▁শচীন	-11.2355
▁কেন্টের	-11.2356
▁১৮৯৪	-11.2359
▁তাজ	-11.236
চাপ	-11.2361
▁যাজক	-11.2365
▁আরবে	-11.2368
▁আর্ক	-11.237
▁সাহসী	-11.2371
▁সিরাজগঞ্জ	-11.2376
টাল	-11.2376
বন্ধন	-11.2376
▁অভিনেত্রীর	-11.2377
▁ইভান	-11.2378
▁কুতুব	-11.2378
▁নিপীড়ন	-11.2379
▁সঞ্চয়	-11.2379
▁হানা	-11.238
▁শরিফ	-11.238
▁প্রশিক্ষক	-11.238
চ্ছি	-11.2382
▁শুক্রবার	-11.2383
▁বউ	-11.2383
▁পরিচালকের	-11.2384
▁মুক্তিযোদ্ধারা	-11.2385
ভর	-11.2387
নির্মাণ	-11.2389
▁দুর্ঘটনায়	-11.239
▁১৩০	-11.2391
▁স্টাডিজ	-11.2393
▁ক্যাম্পে	-11.2394
▁সুই	-11.2395
মারী	-11.2396
ুড়	-11.2399
▁ছবিটিতে	-11.2399
▁শ্বাস	-11.2399
▁মিশনের	-11.2403
▁অপারেটর	-11.2404
▁কনস্টান্টিনোপল	-11.2404
▁মোৎসার্ট	-11.2404
▁জলপাইগুড়ি	-11.2404
বস	-11.2405
▁ইহুদিদের	-11.2406
▁উজির	-11.2407
ডাল	-11.2407
▁বেস্ট	-11.2407
▁নেটওয়ার্কের	-11.2408
▁গেলেন	-11.2408
সাধারণ	-11.2409
▁কবিতাটি	-11.2416
▁কাটান	-11.2416
ন্তি	-11.2419
▁পরী	-11.242
▁রেঞ্জ	-11.242
▁ধ্রুব	-11.2422
▁অস্ট্রিয়ার	-11.2422
▁আয়াতে	-11.2424
▁নাসর	-11.2426
▁আরাম	-11.2426
▁ভোটার	-11.2428
▁প্রশ্নের	-11.2429
ডাক	-11.243
▁ঢেউ	-11.243
রিয়ান	-11.2431
টল	-11.2432
▁এরই	-11.2432
▁ইমেজ	-11.2432
▁গরুর	-11.2437
▁আনসার	-11.2444
▁প্রতিরোধের	-11.2445
▁মিলি	-11.2447
▁বলয়	-11.2447
gr	-11.2448
▁যতীন	-11.2449
▁নরওয়ে	-11.245
▁al	-11.2452
দ্বন্দ্বিতায়	-11.2452
▁ডক	-11.2452
▁সঙ্গম	-11.2455
▁ক্যামব্রিজ	-11.2456
▁এজেন্সি	-11.2456
▁বারান্দা	-11.2456
▁রেসলিং	-11.2456
▁মেঝে	-11.2458
▁ইলা	-11.2459
▁রসায়নবিদ	-11.246
ক্ষু	-11.2461
নির্মিত	-11.2462
সল	-11.2462
▁ডুবে	-11.2462
▁কমন	-11.2463
▁টক	-11.2463
▁ওয়ার্ডের	-11.2464
নূর	-11.2464
▁ফিট	-11.2469
▁মডেলিং	-11.2473
▁Co	-11.2473
র্প	-11.2474
▁২১শে	-11.2476
▁অভ	-11.2479
▁গরু	-11.248
▁লাশ	-11.2481
▁বহুজাতিক	-11.2481
▁অডিও	-11.2485
ধন	-11.2485
▁পশুর	-11.2487
চ্ছেদ	-11.249
বুরুজ	-11.2491
▁কারাগার	-11.2492
▁কাদা	-11.2493
পৃষ্ঠের	-11.2493
দ্রি	-11.2493
▁অনুবাদক	-11.2496
রাদ	-11.2496
ld	-11.2496
▁কড়া	-11.25
▁এশিয়াতে	-11.25
গার্ড	-11.2502
▁উঠা	-11.2504
গ্রো	-11.2504
▁বেঙ্গালুরু	-11.2507
▁লিভারপুল	-11.2507
▁নববর্ষ	-11.2507
▁হিউম্যান	-11.2509
বরণ	-11.2509
▁ঝা	-11.251
মার্কিন	-11.2511
▁শ্রীলংকা	-11.2512
▁ঈমান	-11.2512
▁১৫০০	-11.2512
▁আবৃত্তি	-11.2512
▁মেইন	-11.2513
▁সুইস	-11.2514
▁সদ	-11.2515
জীব	-11.2515
▁মেডেল	-11.2517
▁ঘটা	-11.2518
জেনারেল	-11.2519
▁সাহস	-11.252
রোজ	-11.2521
▁আপন	-11.2525
▁মন্দ	-11.2527
▁সূরার	-11.2528
▁উড়ে	-11.2532
▁পাড়া	-11.2532
▁আলীবর্দী	-11.2533
▁পদোন্নতি	-11.2533
▁পেনাল্টি	-11.2533
▁ভূমিকম্পের	-11.2533
▁তরফ	-11.2533
▁রোকেয়া	-11.2533
▁স্ট্যান্ডার্ড	-11.2533
বোর্ড	-11.2533
▁সাঁওতাল	-11.2535
▁০১	-11.2535
▁সৃষ্টিকর্তা	-11.2535
▁ভাঙা	-11.2539
▁কোণে	-11.2539
▁সংগঠনটি	-11.2543
▁অবহিত	-11.2544
▁বদ্ধ	-11.2545
▁বোলারদের	-11.2546
▁শার্ট	-11.2546
বাহিত	-11.2546
▁একদম	-11.2547
▁ভেসে	-11.2548
২০১১	-11.255
▁কাকা	-11.2554
▁Be	-11.2559
▁সাক্ষর	-11.2559
▁অভিবাসন	-11.2559
▁লাগা	-11.2561
▁নায়িকা	-11.2564
▁সময়কালের	-11.2566
▁ফ্লা	-11.2566
▁রাউন্ডে	-11.2566
▁ব্যাধি	-11.2568
▁মগধ	-11.2568
প্রেম	-11.2569
▁রহিম	-11.2571
স্যা	-11.2572
▁আয়রন	-11.2573
▁ছি	-11.2574
▁দেশসমূহ	-11.2574
mw	-11.2576
আর্য	-11.2576
▁সেনাবাহিনীকে	-11.2577
▁Ca	-11.2578
নিয়	-11.2579
▁ঋগ্বেদ	-11.2584
▁ডায়াবেটিস	-11.2584
▁মুখার্জী	-11.2584
তৃ	-11.2585
▁ভগ্নাংশ	-11.2585
▁অ্যাঞ্জেলেস	-11.2586
গুল	-11.2587
▁বলার	-11.2589
▁১৮৮৪	-11.259
মতী	-11.2592
▁সিংহের	-11.2593
dy	-11.2598
▁অব্দে	-11.2603
32	-11.2603
▁চিন্তার	-11.2607
সাফ	-11.2607
▁ভালোভাবে	-11.2608
সিম	-11.2608
▁অস্থিরতা	-11.2608
▁তুর্কমেনিস্তান	-11.261
▁চৈত্র	-11.2611
▁সদরদপ্তর	-11.2611
▁ধর্মঘট	-11.2611
ল্লাহ	-11.2611
▁এফসি	-11.2612
▁দর্শকের	-11.2613
▁নির্দেশক	-11.2617
▁দানব	-11.2618
▁লতা	-11.2618
▁১৪৪	-11.2621
ডাই	-11.2625
▁সত্যতা	-11.2626
▁নাক	-11.263
মণ্ডলী	-11.263
17	-11.263
▁রানার	-11.263
▁ক্ষুদ্রতম	-11.263
প্রবণ	-11.2635
▁স্বরধ্বনি	-11.2637
▁will	-11.2637
▁মহাকাশযান	-11.2637
▁প্রান্তের	-11.2637
Xk	-11.2638
▁সীমান্তবর্তী	-11.2638
মাহ	-11.2638
▁১৮৯৩	-11.2641
▁খাড়া	-11.2642
▁সমর্থকদের	-11.2642
▁১৮৮৬	-11.2642
▁অশ্ব	-11.2642
▁পিউ	-11.2643
▁টুল	-11.2645
বর্ধন	-11.2649
▁স্বচ্ছ	-11.265
▁উড়িষ্যা	-11.265
▁প্রক্রিয়াটি	-11.265
▁ফের	-11.2651
লীলা	-11.2651
▁বান	-11.2652
▁তালাক	-11.2654
▁টেন	-11.2656
▁ছেলের	-11.2658
জেন্ট	-11.2659
▁সমস্যায়	-11.2662
▁উপেক্ষা	-11.2663
▁বেশীরভাগ	-11.2663
ঁত	-11.2663
▁যতক্ষণ	-11.2664
▁রোগী	-11.2665
োরা	-11.2668
▁এমএ	-11.2668
▁গুর	-11.2669
son	-11.267
ap	-11.267
▁ছত্রাক	-11.2671
▁বাড়ী	-11.2672
▁পয়সা	-11.2674
▁দুজনেই	-11.2678
▁কোষে	-11.2679
▁দুজনের	-11.2682
্রিক	-11.2683
▁দ্গে	-11.2683
▁রাজপরিবার	-11.2685
▁যাচ্ছেন	-11.2687
▁জনশ্রুতি	-11.2689
▁করিডোর	-11.2689
▁এয়ারপোর্ট	-11.269
▁লেখিকা	-11.269
ন্দ্রা	-11.269
▁মামা	-11.2691
মাত	-11.2693
চ্ছা	-11.2694
য়ায়	-11.2697
▁আন্তর্জাতিকভাবে	-11.2701
▁থাকাকালে	-11.2701
িভ	-11.2702
▁লাভে	-11.2703
▁প্রতিযোগিতামূলক	-11.2704
▁বইটিতে	-11.2704
▁গ্রাউন্ড	-11.2713
▁ওয়াল্টার	-11.2713
কার্ড	-11.2713
▁ডোরেমন	-11.2715
▁নিম	-11.2716
▁পার্কের	-11.2716
▁হাফিজ	-11.2716
▁বুন	-11.272
▁আসছেন	-11.2722
▁ঘরানার	-11.2722
ach	-11.2723
▁স্বয়ংক্রিয়	-11.2725
▁ভবিষ্যত	-11.2725
▁শিশুরা	-11.2726
▁স্থানীয়ভাবে	-11.2728
▁হাতির	-11.2731
▁হার্জ	-11.2732
▁Pa	-11.2732
▁বিরূপ	-11.2737
▁ভুমিকা	-11.2738
▁রেলওয়ের	-11.2739
কামী	-11.2741
▁কন্টেইনার	-11.2741
▁ক্যান্টনমেন্ট	-11.2741
▁স্বনামধন্য	-11.2741
▁হুসেইন	-11.2741
▁ক্যালকুলাস	-11.2741
▁তিব্বতে	-11.2741
▁নবগঠিত	-11.2741
▁অম্ল	-11.2742
ংগা	-11.2744
▁রেস	-11.2745
▁কন্	-11.2746
▁টুর্নামেন্টের	-11.2746
▁ছুটি	-11.2747
বেশ	-11.2749
▁হিন্দুরা	-11.2751
▁যাচ্ছিল	-11.2751
গঙ্গা	-11.2752
▁্যাঙ্কিং	-11.2752
ক্ষন	-11.2753
দাহ	-11.2753
▁গুজব	-11.2753
top	-11.2754
▁কুয়া	-11.2754
▁অন্তর্ভুক্তি	-11.2756
▁প্রাচীনকালে	-11.2757
▁পার্ল	-11.276
▁ওস্তাদ	-11.2761
মস	-11.2762
▁প্রথমত	-11.2762
শায়ারের	-11.2764
▁বৌদ্ধবিহারে	-11.2764
▁মণিপুর	-11.2766
▁ট্যুর	-11.2767
▁রীতিনীতি	-11.2769
▁ভাষাগুলির	-11.277
সিও	-11.277
োড	-11.2774
▁করিয়া	-11.2781
▁একযোগে	-11.2782
▁অত	-11.2783
▁নাস্তিক	-11.2784
▁সেক্ষেত্রে	-11.2785
রোপ	-11.2786
▁ব্যাপী	-11.2786
▁বাড়ে	-11.2788
▁অধ্যয়নের	-11.2789
▁বিপণন	-11.2794
▁ছক্কা	-11.2795
▁শাসনকর্তা	-11.2795
▁উট	-11.2796
▁পড়বে	-11.2796
▁বলকে	-11.2796
▁বৃত্তাকার	-11.2797
রাজের	-11.2798
সাং	-11.28
▁প্রতিষ্ঠানটির	-11.28
▁ফোরাম	-11.28
ডোর	-11.28
▁থাকবেন	-11.28
▁১৮৮৫	-11.2801
▁চিত্রনাট্যকার	-11.2802
▁বিচ	-11.2804
ম্যানের	-11.2805
▁ফ্র	-11.2806
▁পাত্রে	-11.2806
মুদ	-11.2809
▁কোটা	-11.2809
▁লঙ্ঘন	-11.281
▁জুতা	-11.2812
▁সিনেমাটি	-11.2812
▁ভারতীয়দের	-11.2813
▁কানা	-11.2816
▁ফেরেশতা	-11.2821
▁কম্পাঙ্ক	-11.2821
▁সরবরাহের	-11.2821
▁অধিবেশন	-11.2822
▁আর্ম	-11.2825
▁সুবর্ণ	-11.2827
ক্ষমতা	-11.2832
▁রেন	-11.2832
রাশি	-11.2833
চল	-11.2834
স্থানে	-11.2839
হ্যা	-11.284
▁তেলের	-11.284
▁যুদ্ধক্ষেত্রে	-11.2841
▁ইরানী	-11.2842
▁প্রতিভার	-11.2843
সংগীত	-11.2845
▁জলজ	-11.2845
▁হজ	-11.2845
▁পাখনা	-11.2847
▁হনুমান	-11.2847
▁ছু	-11.2848
▁শব	-11.2848
▁সন্ধ্যায়	-11.2849
▁বলিভিয়া	-11.285
▁তুলেছে	-11.285
ab	-11.285
▁কোম্পানিতে	-11.2851
শেখ	-11.2852
▁প্রান্তিক	-11.2855
▁রানি	-11.2855
▁মহাদেশে	-11.2857
▁সাহারা	-11.2861
▁নিউক্লিয়ার	-11.2862
▁সারদা	-11.2862
▁ভদ্র	-11.2864
গুয়ে	-11.2864
▁ফিজি	-11.2871
▁বিক্রির	-11.2871
সম্মত	-11.2872
▁বেড়াতে	-11.2877
▁বোল্ড	-11.2878
্যাক্ট	-11.2884
▁মিউনিখ	-11.2885
▁খালেদা	-11.2886
মন্ডল	-11.2889
▁ডেনমার্ক	-11.2892
ec	-11.2892
▁এএফসি	-11.2894
পাশে	-11.2894
▁গোলাপ	-11.2899
▁হরফ	-11.29
▁অ্যাডিলেড	-11.2901
▁গঙ্গোপাধ্যায়	-11.2901
▁সুবিধার্থে	-11.2901
▁মারাঠি	-11.2902
লিয়ে	-11.2903
▁রাজ্যটি	-11.2907
▁বাস্তবতা	-11.2908
▁মেল	-11.2908
▁মৃত্তিকা	-11.291
▁প্রোটন	-11.291
▁কনফেডারেশন	-11.291
▁পালি	-11.291
▁পড়	-11.2912
▁সান্তা	-11.2913
▁অ্যাস	-11.2916
ড্র	-11.2916
▁লেখ	-11.2917
▁আলেক্সান্দ্র	-11.2918
টী	-11.2923
▁গির্জার	-11.2924
▁সিড	-11.2927
▁মুসলমানরা	-11.2927
▁ম্যাক্সওয়েল	-11.2928
▁ফিল্মস	-11.2928
▁গুজরাত	-11.2928
বঙ্গ	-11.2929
বহুল	-11.2931
▁বেলজিয়ামের	-11.2933
পূর্বক	-11.2938
▁ব্যক্তিগতভাবে	-11.294
▁পড়াশোনার	-11.2941
ভবন	-11.2947
▁বেহালা	-11.2949
▁সুইজারল্যান্ডের	-11.295
বর্তমানে	-11.295
land	-11.2952
▁যাদেরকে	-11.2953
▁আবাদ	-11.2954
▁দৈহিক	-11.2954
▁বুদ্ধিমত্তা	-11.2954
▁রাহুল	-11.2954
▁সিদ্দিকী	-11.2954
▁কুলসুম	-11.2955
▁চারবার	-11.2955
িয়েল	-11.2956
▁হেমন্ত	-11.296
▁জানতেন	-11.2961
▁বাইবেল	-11.2961
ষ্ক	-11.2962
নুর	-11.2964
▁দাও	-11.2967
▁চ্যানেলটি	-11.2969
রির	-11.297
ces	-11.2971
▁মৌসুমী	-11.2972
ure	-11.2977
▁সেরে	-11.2978
▁সাক্ষ্য	-11.2982
▁পর্যায়ক্রমে	-11.2982
দায়ক	-11.2983
চেন	-11.2986
ংশ	-11.2988
চিত	-11.2988
▁দুরত্ব	-11.2989
▁এন্ট	-11.2996
▁ওয়েল	-11.2996
▁বদল	-11.3002
▁এমএস	-11.3002
▁তথ্যসূত্র	-11.3005
▁জ্বল	-11.3005
ল্লে	-11.3005
▁মিউ	-11.3007
▁সরকারিভাবে	-11.3008
▁প্রতাপ	-11.301
▁জাকির	-11.3011
▁আদেশে	-11.3012
▁ওয়ার্ডে	-11.3013
▁রাষ্ট্রপ্রধান	-11.3013
▁লামার	-11.3013
▁১৮৮২	-11.3013
▁জীবনানন্দ	-11.3016
মার্	-11.3016
▁আস্থা	-11.3018
▁ভিড়	-11.3019
▁আমের	-11.3023
ub	-11.3023
▁To	-11.3024
▁আঁশ	-11.3024
▁উড়তে	-11.3025
ell	-11.3027
▁রসায়নে	-11.3028
▁প্রভাবের	-11.3031
▁প্রণয়	-11.3032
▁লেজের	-11.3034
tic	-11.3035
▁পুনর্বাসন	-11.3035
▁মাথাপিছু	-11.3035
▁মাদাগাস্কার	-11.3035
▁সোহরাওয়ার্দী	-11.3035
▁দ্রাবিড়	-11.3035
▁খ্রীষ্টাব্দে	-11.3035
ণি	-11.3036
▁রন্ধনশৈলী	-11.3036
▁ধারাভাষ্যকার	-11.3036
▁মাও	-11.3038
জন্ম	-11.3039
sa	-11.304
োয়ান	-11.3041
্যাড	-11.3043
▁ঈদের	-11.3043
▁কন্যার	-11.3046
▁ধারাবাহিকের	-11.3046
িনো	-11.3047
কালী	-11.3048
▁নিষেধ	-11.3048
ানে	-11.3054
▁সেগুলোর	-11.3055
▁প্রতিষ্ঠায়	-11.3056
▁টাইগার	-11.3057
▁গুয়া	-11.3058
▁জিনগত	-11.3059
▁সূরাটি	-11.3059
▁মামুন	-11.306
30	-11.306
▁মহল	-11.3061
▁জানে	-11.3062
▁অনুধাবন	-11.3063
▁খাগড়াছড়ি	-11.3063
▁ব্যাকটেরিয়া	-11.3063
▁যাযাবর	-11.3063
▁সম্ভ্রান্ত	-11.3063
▁রোবট	-11.3063
িচ	-11.3065
▁আইনস্টাইন	-11.3066
▁90	-11.3069
▁মেলার	-11.307
▁সৈন্যবাহিনী	-11.3071
▁আন্ডার	-11.3072
vo	-11.3075
ya	-11.3075
▁জুল	-11.3075
াবে	-11.3076
▁নন্দী	-11.3076
ভেট	-11.3076
ions	-11.3077
▁ভাষাগুলি	-11.3079
েইন	-11.3079
▁তারপরও	-11.3081
▁নট	-11.3083
▁ধর্মপ্রচারক	-11.3085
▁সিরি	-11.3085
▁মহিলার	-11.3085
▁চৌদ্দ	-11.309
▁বিস্তীর্ণ	-11.309
▁মাদরাসা	-11.309
▁হেমিংওয়ে	-11.309
▁হাঙ্গর	-11.309
▁ক্যামেরুন	-11.309
▁মেধাবী	-11.3091
▁তান	-11.3091
স্তরের	-11.3091
▁যুদ্ধকালীন	-11.3092
▁হুই	-11.3093
▁লিখতেন	-11.3096
▁ম্যাচটি	-11.3096
▁মার্ক্স	-11.31
▁পর্তুগীজ	-11.3101
স্তো	-11.3107
▁গৌর	-11.3112
লিখিত	-11.3112
▁উত্	-11.3113
▁first	-11.3117
▁পরমহংস	-11.3117
▁পর্যবেক্ষক	-11.3117
▁ময়ূর	-11.3117
▁ট্রাফিক	-11.3117
▁আবর্তিত	-11.3118
▁বাংলাদেশকে	-11.3118
▁টিকা	-11.3119
আসাদ	-11.3119
▁জমিদারদের	-11.3124
▁সার্ভে	-11.3125
▁টিউব	-11.3125
▁মুলার	-11.3128
▁পাদ	-11.3128
▁Com	-11.3129
বিলা	-11.313
▁মাত	-11.3132
▁কার্যক্রমে	-11.3134
▁ব্রু	-11.3135
▁বিভাজনের	-11.3136
▁ধারাবাহিকতায়	-11.3136
▁ক্লা	-11.3137
parse	-11.3137
বারা	-11.3139
▁রক্তে	-11.3139
▁দুর্	-11.3143
জাওয়াহিরি	-11.3145
▁প্রাগৈতিহাসিক	-11.3145
▁শংকর	-11.3145
▁এথেন্স	-11.3145
▁থ্রিলার	-11.3146
▁ভরত	-11.3147
▁বেকার	-11.3149
▁গাজা	-11.3152
▁বাইবেলের	-11.3152
পীঠ	-11.3153
ডাম	-11.3153
▁চত্বর	-11.3153
▁দাবিতে	-11.3154
ations	-11.3154
▁বোকা	-11.3155
টক	-11.3157
▁গুলিতে	-11.3157
chi	-11.3158
লাক	-11.3162
ন্টার	-11.3162
গিন	-11.3167
▁ক্রিস্টোফার	-11.3169
▁পার্শ্বে	-11.3169
ন্দো	-11.317
cy	-11.3173
▁পত্তন	-11.3175
▁জীবনযাত্রার	-11.3176
▁লিটল	-11.3177
▁একাদশে	-11.318
▁রফিক	-11.3181
▁বর্ণনায়	-11.3183
▁মিলিয়নের	-11.3184
ord	-11.3185
▁দ্	-11.3185
▁কোর্টের	-11.3189
▁অকাল	-11.319
গাছা	-11.3196
▁কৃষ্ণনগর	-11.3197
▁পেশাগত	-11.3199
▁বলেছে	-11.3199
ans	-11.3199
কোণ	-11.3199
▁তিল	-11.3199
▁মসৃণ	-11.32
▁উদ্বাস্তু	-11.32
▁উপজীব্য	-11.32
▁শওকত	-11.32
▁প্ল্যাটফর্ম	-11.32
▁মরক্কো	-11.32
▁পুনর্নির্ধারণ	-11.32
▁কুস্তিগীর	-11.32
▁আহবান	-11.32
▁ফেলুদা	-11.3201
▁ভূত্বক	-11.3201
লেম	-11.3204
▁মূ	-11.3205
▁হায়	-11.3206
ঘু	-11.3207
▁ঝি	-11.3207
▁চক্রের	-11.321
▁দম্পতি	-11.3212
▁উন্মোচন	-11.3213
▁কিল	-11.3218
▁স্বরাষ্ট্র	-11.3219
▁নিউইয়র্ক	-11.3221
▁সন্ধানে	-11.3221
▁ব্রিটেনে	-11.3222
▁গ্রি	-11.3224
▁ধারাবাহিকতা	-11.3226
▁জাম্বিয়া	-11.3227
▁সেলজুক	-11.3227
▁মধ্যমাঠ	-11.3227
margin	-11.3227
▁তারতম্য	-11.3228
▁স্বরবর্ণ	-11.3228
ভিক	-11.3228
▁উমা	-11.3231
▁রুটে	-11.3232
▁মধ্যেও	-11.3232
হিম	-11.3233
▁১৮৭৯	-11.3234
▁কচ্ছপ	-11.3234
ূর	-11.3236
▁এঁরা	-11.3236
▁হাতিয়ার	-11.3237
▁সাহিত্যকর্ম	-11.324
▁আয়ু	-11.3242
▁১৬ই	-11.3245
▁অবগত	-11.3245
▁চোর	-11.3246
▁জোলি	-11.3247
▁বাথ	-11.3249
▁12	-11.3249
▁চার্টে	-11.325
▁ওয়েল্	-11.3251
▁মমতা	-11.3252
সবার্গ	-11.3254
▁অতীতের	-11.3254
গোর	-11.3254
▁কুর্দি	-11.3255
▁লতিফ	-11.3255
▁স্মৃতিস্তম্ভ	-11.3255
▁স্টাইল	-11.3255
▁শিল্ড	-11.3255
▁সারণী	-11.3257
▁ওসমান	-11.326
▁পদটি	-11.3261
এসএ	-11.3262
▁ব্যাংকিং	-11.3263
▁ফজলু	-11.3264
?"	-11.3266
▁জানাতে	-11.3266
ফুট	-11.3267
▁একথা	-11.3267
▁সিরিয়ায়	-11.3267
▁ইলিয়াস	-11.3268
▁গার্লস	-11.3274
▁টেক্সাস	-11.3279
চির	-11.3281
▁স্টুয়ার্ট	-11.3283
▁প্রমিলা	-11.3283
▁বিষমকামী	-11.3283
▁স্মার্টফোন	-11.3283
ল্য	-11.3283
▁কণ্ঠশিল্পী	-11.3283
ja	-11.3284
▁আলবেনিয়া	-11.3284
আল্লাহ	-11.3285
অর	-11.3286
▁মেলায়	-11.3286
▁অংশকে	-11.3289
▁পাম্প	-11.329
▁কেমন	-11.329
ালো	-11.329
▁খ্যাতিমান	-11.3291
▁প্রক্রিয়াকরণ	-11.3292
▁পাম	-11.3293
▁লক	-11.3293
▁লাউ	-11.3293
▁নাচের	-11.3294
▁ইউকে	-11.3295
ন্ডো	-11.3296
▁মিসর	-11.3297
▁এস্টেট	-11.33
প্প	-11.33
▁পিঠ	-11.33
৭টি	-11.33
▁বিটল	-11.3301
দম	-11.3301
▁ভিসা	-11.3302
টিস	-11.3303
▁উবাইদা	-11.3303
old	-11.3305
াইজেশন	-11.3306
▁অভিমুখে	-11.3307
▁বৈবাহিক	-11.331
▁মাহবুব	-11.3311
▁লাদাখ	-11.3311
▁তরঙ্গদৈর্ঘ্য	-11.3311
▁বাস্তু	-11.3312
▁কবলে	-11.3313
দূত	-11.3313
12	-11.3315
▁ক্লো	-11.3321
▁ফিলিপাইনের	-11.3324
▁ওভারের	-11.3324
▁যেতেন	-11.3327
▁বিদ্রোহীদের	-11.3328
র্ফ	-11.3329
▁অণুজীব	-11.3332
▁13	-11.3334
▁ঘড়ি	-11.3334
▁ক্যান্সারে	-11.3336
▁মিলনায়তন	-11.3338
▁সমবায়	-11.334
হ্যাম	-11.334
ক্য	-11.334
৬০০	-11.3341
▁উল্টো	-11.3342
▁ভেনিস	-11.3343
▁রাজারা	-11.3344
যুগ	-11.3344
▁17	-11.3348
▁দম	-11.3349
▁জীবন্ত	-11.335
▁ব্যবহারকারীর	-11.3353
▁আবারো	-11.3354
▁স্টি	-11.3356
▁কেন্ট	-11.3358
▁বৌ	-11.336
▁রেজিমেন্টের	-11.336
২টি	-11.3361
▁খ্রিষ্টাব্দ	-11.3363
সেবা	-11.3365
▁মনস্তাত্ত্বিক	-11.3366
▁মরিশাস	-11.3366
▁স্বমেহন	-11.3366
▁ধাবিত	-11.3367
▁ভোক্তা	-11.3367
▁পাপুয়া	-11.3368
▁অবস্থানকালে	-11.3369
▁প্রবাল	-11.337
়	-11.3371
▁ইউনি	-11.3373
▁৭ই	-11.3375
▁ইতালিতে	-11.3375
▁ফ্রা	-11.3375
▁sp	-11.3375
বাণী	-11.3376
ata	-11.3376
▁উগ্র	-11.3379
▁চায়না	-11.3379
হাউজ	-11.338
রাং	-11.3381
মানবিক	-11.3381
পানি	-11.3384
প্রায়	-11.3384
ক্ল	-11.3384
▁কাগজের	-11.3387
▁জ্যোতির্বিদ	-11.3389
▁স্টা	-11.3391
▁গার	-11.3392
▁সংসারে	-11.3393
বাক	-11.3394
ডাব্লিউ	-11.3395
▁দুর্লভ	-11.3395
▁গাছপালা	-11.3395
▁ব্যয়বহুল	-11.3395
▁বিলবোর্ড	-11.3395
▁ঘোড়ার	-11.3396
ইয়ার	-11.3396
▁সেনাদল	-11.3397
সামা	-11.3397
▁আরবদের	-11.3398
▁ফ্লোরিডা	-11.34
মল	-11.34
ায়নের	-11.3402
গ্রুব	-11.3403
▁বর্ষে	-11.3405
▁সাভার	-11.3408
▁সাক্ষাৎকার	-11.3409
মুজ	-11.3411
▁ব্যানারে	-11.3414
▁আহার	-11.3414
পেট	-11.3417
▁ইঁদুর	-11.3423
▁এক্সচেঞ্জ	-11.3423
▁মুনাফা	-11.3423
▁পেট্রোলিয়াম	-11.3423
padding	-11.3423
▁ছিন্ন	-11.3423
tes	-11.3424
▁সঙ্কট	-11.3425
▁মতিউর	-11.3425
▁শনিবার	-11.3426
▁কণার	-11.3427
▁বুঝা	-11.3428
▁জন্মায়	-11.3428
▁বিমানবাহিনী	-11.3429
▁সিক্ত	-11.343
▁সমকালীন	-11.3431
▁রাষ্ট্রবিজ্ঞান	-11.3431
▁নজরে	-11.3431
▁ভূমিকার	-11.3433
▁গুজরাটি	-11.3437
▁দিব্য	-11.3438
▁বলতেন	-11.3438
কম্প	-11.3438
▁স্লো	-11.3438
▁ধারণাকে	-11.3439
pa	-11.344
▁মহিলারা	-11.344
▁চ্যানেলে	-11.3441
▁লোগো	-11.3441
ণ্ডা	-11.3444
▁আবশ্যক	-11.3446
XV	-11.345
▁25	-11.345
▁নির্বাসিত	-11.3451
▁ডিভিডি	-11.3451
▁হাঙর	-11.3451
|-|	-11.3452
মানি	-11.3452
▁ফিল	-11.3453
dia	-11.3456
▁গজল	-11.3457
▁পাঠ্যক্রম	-11.3457
ইজ	-11.3458
▁এগুলিকে	-11.3461
ina	-11.3468
ধর্মসম্প্রদায়ের	-11.3469
▁এরপরে	-11.3469
▁আত্মহত্যার	-11.3471
▁গার্	-11.3473
▁কানাডায়	-11.3473
▁১৮৭০	-11.3473
▁Ja	-11.3475
▁সাংখ্য	-11.3475
▁No	-11.3478
▁দাক্ষিণাত্য	-11.3479
▁সংগঠক	-11.3479
▁মিশিগান	-11.3479
▁নাযিল	-11.3479
▁ভিতরের	-11.348
▁অসুখ	-11.3481
▁কক্ষের	-11.3482
▁Pro	-11.3482
হেড	-11.3483
চট্টগ্রাম	-11.3483
▁সমাজবিজ্ঞান	-11.3484
▁ফেরি	-11.3484
▁বিএসসি	-11.3485
▁পিন	-11.3488
▁প্রত্যাশা	-11.3488
▁সাইন্স	-11.3489
মেলা	-11.3489
▁Po	-11.349
▁বার্ড	-11.3492
▁জ্যাকসন	-11.3493
▁দিচ্ছে	-11.3494
sp	-11.3494
য়েভ	-11.3496
72	-11.3498
▁ব্রজ	-11.35
cent	-11.3501
▁সম্মেলনের	-11.3501
▁হ্যারিস	-11.3501
ব্রত	-11.3506
▁pa	-11.3508
▁ডিস্ট্রিবিউশন	-11.3508
▁নিষ্ক্রিয়	-11.3508
▁ব্রুস	-11.3508
্টিক	-11.351
▁বিরাজমান	-11.351
ki	-11.3513
▁শিল্পীরা	-11.3514
মিস	-11.3515
▁১১ই	-11.3518
▁সীমানার	-11.3523
▁ৎস	-11.3524
▁প্রদর্শনীর	-11.3524
▁অতএব	-11.3526
▁রেই	-11.3531
▁জননী	-11.3533
▁হবিগঞ্জ	-11.3536
▁জব্বার	-11.3536
▁টেলিগ্রাফ	-11.3536
▁সর্দার	-11.3536
▁রওনা	-11.3536
▁একারণে	-11.3536
▁রাবণ	-11.3537
▁জলাধার	-11.3537
পণ	-11.3541
▁ছো	-11.3542
▁পরাস্ত	-11.3549
▁রেলপথের	-11.3549
▁হয়ত	-11.355
ust	-11.3551
▁কেন্দ্রবিন্দু	-11.3551
মন্ড	-11.3551
▁আইপি	-11.3552
▁স্পি	-11.3553
▁করণ	-11.3554
▁নিম্নভূমি	-11.3556
▁বৃত্তের	-11.3557
▁উপদ্বীপে	-11.3558
▁বিক্রেতা	-11.3559
▁ধা	-11.356
▁যৌনতার	-11.356
▁গ্রন্থি	-11.356
▁দরবারে	-11.3561
▁মুকুট	-11.3564
▁ধার্মিক	-11.3565
▁মজুদ	-11.3565
ফাজ	-11.3566
▁ধর্মান্তরিত	-11.3567
সুবিধা	-11.3567
▁ধোনি	-11.3568
▁জাই	-11.3568
▁হ্যায়	-11.3572
সালে	-11.3572
▁ভগ্ন	-11.3572
▁সায়ান	-11.3573
জ্ঞা	-11.3575
▁বাঙালিদের	-11.3576
▁মিঃ	-11.3576
াইয়া	-11.3576
▁স্টোর	-11.3577
▁সহিংসতার	-11.3578
▁সম্পাদকের	-11.3578
ল্যান্ডের	-11.3579
ম্বো	-11.3579
▁পাঠ্য	-11.358
▁উইথ	-11.358
▁ভ্যালি	-11.3582
▁ফটক	-11.3584
br	-11.3584
▁গ্যারি	-11.3585
▁আগ্রা	-11.3585
▁দ্রব	-11.3587
▁টাইটান	-11.3587
প্রকার	-11.3592
চেস্টার	-11.3593
পুল	-11.3594
▁মীরসরাই	-11.3594
▁পুরান	-11.3594
মহ	-11.3595
▁খেজুর	-11.3595
▁দাড়ায়	-11.3599
▁গাড়ী	-11.3602
দেশে	-11.3602
হিন্দু	-11.3606
▁কাউন্টির	-11.3606
ds	-11.3607
ব্রো	-11.3608
বিজয়	-11.3608
▁পহেল	-11.361
▁নাগপুর	-11.3613
▁পেরি	-11.3614
ence	-11.3618
▁নির্ণয়ের	-11.3622
▁পর্নোগ্রাফি	-11.3622
▁ভিক্টর	-11.3622
ফাতিহা	-11.3622
▁বিদ্যুত	-11.3624
▁আহোম	-11.3624
▁রঙটি	-11.3624
হাটি	-11.3625
▁সেমিনার	-11.3626
▁সঙ্গীতজ্ঞ	-11.3627
▁ভীষণ	-11.3629
কত	-11.3629
▁যেতো	-11.3631
যি	-11.3631
▁মঞ্চস্থ	-11.3632
▁পিতামাতা	-11.3633
▁থিওরি	-11.3633
cu	-11.3634
▁লক্ষ্যমাত্রা	-11.3638
▁অ্যানা	-11.3638
▁le	-11.3639
▁পুষ্প	-11.364
▁উপমহাদেশ	-11.3645
বিধান	-11.3646
▁সঞ্চার	-11.3648
বাদি	-11.3649
▁চিরায়ত	-11.3651
▁অধ্যাদেশ	-11.3651
▁পর্ষদ	-11.3651
▁অকল্যান্ড	-11.3651
▁তদানী	-11.3651
▁ম্যালেরিয়া	-11.3651
▁লেনদেন	-11.3651
গীতি	-11.3652
▁মূল্যবোধ	-11.3653
▁হিন্দুধর্ম	-11.3654
▁উদ্বোধনে	-11.3655
▁প্রীতি	-11.3656
জাল	-11.366
▁রমনা	-11.3661
অফ	-11.3662
▁সন্	-11.3662
্রে	-11.3663
▁তালিকাটি	-11.3663
▁হাফেজ	-11.3663
▁বসেন	-11.3664
সেরা	-11.3666
▁গ্যালারি	-11.3669
▁পানামা	-11.367
▁স্যামুয়েল	-11.367
িডি	-11.3671
▁পৃথিবীকে	-11.3672
▁অপরাধে	-11.3674
▁বাসিন্দাদের	-11.3674
বলা	-11.3677
▁দৈব	-11.3677
▁ডেন	-11.3677
বিলাল	-11.3678
তন্ত্রের	-11.3679
▁উত্তরসূরী	-11.368
▁কথোপকথন	-11.368
▁কানাডীয়	-11.368
▁লাইবেরিয়া	-11.368
▁ক্যালকাটা	-11.368
পক্ষে	-11.368
ধরনের	-11.3681
▁পূজিত	-11.3681
▁স্যান	-11.3681
▁আবহাওয়ার	-11.3682
▁সতীর্থ	-11.3682
▁ড্রাগ	-11.3683
▁আমল	-11.3686
▁di	-11.3686
▁তুর্কী	-11.3689
▁অব্যাহতি	-11.3691
▁জানালা	-11.3691
উসমান	-11.3692
▁সঙ্গ	-11.3693
▁ওঠার	-11.3696
▁সংখ্যাগরিষ্ঠতা	-11.3696
▁মাধব	-11.3696
▁হাশিম	-11.3698
▁তরঙ্গের	-11.37
▁্যাম	-11.37
▁দশা	-11.37
▁সাজ	-11.3701
গভ	-11.3706
▁রাজপুত	-11.3708
▁গবেষকদের	-11.3709
▁নাইট্রোজেন	-11.3709
▁মোজাম্বিক	-11.3709
▁আশরাফ	-11.3709
▁হিলিয়াম	-11.371
▁ফারাও	-11.3713
কৃতি	-11.3714
আমিনা	-11.3716
লোর	-11.3718
টর	-11.3718
▁শাস্ত্রে	-11.3719
▁It	-11.3719
াবতী	-11.3723
সালা	-11.3728
▁ছাড়	-11.3728
▁শতাংশের	-11.373
▁লাফ	-11.3731
ভুত	-11.3732
▁ড্রয়ে	-11.3732
▁ফাউন্ডেশনের	-11.3733
▁জলপথ	-11.3733
▁মদন	-11.3734
আমেরিকান	-11.3736
▁দন্ড	-11.3737
▁উৎকৃষ্ট	-11.3738
▁সমবেত	-11.3738
▁মেমোরিয়াল	-11.3738
▁সিএনজি	-11.3739
▁ঘটবে	-11.3739
ঘাটা	-11.374
▁been	-11.374
▁sa	-11.374
মোন	-11.3741
▁সিকিম	-11.3744
▁প্রাণি	-11.3745
▁রজনী	-11.3746
কথিত	-11.3748
▁Se	-11.3749
▁সত্ত্বা	-11.3749
▁মূল্যের	-11.3749
▁ধনেশ	-11.375
▁ইয়	-11.375
▁জানেন	-11.3751
ওলা	-11.3753
▁জুলিয়ান	-11.3753
▁অ্যালেন	-11.3757
▁ছাত্রীদের	-11.3757
▁শিকারে	-11.3758
পুঞ্জ	-11.3758
▁নিবন্ধে	-11.3758
▁করছি	-11.3759
▁সাংসদ	-11.3762
▁ফেয়ার	-11.3763
নারি	-11.3764
▁এডুকেশন	-11.3767
▁বিপজ্জনক	-11.3767
এসআই	-11.3768
▁কোমল	-11.3769
▁এরিক	-11.377
খেলা	-11.377
▁বিষ্ণুপুর	-11.3771
▁বিশ্বস্ত	-11.3771
▁নামটির	-11.3775
▁বীর্য	-11.3775
▁অনুগত	-11.3776
▁টার	-11.3783
▁প্রথার	-11.3784
▁আন্দোলনকে	-11.3784
▁ভো	-11.3785
▁গ্লাস	-11.3785
সেই	-11.3786
▁গ্রামাঞ্চলে	-11.3787
নগরী	-11.3788
▁Su	-11.3788
▁আবিষ্কারক	-11.3789
▁বাছাইপর্ব	-11.3789
ুত	-11.379
▁উন	-11.3791
▁আকাশের	-11.3791
▁স্ট	-11.3793
▁আয়োজনে	-11.3794
▁উপস্থাপিত	-11.3796
▁কর্তব্য	-11.3796
▁গোড়াপত্তন	-11.3796
▁পোড়ামাটির	-11.3796
▁দৃষ্টান্ত	-11.3796
▁সঞ্চিত	-11.3796
▁মরহুম	-11.3796
▁ডগলাস	-11.3797
ুনি	-11.3797
▁হাকিম	-11.3798
▁মাসউদ	-11.3799
▁মানুষেরা	-11.3799
▁অ্যাম	-11.3799
▁পাগল	-11.3801
▁রিয়াজ	-11.3801
▁পৃষ্ঠতল	-11.3804
▁আলেম	-11.3813
▁Ro	-11.3813
▁মাঙ্গা	-11.3814
▁আমীর	-11.3814
”,	-11.3814
▁বর্ষাকালে	-11.3815
▁পদ্ধতিটি	-11.3819
১টি	-11.3819
▁ব্যারি	-11.382
▁তিব্বতি	-11.3822
▁বড়দিন	-11.3824
▁বাতি	-11.3825
▁বাস্কেটবল	-11.3826
▁বঙ্গভঙ্গ	-11.3826
▁ইপিআর	-11.3826
▁মৌলভীবাজার	-11.3826
▁কিড	-11.3827
▁ব্র্যাডম্যান	-11.3828
▁শৈল	-11.3831
াও	-11.3831
▁উদ্দীপনা	-11.3832
▁ধূমকেতু	-11.3832
শীপ	-11.3832
▁উইলসন	-11.3834
▁দেখলে	-11.3837
মাত্রা	-11.384
▁দেখেছেন	-11.384
র্ভ	-11.384
▁আক্রমণকারী	-11.3842
▁গ্রিস	-11.3844
▁ত্বক	-11.3845
খানে	-11.3845
▁ফিল্ডিং	-11.3848
▁কেউই	-11.3848
দানের	-11.3848
▁শিক্ষাজীবন	-11.3849
▁ঘন্টার	-11.3851
োলজি	-11.3853
▁দ্বায়িত্ব	-11.3855
▁বানিজ্যিক	-11.3856
▁বাজানো	-11.3856
▁গণিতে	-11.3856
▁অনুমিত	-11.3857
পিং	-11.3861
▁ভূটান	-11.3862
পন্ন	-11.3865
▁ছাত্রছাত্রী	-11.3865
▁থাক	-11.3865
▁মৌর্য	-11.3866
89	-11.3866
▁আলোকিত	-11.3867
ডিপি	-11.3867
যোগে	-11.3868
▁ট্যাক্সি	-11.3869
এশিয়াটিক	-11.3869
ال	-11.387
▁উপস্থিতির	-11.3875
▁হ্যান্ড	-11.3876
▁Ra	-11.3876
ঙে	-11.3878
▁ঈ	-11.3878
▁বলবিজ্ঞান	-11.3879
ষ্টি	-11.3879
▁অনুভূত	-11.388
▁মহারাষ্ট্রের	-11.388
▁বিজ্ঞাপনে	-11.3882
▁বিস্তারের	-11.3883
▁চলক	-11.3884
▁সিদ্ধার্থ	-11.3885
ِّ	-11.3885
▁হরিয়ানা	-11.3885
▁ঢেকে	-11.3885
বাড়িয়া	-11.3888
▁রাজপুত্র	-11.3888
▁সূত্রের	-11.3888
▁তথ্যচিত্র	-11.3893
▁এগুলোকে	-11.3894
▁আলিম	-11.3894
নিং	-11.3896
▁আন্দ্রে	-11.3896
ন্টা	-11.3897
▁ছায়াছবি	-11.3898
লং	-11.3902
▁নিয়মের	-11.3903
▁বিশ্বনাথ	-11.3904
▁একান্ত	-11.3906
মন্ত	-11.3908
▁অর্থায়ন	-11.3908
নিসা	-11.391
▁১৪০	-11.3912
▁জামা	-11.3912
▁ডেভিস	-11.3912
▁কট	-11.3913
15	-11.3914
খন	-11.3914
িক্যাল	-11.3914
▁জলপ্রপাত	-11.3914
▁যীশু	-11.3914
ert	-11.3914
▁মেঘালয়	-11.3915
▁নানাবিধ	-11.3915
▁পেশী	-11.3915
▁ইতোমধ্যে	-11.3917
মীম	-11.3917
▁সোনালী	-11.3918
্সে	-11.3919
▁আওরঙ্গজেব	-11.3919
▁কায়রো	-11.392
▁১৮৭৮	-11.3922
বন্ধু	-11.3923
োভিচ	-11.3924
▁লুক	-11.3926
▁তিমি	-11.3927
ফ্যা	-11.3929
বর্মণ	-11.3929
▁বডি	-11.393
শিস	-11.393
▁আরেকজন	-11.3931
ড্রি	-11.3932
বারি	-11.3932
গাস	-11.3934
▁আবাসন	-11.3936
XY	-11.3938
াইজ	-11.3939
▁কক্ষপথে	-11.394
▁পেপার	-11.394
▁তড়িচ্চুম্বক	-11.3941
▁কর্মকর্তারা	-11.3942
ong	-11.3943
▁নোয়া	-11.3943
▁বক	-11.3944
▁শৌখিন	-11.3944
▁মহেশখালী	-11.3944
▁সচিবালয়	-11.3944
৪টি	-11.3945
▁রোগীদের	-11.3946
▁কাসিম	-11.3947
▁টিকিট	-11.3947
▁বীমা	-11.3947
way	-11.3948
▁শাস্ত্রের	-11.3949
▁মেরিন	-11.395
ভূত	-11.3951
জীবনের	-11.3953
▁প্রথমার্ধে	-11.3953
্রি	-11.3955
gi	-11.3955
▁সাহায্যের	-11.3956
বার্	-11.3956
pr	-11.3959
▁শ্রীলঙ্কায়	-11.3959
▁সচেষ্ট	-11.396
লোন	-11.3961
▁টের	-11.3961
▁জুটিতে	-11.3966
ound	-11.3967
▁সম্পত্তির	-11.3969
▁আইনসভার	-11.3972
▁লুসি	-11.3973
▁অ্যানি	-11.3973
▁পদার্পণ	-11.3974
▁মরোক্কো	-11.3974
▁শৈল্পিক	-11.3974
▁সমধিক	-11.3974
▁বিস্ময়কর	-11.3974
▁মার্বেল	-11.3975
▁আত্মরক্ষা	-11.3975
▁যোগসূত্র	-11.3975
▁স্বদেশী	-11.3976
ঙের	-11.3976
▁z	-11.3978
▁Mar	-11.3979
মার্ক	-11.3979
▁রাজকুমার	-11.398
▁কুরাইশদের	-11.3981
▁নৈতিকতা	-11.3983
▁মুস	-11.3984
-1	-11.3984
▁খাদ	-11.3985
মুল	-11.3985
▁ষাটের	-11.3985
নাগ	-11.3987
জিক	-11.3988
পলি	-11.3989
▁পদার্থবিদ	-11.3989
▁সন্ত	-11.399
৬টি	-11.3994
▁জামে	-11.3994
▁দোষ	-11.3997
▁ব্লকে	-11.3998
▁লেন্স	-11.4
হাউস	-11.4001
▁অণুষ্ঠিত	-11.4003
▁ট্যাবলেট	-11.4003
▁শ্রীরামকৃষ্ণ	-11.4003
সর্গ	-11.4003
▁বাগেরহাট	-11.4003
▁মুখোশ	-11.4003
▁পর্বতশৃঙ্গ	-11.4004
▁সঙ্গতিপূর্ণ	-11.4004
ক্লো	-11.4004
▁কালক্রমে	-11.4006
▁নবাবের	-11.4006
▁মহল্লা	-11.4006
▁খেলেছিলেন	-11.4007
▁ছক	-11.4008
▁সুনীল	-11.4008
▁শাড়ি	-11.4008
র্নি	-11.4009
▁প্রদক্ষিণ	-11.4012
হারে	-11.4013
▁পিচ	-11.4014
▁নেপালে	-11.4014
▁সূ	-11.4016
বয়স	-11.4016
▁রোমের	-11.4019
▁বিশদ	-11.4024
▁শীল	-11.4024
গড়া	-11.4024
হাজার	-11.4024
▁তৎ	-11.4026
▁পিতামাতার	-11.4027
▁লোভ	-11.4027
▁বেত	-11.4032
▁Ha	-11.4033
▁ঘৃণা	-11.4033
▁প্রবক্তা	-11.4033
▁ডেইলি	-11.4033
▁রমজান	-11.4034
put	-11.4034
▁নাট্যধর্মী	-11.4035
▁মতবিরোধ	-11.4036
পৃ	-11.4037
▁কাণ্ড	-11.4037
▁লিও	-11.4037
▁চালা	-11.4038
কর্তা	-11.4039
▁নরেন্দ্র	-11.4039
▁১৮৮৩	-11.4039
▁অন্ধ্রপ্রদেশ	-11.404
▁স্যান্ড	-11.4041
▁হোমো	-11.4041
▁উচ্চতম	-11.4042
▁সেকেন্ডে	-11.4042
লুং	-11.4043
▁বট	-11.4045
▁স্টেটস	-11.4046
▁অনেকাংশে	-11.4047
শামস	-11.4048
পত্তি	-11.4049
▁আগুনের	-11.405
▁আসরের	-11.4051
বেগ	-11.4052
▁তামাক	-11.4053
দৃশ্য	-11.4056
▁বিশেষত্ব	-11.4056
বর্তি	-11.4057
▁ভোজ	-11.4058
স্টন	-11.4059
▁কলাম্বিয়া	-11.4059
▁সংবিধানে	-11.4062
লেক	-11.4062
▁খাত্তাব	-11.4063
▁মেগাওয়াট	-11.4063
▁সম্মিলন	-11.4063
্টা	-11.4064
▁হীরা	-11.4067
▁সেইসাথে	-11.4067
▁আমর	-11.407
▁বইগুলো	-11.4071
▁বিরক্ত	-11.4075
▁পাহাড়ী	-11.408
▁ব্যাপারটি	-11.408
▁পাঠানোর	-11.4084
▁শৈব	-11.4089
উক	-11.4092
োসিস	-11.4093
▁সার্টিফিকেট	-11.4094
▁চৈনিক	-11.4094
▁আয়িশা	-11.4094
▁পুনর্জন্ম	-11.4094
▁ইয়ু	-11.4094
▁চারু	-11.4094
▁কাফির	-11.4095
সংস্কৃতি	-11.4096
ting	-11.4097
▁উদ্যানে	-11.4097
▁হিন্দী	-11.41
▁৩০০০	-11.41
▁১৮টি	-11.4103
▁সরণ	-11.4106
▁হুদ	-11.4107
▁স্পেনে	-11.4107
▁অন্যায়	-11.4108
▁বাকল	-11.4112
▁ভাট	-11.4113
ক্রিয়া	-11.4115
এখানে	-11.4118
ture	-11.4123
▁এট	-11.4124
▁কুলি	-11.4127
েটের	-11.4129
▁মূলধন	-11.4129
▁সেনানিবাস	-11.4131
▁ব্যাক্তি	-11.4132
▁মঞ্জুর	-11.4133
▁হাওয়া	-11.4135
▁১৭টি	-11.4137
33	-11.4137
আমরা	-11.4141
lu	-11.4143
▁গ্রাম্য	-11.4145
▁==	-11.4145
▁সফলতম	-11.4149
▁ক্রেতা	-11.415
XI	-11.4151
োভা	-11.4153
▁প্লাস	-11.4154
▁সুসমাচার	-11.4154
▁খাজনা	-11.4154
▁also	-11.4154
▁ডেভ	-11.4155
দেবের	-11.4156
▁ব্যাটারি	-11.4156
▁মধ্যপ্রদেশ	-11.4156
▁স্ল	-11.4157
▁হামলায়	-11.4161
ron	-11.4161
ন্টু	-11.4162
্দি	-11.4164
▁বয়েজ	-11.4164
ঁক	-11.4165
▁মস্তিষ্কে	-11.4166
18	-11.4166
▁গোলাপী	-11.4167
▁যাত্রীদের	-11.4167
ফোন	-11.4168
▁কানে	-11.4172
▁পেতেন	-11.4172
▁আপেক্ষিকতা	-11.4173
▁ব্যক্তিরা	-11.4176
রিয়াল	-11.4179
▁বাংলাকে	-11.418
▁অন্যান্যদের	-11.4181
ফিস	-11.4181
▁হৃদ	-11.4183
▁পদকে	-11.4183
▁সাবিত	-11.4184
িপ	-11.4184
▁স্বায়ত্তশাসিত	-11.4184
বাসীর	-11.4185
▁মুস্তাফা	-11.4186
▁বাড়ানো	-11.4186
▁রিপাবলিকান	-11.4187
▁খরা	-11.4188
▁had	-11.4189
▁সায়	-11.4195
▁হুসেন	-11.4195
▁লাহোরে	-11.4199
▁মণিপুরী	-11.4199
ব্যবহার	-11.4205
▁সেন্টারে	-11.4205
“	-11.4205
▁পিক	-11.4206
▁সপ্ত	-11.4209
মতো	-11.4211
▁শিয়ালদহ	-11.4215
▁গর্ভধারণ	-11.4215
▁মালামাল	-11.4216
▁ভরা	-11.4221
▁শয়তান	-11.4223
▁জামালপুর	-11.4227
▁সহযোগিতার	-11.4229
গঠন	-11.4232
▁মস	-11.4234
▁তান্ত্রিক	-11.4235
রাত্রি	-11.4236
▁অবস্থানরত	-11.4236
▁জাকার্তা	-11.4236
▁কর্মকান্ড	-11.4236
▁কাফ	-11.4238
অপ	-11.424
▁কাব্যে	-11.4241
▁খেলাধুলা	-11.4242
কানা	-11.4243
ন্ডে	-11.4243
▁দেখানোর	-11.4244
▁বহিষ্কার	-11.4245
▁স্বেচ্ছাসেবক	-11.4245
▁বুঝে	-11.4246
▁নোবিতা	-11.4246
▁মুহূর্তে	-11.4246
▁সীমারেখা	-11.4246
▁সী	-11.4246
▁ইমারত	-11.4246
▁ছেলেবেলা	-11.4247
▁বুলবুল	-11.4247
▁সংগ্রহশালা	-11.4249
▁থেমে	-11.4249
থলি	-11.4251
▁তারাই	-11.4252
▁টি২০	-11.4254
▁out	-11.4256
▁জেড	-11.4256
▁কমাতে	-11.4259
নাবা	-11.426
▁নাসা	-11.4262
▁শুরুতেই	-11.4262
▁ব্রান্ড	-11.4264
▁প্রার্থীদের	-11.4266
▁বেলারুশ	-11.4272
▁ইতোমধ্যেই	-11.4273
▁রুয়ান্ডা	-11.4276
▁সর্বজনীন	-11.4276
▁পৌষ	-11.4277
▁ছিট	-11.4277
▁নিঃসরণ	-11.4278
▁কীর্তন	-11.4279
▁কনফারেন্স	-11.428
ল্হা	-11.4283
▁১৮৭৭	-11.4283
▁মার্কা	-11.4285
▁চিত্রকর	-11.4286
▁ইলেক্ট্রনিক	-11.4286
পতিত	-11.4286
বিস	-11.4287
▁ফরেস্ট	-11.4287
▁শিল্পীর	-11.4288
▁মালদা	-11.4289
▁জিতেন	-11.4292
▁কুমির	-11.4293
বাক্য	-11.4293
কারীর	-11.4293
ics	-11.4295
▁পশ্চিমাঞ্চল	-11.4296
ium	-11.43
▁এধরনের	-11.4303
fi	-11.4305
▁নিচ	-11.4305
প্লে	-11.4305
▁ইং	-11.4305
▁সংবলিত	-11.4307
▁অর্পণ	-11.4307
▁পদমর্যাদা	-11.4307
▁গর্ভপাত	-11.4307
▁চক	-11.4307
▁ধারণক্ষমতা	-11.4308
▁সাউন্ড	-11.431
▁সন্তোষ	-11.4311
▁অন্যের	-11.4312
▁ইনস্টিটিউটের	-11.4314
ডিয়ান	-11.4314
▁অধিকারের	-11.4314
রুজ	-11.4315
বান্ধব	-11.4315
▁স্বর্গীয়	-11.4319
▁বিশেষায়িত	-11.4321
▁ভালবাসা	-11.4321
ire	-11.4321
▁খেলনা	-11.4323
ালা	-11.4324
তাদের	-11.4325
▁কাগজে	-11.4327
▁১৮০০	-11.4328
▁অনেকসময়	-11.433
▁স্বদেশ	-11.4331
▁বিয়ার	-11.4331
▁বেড়ায়	-11.4332
▁নারীকে	-11.4334
▁কোস্টা	-11.4337
▁ডোনাল্ড	-11.4338
▁সমার্থক	-11.4338
▁সাকিব	-11.4338
▁সংকীর্ণ	-11.4338
▁শুল্ক	-11.4338
▁সবচাইত	-11.4339
▁খানকে	-11.4339
▁মৃত্যুতে	-11.4339
▁নম	-11.4342
▁মিঠা	-11.4343
▁অনুপস্থিতি	-11.4349
লিম	-11.4349
▁বোলৎসমান	-11.435
ton	-11.435
▁সংগ্রহকারী	-11.435
▁উপলব্ধ	-11.4352
▁ছাই	-11.4354
▁বিক্রিত	-11.4356
▁তারার	-11.4357
▁ফিল্ডার	-11.4359
▁শহরগুলির	-11.436
য়ানা	-11.436
▁পাদদেশে	-11.4361
জার্মান	-11.4361
ডেন্ট	-11.4363
▁ইঙ্গ	-11.4363
▁যাদব	-11.4363
▁সেনানিবাসে	-11.4364
▁তাড়া	-11.4367
পাখি	-11.4367
্জ	-11.4368
▁গণপরিবহন	-11.4369
নতুন	-11.437
বিব	-11.437
▁উপাধিধারী	-11.4371
▁কোলে	-11.4373
▁নাইজার	-11.4373
ত্যাগ	-11.4377
দক্ষিণে	-11.4378
▁স্ট্যান্ড	-11.4379
▁40	-11.438
শ্রুত	-11.438
Xw	-11.4381
▁খেলাগুলো	-11.4383
ছাত্রীদের	-11.4384
▁ইভ	-11.4386
▁স্নো	-11.4386
▁থু	-11.4386
▁may	-11.4387
▁ধাতুর	-11.4387
▁জনগণকে	-11.4387
▁বাগানের	-11.4388
king	-11.4389
এমএস	-11.439
▁শেরপুর	-11.4391
▁সড়কটি	-11.4391
ঝাড়	-11.4393
▁জমে	-11.4394
▁ছয়জন	-11.4395
ঢ	-11.4395
▁প্রসঙ্গ	-11.4396
ath	-11.4398
▁রহস্যময়	-11.4399
▁সাব্যস্ত	-11.44
করে	-11.44
▁হেঁটে	-11.44
ত্রী	-11.44
▁উইলিয়ামস	-11.4401
wi	-11.4401
up	-11.4402
▁দিবসে	-11.4402
▁বিন্দুর	-11.4402
▁শতরান	-11.4402
▁ধার্য	-11.4403
▁শ্রেণীবিভাগ	-11.4404
ফিশ	-11.4404
▁মিনারের	-11.4406
▁শাহী	-11.4413
▁হ্যারিকে	-11.4413
▁নাস	-11.4416
বানী	-11.4416
▁দারিদ্র	-11.4417
▁একেকটি	-11.4418
▁গতিশীল	-11.4418
▁সাং	-11.442
টোর	-11.442
▁চিত্ত	-11.442
▁মন্	-11.4422
▁পেশার	-11.4422
্ট্রি	-11.4423
বেক	-11.4425
hu	-11.4426
▁কোলা	-11.4427
▁শৌচাগার	-11.4431
▁অরুণাচল	-11.4431
▁ক্যালসিয়াম	-11.4431
▁রেলস্টেশন	-11.4432
▁ফিনিক্স	-11.4432
▁রাষ্ট্রকূট	-11.4432
▁নও	-11.4433
▁গুচ্ছ	-11.4433
▁খন্দকার	-11.4434
সমুহ	-11.4437
সদৃশ	-11.4438
মনা	-11.4439
রিচ	-11.444
▁গ্লোবাল	-11.444
▁স্লিপ	-11.4444
▁সাহেবের	-11.4445
▁এসেক্স	-11.4445
যুগের	-11.4445
মাণ	-11.4447
▁শির	-11.4449
▁হাসপাতালের	-11.445
▁খাঁর	-11.4451
▁হেয়ার	-11.4453
▁কালার	-11.4455
▁চাকতি	-11.4457
▁মাইনর	-11.4457
▁উদ্ধৃত	-11.4458
▁উৎপাদনকারী	-11.4459
▁বিশেষণ	-11.446
▁৫০টি	-11.4461
▁সম্পৃক্ততা	-11.4461
▁বিস্ময়	-11.4461
২০০৮	-11.4462
গোলা	-11.4462
▁বচ্চন	-11.4462
▁মিষ্টান্ন	-11.4462
▁সাসানীয়	-11.4462
▁স্ম্যাকডাউন	-11.4462
▁টাইটেল	-11.4463
▁গ্র	-11.4464
▁পঞ্চগড়	-11.4464
val	-11.4465
▁comp	-11.4466
▁সেন্সর	-11.4467
▁গানগুলি	-11.4467
▁কলার	-11.4469
হ্য	-11.4469
▁জায়গাটি	-11.4469
pt	-11.4474
▁কারি	-11.4475
▁মুছে	-11.4476
ানুষ্ঠান	-11.4478
▁দেশেই	-11.4481
▁ছবিগুলো	-11.4482
▁তিথিতে	-11.4484
▁খ্রীস্টাব্দে	-11.4484
টেক্স	-11.4485
▁মহেন্দ্র	-11.4485
শিমা	-11.4485
▁গ্রন্থাগারে	-11.4487
▁দেশি	-11.4488
গোষ্ঠী	-11.4488
▁ফাল্গুন	-11.4489
▁ক্লাসিক	-11.4489
▁গার্ল	-11.449
ual	-11.449
▁উপনিষদের	-11.4492
▁দূর্দান্ত	-11.4494
▁১২৫	-11.4494
▁ধাক্কা	-11.4494
▁চেলসি	-11.4494
▁ইলিনয়	-11.4494
▁গেয়েছেন	-11.4495
▁মানিকগঞ্জ	-11.4495
▁বসিয়ে	-11.4496
▁যেখান	-11.4497
▁দোকানে	-11.45
▁অ্যালবামে	-11.4503
▁অব্দ	-11.4504
▁ইরাকি	-11.4505
▁করাচি	-11.4506
▁সমীক্ষা	-11.4508
াতো	-11.4508
▁কং	-11.4511
▁মেসোপটেমিয়া	-11.4513
সুলভ	-11.4513
▁জিহাদ	-11.4514
▁বাউ	-11.4515
▁হ্যাম	-11.4519
শহীদ	-11.452
▁শেন	-11.452
▁সিনেট	-11.452
▁they	-11.4521
নিরীক্ষা	-11.4521
▁নিল	-11.4522
▁মোতায়েন	-11.4525
▁মুখপাত্র	-11.4526
▁আপিল	-11.4527
▁তুলেছেন	-11.4529
রানী	-11.4529
▁বিশ্বজুড়ে	-11.453
ভব	-11.4532
ib	-11.4533
অভি	-11.4533
গ্রী	-11.4534
োমা	-11.4534
ূন	-11.4534
▁আগুনে	-11.4534
ড়িয়ে	-11.4538
▁চিকিৎসায়	-11.4539
ামা	-11.4542
ষ্ণ	-11.4543
▁রুপে	-11.4544
▁http	-11.4548
▁ফলের	-11.4549
▁তেজ	-11.4549
্টে	-11.455
▁ফেলেছে	-11.4553
ভয়	-11.4555
▁ফিন	-11.4556
▁ক্রোয়েশিয়া	-11.4557
▁দূর্ঘটনা	-11.4557
▁বন্দোবস্ত	-11.4557
▁আইবিএম	-11.4557
▁বয়কট	-11.4557
▁পেত	-11.4557
পির	-11.4558
▁থিও	-11.4558
▁নির্মল	-11.4558
স্বরুপ	-11.456
▁পরিহিত	-11.456
har	-11.456
ঞ্চা	-11.456
▁প্রতিশব্দ	-11.4561
▁রেখার	-11.4562
▁জেগে	-11.4563
▁উল্লাহ	-11.4565
▁১২ই	-11.4566
▁সিরিয়াল	-11.457
▁কিশোরী	-11.457
াতি	-11.4572
ান্বিত	-11.4572
কন্যা	-11.4574
▁আশপাশ	-11.4574
▁দায়ের	-11.4574
▁গিরি	-11.4574
ari	-11.4576
▁চোল	-11.4577
▁ফাতিমা	-11.4578
▁পিচে	-11.4579
বর্	-11.458
▁অর্জনে	-11.4582
▁প্রসারের	-11.4582
▁পারলে	-11.4583
▁উইমেন	-11.4583
▁তাৎপর্য	-11.4587
▁ডাউনলোড	-11.4588
▁তাসমানিয়া	-11.4588
▁নড়াইল	-11.4588
▁মোহামেডান	-11.4588
▁খানিকটা	-11.4588
ness	-11.4588
▁স্কাউট	-11.4588
▁দিলেও	-11.4589
▁ধর্মবিশ্বাস	-11.459
▁তৈল	-11.4592
▁মাঝেমধ্যে	-11.4592
▁মাদ্রিদে	-11.4594
▁প্যালেস	-11.4595
াভূত	-11.4596
▁রয়	-11.4597
▁গোলাপি	-11.4598
▁পুর্বে	-11.4598
▁বজ্র	-11.46
▁জেনেটিক	-11.4602
▁রঞ্জন	-11.4603
▁ডোরা	-11.4604
নোমান	-11.4606
তীর	-11.4607
▁দিয়া	-11.4609
▁ডাকাতি	-11.461
▁ভেড়া	-11.4613
▁মর্	-11.4615
▁থো	-11.4616
XU	-11.4616
ীন্দ্র	-11.4616
ক্রা	-11.4619
▁মিত্রতা	-11.4619
ঠি	-11.462
▁অগস্ট	-11.462
▁সাতকানিয়া	-11.462
পাট	-11.4621
▁যুক্তফ্রন্ট	-11.4621
▁অনুকূল	-11.4621
▁হের	-11.4621
▁সৃজনশীল	-11.4622
▁খ্রিষ্টীয়	-11.4622
▁বিষুবীয়	-11.4623
▁মূর্তির	-11.4623
▁করানোর	-11.4625
▁মোদী	-11.4626
▁বিপ্লবীদের	-11.4627
সেন্স	-11.4627
▁জেলা৷	-11.4627
▁ভাবনা	-11.4627
▁শিবিরে	-11.4627
▁ঢাক	-11.4631
স্ম	-11.4632
▁বস্তুকে	-11.4635
▁আগ্নেয়গিরি	-11.4638
Z	-11.4638
শক	-11.4641
ors	-11.4643
▁নির্দেশিত	-11.4643
স্যার	-11.4644
▁গ্রহটি	-11.4644
▁জামাত	-11.4644
ster	-11.4646
▁মন্ডল	-11.4647
শ্রেষ্ঠ	-11.4647
ঞ্জার	-11.4648
▁বদ	-11.465
বাদক	-11.465
▁টোয়েইন	-11.4652
▁বহিঃপ্রকাশ	-11.4652
▁পরিকাঠামো	-11.4652
▁কেক	-11.4652
▁চন্দ্রগুপ্ত	-11.4654
▁রঙ্গ	-11.4654
▁অভ্যস্ত	-11.4655
ত্রিশ	-11.4655
▁এক্সপ্রেসওয়ে	-11.4656
ner	-11.466
রক্ষা	-11.466
▁সংখ্যাটি	-11.4661
গ্স	-11.4661
bu	-11.4663
▁হয়না	-11.4665
▁তৈরীতে	-11.4666
▁স্ট্যাম্প	-11.4666
▁দক্ষিন	-11.4668
্নি	-11.4669
▁কিঃমিঃ	-11.4669
▁ফ্রেম	-11.4669
▁ঘুরতে	-11.467
▁নটর	-11.4674
▁নেতাজি	-11.4677
16	-11.4678
▁us	-11.468
▁গভর্ণর	-11.4684
▁কেনেডি	-11.4684
দাল	-11.4685
▁অসম্পূর্ণ	-11.4686
▁শিং	-11.4686
▁পিয়ানো	-11.4687
▁প্রাচীনকাল	-11.4687
▁একাংশ	-11.4687
▁প্রকাশনার	-11.469
কোড	-11.469
সুন্দর	-11.4694
মূলধারার	-11.4695
েলের	-11.4695
▁সৈনিকদের	-11.4696
ঁদ	-11.4696
▁প্রেমিক	-11.4697
▁কুড়ি	-11.4699
▁বেলে	-11.4699
ডিস	-11.47
▁চ্যানেলের	-11.4703
▁ছাত্রছাত্রীদের	-11.4704
mar	-11.4706
▁রম	-11.4708
নিয়ান	-11.4708
ob	-11.4708
▁করলো	-11.4708
মুসলিম	-11.4709
এটা	-11.4709
▁তত্ত্বটি	-11.4711
XM	-11.4716
▁অ্যাঙ্গোলা	-11.4716
▁জিজ্ঞেস	-11.4716
▁দারুণ	-11.4716
▁প্রবর্তক	-11.4716
▁রশীদ	-11.4716
▁ঐক্যবদ্ধ	-11.4716
▁আনোয়ারা	-11.4717
▁ভ্রমন	-11.4717
▁ডোম	-11.4718
▁মেরিল	-11.4719
▁আওয়াজ	-11.4719
▁গ্রাফিক্স	-11.4719
স্ট্রা	-11.4721
▁প্রতিজ্ঞা	-11.4722
▁শনি	-11.4725
▁কাস	-11.4726
▁ব্যবস্থাপনায়	-11.4727
▁ইর	-11.4727
38	-11.4727
কামি	-11.4727
গুলোও	-11.4731
▁ধরেই	-11.4736
▁দুর	-11.4739
▁সীমার	-11.4739
▁দোহা	-11.4739
▁২২টি	-11.4742
প্রবাহ	-11.4743
▁ক্রুজ	-11.4743
▁হামজা	-11.4743
▁ধর্মমত	-11.4744
▁অনুপস্থিতিতে	-11.4744
▁রানা	-11.4745
▁ভূখণ্ডের	-11.4746
▁পারতো	-11.4747
▁গাম্বিয়া	-11.4748
▁প্রতীয়মান	-11.4748
▁মন্ত্রিসভা	-11.4748
▁সংকোচন	-11.4748
▁গ্নোম	-11.4748
▁বনী	-11.4749
▁১২৮	-11.4749
▁সুদীর্ঘ	-11.4749
▁স্কো	-11.475
▁গাইড	-11.475
▁বেগুনী	-11.475
▁চত্বরে	-11.4751
▁হাওয়াই	-11.4751
▁ভালভাবে	-11.4752
text	-11.4752
▁খেলোয়াড়কে	-11.4752
মিং	-11.4754
▁বর্ণমালার	-11.4754
Xf	-11.4755
▁বালু	-11.4756
▁বর্ননা	-11.4758
▁বন্ধুর	-11.4759
▁কাচা	-11.4759
we	-11.4759
ঠে	-11.4763
▁ভালোবাসার	-11.4764
▁বইমেলা	-11.4766
▁আগেও	-11.4767
▁লিভার	-11.4769
আজ	-11.4769
সত্য	-11.4771
মৃত্যু	-11.4778
ان	-11.4779
▁ভরে	-11.4779
▁ডিমের	-11.4779
▁আঙুল	-11.478
▁কনভেনশন	-11.478
▁প্রভিন্স	-11.478
হত্যা	-11.4781
▁চিঠিতে	-11.4781
▁শরৎচন্দ্র	-11.4781
▁যথার্থ	-11.4782
▁পুরা	-11.4782
▁পরিভাষায়	-11.4782
▁ফলেই	-11.4783
▁বাশার	-11.4784
▁কলিকাতা	-11.4784
▁অধ্যয়নরত	-11.4785
▁অবসরপ্রাপ্ত	-11.4786
তাম	-11.4786
▁এসএসসি	-11.4786
▁ইলেক্ট্রন	-11.4788
▁জ্যোতির্	-11.4791
▁শাসনভার	-11.4793
জুন	-11.4793
▁কিন্ত	-11.4794
ড্রা	-11.4794
সত্ত্ব	-11.48
XO	-11.4801
▁থানায়	-11.4801
▁20	-11.4805
সাত	-11.4808
চরিত	-11.4809
▁প্রোগ্রামের	-11.4809
ইসরাঈল	-11.4813
▁অবিচ্ছেদ্য	-11.4813
▁ভেষজ	-11.4813
ব্রিটিশ	-11.4813
▁রাউজান	-11.4813
▁পরিসেবা	-11.4813
▁Sa	-11.4815
▁আহমাদ	-11.4816
▁সস	-11.4816
কাসুর	-11.4816
▁ট্রেনটি	-11.4823
▁কেনিয়ার	-11.4828
▁জেনেভা	-11.4831
▁স্ট্রাইকার	-11.4831
ার্ক	-11.4833
মিনি	-11.4834
▁বিকিরণের	-11.4834
▁ঘন্টায়	-11.4834
▁তত্ত্বে	-11.4836
নবী	-11.4836
▁দেউল	-11.4836
▁ষাট	-11.4838
▁ইংরেজরা	-11.484
XT	-11.4841
▁জিনের	-11.4842
▁সম্ভবতঃ	-11.4844
▁মহাবিদ্যালয়ে	-11.4844
▁ডেট্রয়েট	-11.4845
▁তাস্বত্ত্বেও	-11.4845
▁মওলানা	-11.4845
▁বিজেপি	-11.4845
▁বীজগণিত	-11.4845
▁কার্নেল	-11.4846
▁ব্রাদার্স	-11.4846
▁শ্রীমঙ্গল	-11.4846
▁জিনিসপত্র	-11.4847
দন্ত	-11.4848
▁নিগম	-11.4851
▁মরণোত্তর	-11.4852
▁খন্ডে	-11.4852
ট্রে	-11.4853
▁সদৃশ	-11.4853
▁আখতার	-11.4854
XA	-11.4855
▁অপরকে	-11.4855
▁বুলেট	-11.4855
▁গ্লা	-11.4857
▁মুঘলদের	-11.4858
nu	-11.4859
খ্য	-11.486
▁ফান্ড	-11.4861
▁ব্লো	-11.4862
র্বা	-11.4864
এছাড়াও	-11.4866
▁চণ্ডী	-11.4866
▁দেখি	-11.4873
দ্বিতীয়	-11.4874
▁রিকো	-11.4876
েবল	-11.4876
▁এলো	-11.4876
▁country	-11.4878
▁ইস্তানবুল	-11.4878
▁পথিকৃৎ	-11.4878
▁ব্যাডমিন্টন	-11.4878
▁সাবমেরিন	-11.4878
▁সিকিউরিটি	-11.4878
▁সুবিশাল	-11.4878
▁ক্ষমতাসীন	-11.4878
▁উচ্চারিত	-11.4878
▁ত্রয়ী	-11.4878
লুগ্স	-11.4878
▁নান	-11.488
▁ফ্লে	-11.4881
▁সুলতানা	-11.4881
ঘরে	-11.4885
▁লড়াইয়ের	-11.4885
▁ভারতবর্ষে	-11.4885
বিবাহ	-11.4887
▁খেল	-11.4888
▁vi	-11.489
era	-11.489
ুং	-11.4895
ট্রিক	-11.49
▁ট্রফিতে	-11.4904
▁মেহের	-11.4907
ষক	-11.4909
▁মানবজাতি	-11.4909
▁দত্তের	-11.4909
▁ট্রাইব্যুনাল	-11.491
▁ডিফেন্স	-11.491
▁বতসোয়ানা	-11.491
▁মিথস্ক্রিয়া	-11.491
▁ভাসমান	-11.491
▁স্প্রিং	-11.4911
ফিয়া	-11.4911
▁ফোর্ড	-11.4911
▁চর্বি	-11.4911
tan	-11.4911
▁মার্স	-11.4913
্যাক	-11.4913
▁নিবিড়	-11.4913
স্টের	-11.4913
▁প্যাসিফিক	-11.4914
▁কার্ট	-11.4914
▁মজিদ	-11.4915
▁হারুন	-11.4916
গলা	-11.4916
qui	-11.4917
▁শিলাস্তর	-11.4917
▁সময়সূচী	-11.4919
▁বক্সিং	-11.4919
▁শরণার্থীদের	-11.4921
▁উষ্ণতা	-11.4922
বাম	-11.4923
সাধন	-11.4924
▁ক্রিস্ট	-11.4924
01	-11.4925
▁ড্রাম	-11.4926
▁প্রকৌশলে	-11.493
men	-11.4933
▁চিত্রকলা	-11.4936
োরি	-11.4937
▁অরুণ	-11.4938
▁বৈধতা	-11.4939
▁ভুলে	-11.494
▁এও	-11.4942
▁শাহবাগ	-11.4943
▁বহিরাগত	-11.4943
▁মজবুত	-11.4943
▁সেন্টিগ্রেড	-11.4943
▁নারিকেল	-11.4943
▁ভুট্টা	-11.4943
▁গণচীন	-11.4944
qu	-11.4945
▁মৌসুমি	-11.4948
▁হাদিসের	-11.4948
▁ম্যাট্রিক্স	-11.4948
▁ডাকনাম	-11.495
সুন্দরী	-11.4951
▁ل	-11.4951
▁কাদির	-11.4952
▁হেলেনা	-11.4953
▁Mi	-11.4955
▁স্বাক্ষরতা	-11.4955
▁অপমান	-11.4956
▁দ্বিতীয়বার	-11.4957
ারস	-11.4958
▁কর্মচারীদের	-11.4959
▁পশতু	-11.4959
এফসি	-11.496
হাল	-11.4963
▁আকস্মিক	-11.4964
▁শীতকাল	-11.4964
▁পর্বতশ্রেণী	-11.4965
পিয়া	-11.4965
▁ব্যাসার্ধ	-11.4965
▁গ্রহণযোগ্যতা	-11.4966
▁দায়িত্বপ্রাপ্ত	-11.4966
▁সময়সীমা	-11.4971
ুপ	-11.4973
▁বিকৃত	-11.4974
▁ইমরান	-11.4974
▁ভুট্টো	-11.4976
▁উপস্থাপক	-11.4976
টাকে	-11.4978
▁বহি	-11.4978
বৈ	-11.4979
▁বছরগুলোতে	-11.4979
▁পশ্চিমের	-11.4979
▁সায়েন্সেস	-11.498
▁জিমি	-11.4982
ত্তে	-11.4984
▁গাইতে	-11.4985
গরি	-11.4986
▁একধরণের	-11.4986
▁ময়দা	-11.4992
▁৮ই	-11.4993
ায়া	-11.4995
▁মরু	-11.4997
▁কামরূপ	-11.4998
ব্রেক	-11.4999
▁মহিষ	-11.4999
▁আইটি	-11.4999
▁জড়ো	-11.4999
নকে	-11.5
▁আইসল্যান্ড	-11.5
মৃত	-11.5002
▁সমাজতন্ত্র	-11.5002
ভ্য	-11.5004
গ্লিং	-11.5005
াইট	-11.5006
▁ঝাল	-11.5007
▁গতিপথ	-11.5008
▁চুয়াডাঙ্গা	-11.5009
খানি	-11.5009
▁উচ্চমাধ্যমিক	-11.501
▁শিল্পকলার	-11.501
▁সামঞ্জস্যপূর্ণ	-11.501
লোপ	-11.501
▁ভাইসরয়	-11.501
▁সুকুমার	-11.5011
▁১২শ	-11.5012
▁দ্বিতল	-11.5012
▁রাডার	-11.5013
▁ফ্রান্সিসকো	-11.5015
▁টোগো	-11.5015
ানুযায়ী	-11.5016
▁দেশব্যাপী	-11.5017
াংশে	-11.5017
আম	-11.5017
ছিলাম	-11.5024
▁চিলির	-11.5024
▁তোর	-11.5027
তক	-11.5028
az	-11.5028
বিবি	-11.5029
নাইট	-11.5031
কোল	-11.5032
দ্রো	-11.5032
ins	-11.5033
▁তুরস্কে	-11.5035
▁মাক	-11.5035
▁অদূরে	-11.5036
▁সেইন্ট	-11.5036
▁এলাকাতে	-11.5038
▁ডার	-11.5038
ক্লা	-11.5038
▁পাশ্চাত্যের	-11.504
▁প্রাঙ্গনে	-11.504
73	-11.504
▁পোড়া	-11.5042
▁অত্যাধুনিক	-11.5042
▁উত্থাপিত	-11.5042
▁ওরচেস্টারশায়ার	-11.5042
▁পারদর্শিতা	-11.5042
▁অঙ্গীকার	-11.5042
▁শ্যা	-11.5042
▁অ্যান্টার্কটিকা	-11.5043
ত্তর	-11.5044
রেক	-11.5046
▁ইচ্ছে	-11.5046
▁ভাইরাসের	-11.5047
▁লালবাগ	-11.5047
বার্ন	-11.5047
ট্ট	-11.5047
▁১৮৭১	-11.5049
▁জেতে	-11.5051
▁স্থাপত্যশৈলী	-11.5055
▁দুটির	-11.5055
▁মারে	-11.5056
▁স্বেচ্ছায়	-11.5057
▁উত্তরপূর্ব	-11.5058
▁গবেষণাগার	-11.5059
▁ভার্জিনিয়া	-11.5061
ng	-11.5061
▁কাটার	-11.5062
▁চান্দ্র	-11.5064
pl	-11.5065
▁ডারউইন	-11.5065
▁ডাউন	-11.5067
▁অলি	-11.5068
▁আঘাতপ্রাপ্ত	-11.5068
▁বাঁচা	-11.5068
▁ঘনত্বের	-11.5069
▁হোস্ট	-11.5071
▁জায়	-11.5072
▁নক্ষত্রের	-11.5072
:1	-11.5073
▁সেক্স	-11.5074
ঁড়া	-11.5075
লুক	-11.5075
▁রেজি	-11.5075
▁পুয়ের্তো	-11.5075
▁তীর্থঙ্কর	-11.5075
▁চিত্তরঞ্জন	-11.5075
▁্যাম্বো	-11.5076
▁ভব	-11.5077
ক্রোম	-11.5078
▁আমাজন	-11.508
▁বাইরেও	-11.5081
আরসি	-11.5082
88	-11.5085
সাইট	-11.5085
eg	-11.5086
▁বক্র	-11.5086
কাণ্ড	-11.5087
▁বেষ্টনী	-11.5091
▁গুরুত্বের	-11.5094
নুসারে	-11.5094
৫টি	-11.5095
খ্যাত	-11.5096
▁সংকর	-11.5097
ick	-11.5099
▁সংগ্রামে	-11.5103
▁নেট	-11.5103
োলা	-11.5106
▁জগত	-11.5108
▁হাঙ্গেরি	-11.5108
▁আশ্চর্য	-11.5108
▁মহাবিস্ফোরণ	-11.5109
▁শান্তিনিকেতনে	-11.5109
▁সভ্য	-11.5109
▁তৈমুর	-11.5109
▁আলোকপাত	-11.511
▁চোয়াল	-11.511
▁জনসাধারণ	-11.5111
৯টি	-11.5114
▁দেও	-11.5115
▁১৮৬৯	-11.5116
▁এপ্লিকেশন	-11.5117
তাঁর	-11.5119
▁গায়	-11.5119
▁উম্মে	-11.512
▁ঘু	-11.5121
▁যেটির	-11.5122
▁কেরল	-11.5122
ey	-11.5124
▁ইস্যু	-11.5124
্সোদ	-11.5126
▁উবা	-11.5128
গ্যা	-11.5129
▁সংগ্রামী	-11.513
▁রাইস	-11.5131
▁কৈ	-11.5132
Xi	-11.5133
▁নিয়মে	-11.5134
▁লেবু	-11.5134
▁কাঁধে	-11.5134
রূপী	-11.5135
োতে	-11.5135
che	-11.5135
▁উচ্চশিক্ষা	-11.5136
▁ট্রু	-11.5136
▁বিশ্লেষণের	-11.5136
ত্ম	-11.5137
রঙ্গ	-11.5138
▁সিস্টেমে	-11.5138
▁একাধিকবার	-11.5138
Xm	-11.5139
▁আমিরাতের	-11.514
▁জান্নাত	-11.514
▁উত্পাদন	-11.5142
▁ব্যাবহার	-11.5142
▁মুন্সিগঞ্জ	-11.5143
▁অলঙ্কার	-11.5143
▁তালুকদার	-11.5143
▁হাঁটা	-11.5145
নেতা	-11.5146
▁ধ্বংসপ্রাপ্ত	-11.5147
গোল	-11.5148
আমর	-11.5149
▁ব্রুনাই	-11.5149
▁লাস্ট	-11.5149
▁মজ	-11.5149
▁ঋ	-11.5149
সাঈদ	-11.5149
ধ্য	-11.5149
বিজ্ঞানের	-11.5151
▁কর্মসূচির	-11.5152
▁শতাব্দি	-11.5153
ল্ফ	-11.5154
▁হাইস্কুল	-11.5154
৮টি	-11.5154
▁আশির	-11.5155
▁দিল্লীর	-11.5157
▁বচন	-11.5158
ক্রী	-11.5158
▁শূন্যস্থান	-11.5162
▁ক্লিনিক	-11.5164
▁কসম	-11.5164
▁ইস্	-11.5165
▁ভিলা	-11.5167
পঞ্চ	-11.5167
ুদ	-11.5168
▁৫ই	-11.5169
▁পারদর্শীতা	-11.517
▁উদযাপ	-11.5171
▁নার্স	-11.5171
▁৩৫০	-11.5171
▁এয়ারলাইন	-11.5173
সায়	-11.5174
▁সহায়তার	-11.5175
▁মধুসূদন	-11.5176
▁মোকাবিলা	-11.5176
▁শায়েস্তা	-11.5176
▁উৎকীর্ণ	-11.5176
চারী	-11.5177
▁শিকড়	-11.5177
ডেম	-11.5177
▁কার্যনির্বাহী	-11.5178
▁জুয়া	-11.518
▁কঙ্কাল	-11.518
▁বিবিধ	-11.518
পর্যায়	-11.518
▁চরণ	-11.5181
মাটি	-11.5182
▁অজয়	-11.5185
▁ভাটি	-11.5186
রাবি	-11.5186
▁বিবর্তনীয়	-11.5194
ল্ক	-11.5196
্বে	-11.5196
▁Ne	-11.5197
▁দক্ষিণপূর্ব	-11.5197
▁মাগুরা	-11.5199
▁উত্তরাংশে	-11.5199
▁Br	-11.52
▁ইতি	-11.5201
▁বুর	-11.5202
▁ফেল	-11.5203
▁শিক্ষার্থীর	-11.5203
▁বিশেষজ্ঞদের	-11.5204
▁পরামর্শে	-11.5204
▁ম্যাট্রিক	-11.5205
▁মানি	-11.5205
▁নেপালি	-11.5207
▁14	-11.5208
▁আইইউসিএন	-11.5209
▁বিআরটিএস	-11.5209
▁ঠাণ্ডা	-11.5209
▁অভিমুখীতা	-11.5209
▁আলমগীর	-11.521
▁ফ্রাংক	-11.521
▁স্লোগান	-11.521
▁বার্লিনে	-11.521
▁লাদেন	-11.5211
▁মেয়েকে	-11.5211
▁যাদুঘর	-11.5214
▁হাঁকান	-11.5214
সামগ্রী	-11.5219
কান্দা	-11.5221
▁Th	-11.5222
পাত্র	-11.5225
কার্	-11.5227
▁কাজল	-11.5228
▁খোল	-11.5229
টিকা	-11.5229
▁পিয়া	-11.523
পিন	-11.5231
▁পাল্লা	-11.5231
▁আইস	-11.5231
▁শাক্ত	-11.5231
হিদ	-11.5232
জিও	-11.5232
tro	-11.5232
▁ফ্লোর	-11.5235
▁মহি	-11.5236
▁ফিনল্যান্ড	-11.5236
▁আব্রাহাম	-11.5237
78	-11.5238
▁প্রত্যেকেই	-11.5238
▁মেটা	-11.5239
ring	-11.5241
গৃহ	-11.5241
ঘটিত	-11.5241
▁সংস্থাটির	-11.5242
▁পরবর্তি	-11.5242
▁ওয়ারউইকশায়ার	-11.5243
▁কোপার্নিকাস	-11.5243
▁দূরবীক্ষণ	-11.5243
▁পশ্চাৎ	-11.5243
▁কোলকাতা	-11.5243
▁স্ট্যানফোর্ড	-11.5243
▁আইওসি	-11.5244
গ্রোস	-11.5245
▁ব্লাক	-11.5245
কারে	-11.5248
▁নুন	-11.5249
▁মার্শ	-11.525
▁ওয়েবসাইটে	-11.5251
▁তুলেছিল	-11.5253
▁চারা	-11.5253
সূত্রে	-11.5255
▁প্রার্থীতা	-11.5255
▁চেয়েছিল	-11.5256
Xc	-11.5258
▁টিভিতে	-11.526
▁কথাও	-11.5262
▁প্রাকৃত	-11.5263
▁জেনার	-11.5267
▁ভীত	-11.5267
▁ওয়ার্ক	-11.5267
▁বৃ	-11.5272
▁অনি	-11.5273
▁ইসলামাবাদ	-11.5273
▁দুবার	-11.5274
▁তৈ	-11.5274
▁সিপাহী	-11.5277
▁হ্যাম্পশায়ার	-11.5277
▁শোভাযাত্রা	-11.5277
▁ক্ষতিপূরণ	-11.5277
▁প্রাক্কালে	-11.5278
▁ভাঙন	-11.5278
▁আইপিএল	-11.5279
▁মোরা	-11.5279
▁লক্ষ্যবস্তু	-11.528
আত	-11.528
▁জাদুঘরটি	-11.528
▁বেনিন	-11.5282
মেয়ার	-11.5282
শিক্ষক	-11.5284
XN	-11.5285
▁বৈচিত্র	-11.5286
▁জিনোম	-11.5286
কৃ	-11.5287
▁দ্বীপগুলি	-11.5288
▁রাজ্যগুলি	-11.5288
খাত	-11.5289
art	-11.5289
ব্রিজ	-11.529
প্রতিনিধিত্বকারী	-11.529
েন্দু	-11.5291
▁সমুহ	-11.5292
{\	-11.5294
▁বাতাসে	-11.5294
▁১২০০	-11.5296
▁৩৬০	-11.5298
▁কুরু	-11.5299
ওয়েস্ট	-11.5299
▁সদা	-11.5301
▁মার্গ	-11.5301
বাদীদের	-11.5305
য়ং	-11.5305
▁উড়োজাহাজ	-11.5311
▁কর্ণফুলি	-11.5311
▁শাহরুখ	-11.5311
▁স্বল্পদৈর্ঘ্য	-11.5311
▁হেজাজ	-11.5312
▁একাকী	-11.5312
মিট	-11.5316
▁some	-11.5317
▁সফটওয়্যারের	-11.5319
▁কর্তা	-11.5319
▁নথিপত্র	-11.532
▁ধ্রুপদি	-11.5321
▁স্বত্ব	-11.5321
সংলগ্ন	-11.5321
ড্রো	-11.5322
ology	-11.5323
কুট	-11.5324
▁নগরে	-11.5325
▁শরৎ	-11.5325
খালিদ	-11.5327
▁অরবিন্দ	-11.5328
▁পূর্বেকার	-11.5329
▁চিফ	-11.533
▁মন্ত্রীসভা	-11.533
দিনে	-11.5332
▁আকাঙ্ক্ষা	-11.5332
▁অর্থনৈতিকভাবে	-11.5334
ম্বী	-11.5336
▁দিঘি	-11.5336
৭০০	-11.5336
▁পুরী	-11.5336
গানের	-11.5337
▁প্রচারক	-11.5337
▁উপসাগরে	-11.534
▁প্রকৌশলের	-11.534
▁বাদক	-11.5341
▁মাদ্রাসায়	-11.5343
▁এ্যান্ড	-11.5344
▁ঘেঁষে	-11.5345
▁মোহনবাগান	-11.5345
▁প্যাটেন্ট	-11.5346
▁শ্রীকৃষ্ণ	-11.5347
▁এনওয়াই	-11.5347
▁মেমরি	-11.5348
▁অমান্য	-11.5349
▁তারই	-11.5351
28	-11.5351
▁১৮৬৭	-11.5353
▁New	-11.5354
জন্য	-11.5356
ff	-11.5356
▁পাতাল	-11.5357
▁ফলিত	-11.5358
nc	-11.5365
car	-11.5365
বর্তন	-11.5366
▁লাভজনক	-11.5366
জাগ	-11.5367
▁জড়	-11.5368
রক্ষকের	-11.537
Xh	-11.5374
▁So	-11.5378
▁রেস্টুরেন্ট	-11.5379
▁লোভাটো	-11.5379
▁সংস্করন	-11.5379
▁চমকপ্রদ	-11.5379
▁অবকাশ	-11.5379
▁বাঙলা	-11.538
▁তেলেগু	-11.538
মূ	-11.538
▁বামহাতে	-11.538
▁এড়াতে	-11.538
লিতে	-11.5381
নাশক	-11.5381
▁কার্লোস	-11.5382
▁যমজ	-11.5385
▁মাজ	-11.5385
▁ব্যাকরণের	-11.5385
তালিকা	-11.5387
▁লাসা	-11.5388
▁ম্যাট	-11.5389
▁খুঁজতে	-11.539
▁ধারাবাহিকটি	-11.5391
▁থিয়েটারের	-11.5394
▁স্পা	-11.5396
▁রুপা	-11.5398
▁শৈশবকাল	-11.54
▁পার্বতী	-11.5401
▁গ্রামটি	-11.5405
▁আভা	-11.5405
log	-11.5406
▁উৎসের	-11.5407
▁সাতজন	-11.5407
▁সিলভার	-11.5409
▁বাজারজাত	-11.5413
▁জারী	-11.5413
pp	-11.5414
▁আচ্ছাদিত	-11.5414
▁প্রোডাকশন	-11.5414
▁সুলায়মান	-11.5414
▁গণভোট	-11.5414
▁মেশানো	-11.5414
েয়া	-11.5414
▁প্রজাপতির	-11.5415
▁সভাপতিত্ব	-11.5416
দ্জিন	-11.5416
▁চড়ে	-11.5417
গমন	-11.542
▁সেবন	-11.5421
▁শিখতে	-11.5421
▁o	-11.5421
▁অনলাইনে	-11.5422
▁বহির্ভূত	-11.5423
so	-11.5424
সেনের	-11.5424
ধারার	-11.5424
▁বৃহস্পতি	-11.5425
রুদ্ধ	-11.5425
▁সিডনিতে	-11.5426
জাহান	-11.5427
লক্ষ্মী	-11.5427
▁আগামী	-11.5428
▁সর্বদাই	-11.5429
সিজদা	-11.5429
খোলা	-11.543
▁রেনেসাঁ	-11.5431
▁উপকারী	-11.5431
▁থেরাপি	-11.5432
▁th	-11.5434
▁প্রতিনিধিদল	-11.5436
▁ব্যবধান	-11.544
▁বাহিরে	-11.5441
▁বিস্ফোরণের	-11.5442
▁সাইফ	-11.5443
ডাস	-11.5444
ভিশন	-11.5444
হিজর	-11.5445
▁ফাঁক	-11.5445
▁কবিদের	-11.5447
▁অস্ত্রোপচার	-11.5448
▁আমন্ত্রিত	-11.5448
▁জগদ্ধাত্রী	-11.5448
▁ব্যাঙ্গালোর	-11.5448
▁টলেমি	-11.5448
▁অণুসারে	-11.5448
▁অবহেলা	-11.5448
arch	-11.5449
▁রেস্তোরাঁ	-11.5449
▁উপকূলবর্তী	-11.5449
align	-11.545
▁নিরসন	-11.5451
▁ময়না	-11.5451
▁নিবেদিত	-11.5452
েটেড	-11.5452
▁মহলে	-11.5452
▁দায়িত্বপালন	-11.5452
▁সেক্টরে	-11.5453
▁j	-11.5454
▁ফুলে	-11.5458
▁উপজাতীয়	-11.5459
ভার্স	-11.5459
▁মৌজায়	-11.546
ঊ	-11.5461
োট	-11.5461
▁প্রতিমন্ত্রী	-11.5464
িংস	-11.5465
সাহ	-11.5466
▁কেন্দ্রস্থলে	-11.5467
▁বাঁক	-11.5468
▁বুনো	-11.547
▁ব্যবসায়ীদের	-11.547
তলে	-11.5471
▁শয্যা	-11.5471
side	-11.5472
▁ba	-11.5476
▁কাউন্ট	-11.5477
ward	-11.5479
ৃত	-11.548
্বি	-11.5482
সিয়াস	-11.5482
▁সংক্রান্তি	-11.5482
▁অপ্রত্যাশিত	-11.5483
▁বিমূর্ত	-11.5483
▁মন্ত্রক	-11.5483
▁মালয়ালম	-11.5483
▁চিন্তাভাবনা	-11.5483
▁শ্রুতি	-11.5485
▁my	-11.5485
▁সার্কাস	-11.5486
▁অটোমান	-11.5487
▁কচি	-11.5487
▁শী	-11.5489
▁পর্বতে	-11.5491
মীর	-11.5492
ুয়েল	-11.5492
ওয়াজ	-11.5493
▁দ্বীপপুঞ্জে	-11.5494
সংঘ	-11.5495
▁নগরীতে	-11.5496
▁মুনি	-11.5498
সাময়িকভাবে	-11.5498
সিডি	-11.5498
সিয়াম	-11.55
তাবাদ	-11.5501
ক্লে	-11.5501
▁গুজ	-11.5501
ix	-11.5502
সঙ্গ	-11.5502
ae	-11.5504
▁মিটারের	-11.5506
▁চুলের	-11.5506
▁রেইন	-11.5507
▁যাত্রার	-11.5509
য়েন্ট	-11.5509
▁বিশেষ্য	-11.5514
▁লালা	-11.5515
▁শান্তিপূর্ণ	-11.5516
▁হই	-11.5516
▁হরিশ্চন্দ্র	-11.5518
nt	-11.5518
▁ঈদগাহ	-11.5518
▁রপ্তানী	-11.5518
less	-11.5519
▁মেমোরি	-11.5519
▁উচ্ছেদ	-11.552
▁মহাবীর	-11.5521
দ্দি	-11.5523
▁রায়পুর	-11.5526
▁দানা	-11.5528
▁ওয়ালেস	-11.5529
তামিম	-11.5529
কিন্স	-11.553
রোধ	-11.5531
মোহাম্মদ	-11.5532
▁ইউরোপীয়ান	-11.5533
পাক	-11.5536
▁কলোনি	-11.5537
▁অধ্যায়ে	-11.5539
▁ইন্ডাস্ট্রি	-11.5539
▁রড	-11.5539
▁ডট	-11.554
▁কমার্স	-11.5541
ফত	-11.5543
▁ট্রে	-11.5544
▁বাঘা	-11.5546
▁তারেক	-11.5547
্রু	-11.5548
িকভাবে	-11.5548
▁গীতি	-11.555
বেট	-11.555
▁মেয়েরা	-11.5551
▁কুইন্সল্যান্ডের	-11.5552
▁কৌশলের	-11.5552
▁সহজলভ্য	-11.5552
▁ইরিত্রিয়া	-11.5552
▁পুরস্কৃত	-11.5552
▁মুজাহিদ	-11.5552
পন্থি	-11.5552
▁খাইবার	-11.5552
▁মোঘল	-11.5552
▁ওড়িয়া	-11.5553
▁সাইবেরিয়া	-11.5553
▁সোডিয়াম	-11.5553
▁হাঁটু	-11.5553
▁গ্রাহাম	-11.5553
▁বাড়াতে	-11.5553
▁him	-11.5553
▁অসন্তোষ	-11.5553
▁ব্যায়াম	-11.5553
▁নিউট্রন	-11.5554
েটিক	-11.5557
▁ওয়াটসন	-11.5559
হীনতা	-11.5562
▁ওয়াহ	-11.5564
▁লেহ	-11.5567
▁জবাব	-11.5568
মুত্তালিব	-11.5568
▁সামগ্রিকভাবে	-11.557
ইক	-11.5574
▁জেরুসালেম	-11.5578
▁ব্যাপ্তি	-11.5579
▁বিকাশে	-11.558
▁আখ্যান	-11.558
▁প্রস্থান	-11.558
প্রান্ত	-11.5584
▁ক্রোধ	-11.5584
▁উড়	-11.5587
▁এম্পায়ার	-11.5587
▁নৃত্যশিল্পী	-11.5588
▁পাঠাগার	-11.5589
▁প্রবেশাধিকার	-11.5589
▁ওয়াইল্ড	-11.5589
▁হাওয়ার্ড	-11.5589
▁বানানোর	-11.559
▁জাবাল	-11.559
▁more	-11.5591
ক্ষিত	-11.5591
▁চিত্রায়িত	-11.5592
মন্ট	-11.5593
▁মুজিবের	-11.5595
▁ওয়াল্ট	-11.5595
▁সঙ্ঘ	-11.5596
▁সমকামীদের	-11.5596
▁ফ্যাক্টরি	-11.5598
▁ডেভেলপার	-11.5598
▁শ্যামা	-11.5598
টেট	-11.5599
▁ক্ষ	-11.5599
▁কাজেই	-11.5601
▁হাবল	-11.5601
▁পাওয়ায়	-11.5605
▁যায়িদ	-11.5605
▁খোঁজে	-11.5606
র্জন	-11.5606
▁চাহিদার	-11.5608
ple	-11.5609
▁ভাণ্ডার	-11.5609
▁ডিও	-11.5609
▁রৈখিক	-11.5611
াব্দে	-11.5611
▁কঠোরভাবে	-11.5613
একজন	-11.5613
▁অ্যাডভেঞ্চার	-11.5613
▁কাপ্তাই	-11.5616
ঝু	-11.5616
নাজম	-11.5617
সুম	-11.5617
▁কাঁ	-11.5618
▁জোহর	-11.562
▁মাহি	-11.562
▁নির্ভুল	-11.5622
▁ব্যাটালিয়ন	-11.5622
▁ইয়াকুব	-11.5623
▁কার্যাবলী	-11.5623
▁পাচ	-11.5624
▁বন্টন	-11.5625
▁সেনাপ্রধান	-11.5625
চ্ছিলেন	-11.5625
XP	-11.5626
▁সোমবার	-11.5627
▁তদ	-11.5627
▁নেভি	-11.5628
▁সংমিশ্রণ	-11.5628
তাব	-11.5629
▁রাইন	-11.5632
▁অঞ্চলটির	-11.5633
4.	-11.5633
▁দানের	-11.5634
▁অনুসারীদের	-11.5634
কালো	-11.5635
▁মাকে	-11.5635
নির্দেশ	-11.564
মুখে	-11.564
গ্রিক	-11.5641
▁শীর্ষস্থান	-11.5641
▁কাঁচ	-11.5641
▁সেশন	-11.5641
▁অনুষদে	-11.5642
▁নাদির	-11.5643
▁সিলেটে	-11.5646
▁পিস	-11.5648
▁শেখা	-11.5649
XB	-11.5651
▁জব	-11.5652
▁প্রকৃতিতে	-11.5655
▁ঘণ্টার	-11.5657
▁ক্যাথিড্রাল	-11.5658
▁পান্ডুলিপি	-11.5658
মুনাফিক	-11.5658
▁ধনাত্মক	-11.5658
▁গরিব	-11.5658
▁যুদ্ধবিরতি	-11.5659
▁টুকরা	-11.566
▁সুইচ	-11.566
▁ক্রিয়ার	-11.566
13	-11.566
▁চিত্রগ্রহণ	-11.5661
▁অভিনয়ে	-11.5661
▁১৮৮১	-11.5663
▁জোরদার	-11.5663
য়েক	-11.5663
▁জামান	-11.5663
▁পরিভাষাটি	-11.5664
▁বহুসংখ্যক	-11.5664
সম্পর্ক	-11.5665
▁দড়ি	-11.5667
sc	-11.5667
▁পিল	-11.5668
ee	-11.5668
▁কিয়েভ	-11.5669
XJ	-11.5669
▁ডাকাত	-11.567
rit	-11.5671
▁১০ই	-11.5671
▁সন্ত্রাস	-11.5673
ঘোষ	-11.5676
▁সদস্যসংখ্যা	-11.5676
▁সংক্রমণের	-11.568
িয়েন	-11.5681
য়িং	-11.5683
ভিং	-11.5683
▁হ্যারিসন	-11.5683
যুদ্ধে	-11.5683
প্রতিনিধিত্বমূলক	-11.5684
স্পা	-11.5685
▁স্কেলে	-11.5688
মুক	-11.5689
▁পেরুর	-11.569
সদস্যের	-11.569
▁খাতের	-11.5691
▁রাখলে	-11.5693
জিয়ান	-11.5693
▁FIFA	-11.5693
▁ভেল	-11.5693
▁ফেসবুক	-11.5693
▁ত্রিমাত্রিক	-11.5693
ভাগের	-11.5695
হেল	-11.5696
বৃত	-11.5697
▁ভিক্ষুর	-11.5697
▁অ্যাথলেটিক	-11.5698
▁বদ্বীপ	-11.5698
▁প্রকাশনী	-11.5698
▁অনুকরণ	-11.5699
▁যন্ত্রটি	-11.57
স্বর	-11.5702
▁ঘোর	-11.5702
▁রাজেন্দ্র	-11.5703
▁ro	-11.5704
▁আইডি	-11.5704
▁ফান	-11.5705
▁ইলেকট্রনিক্স	-11.5705
▁বোল্ট	-11.5706
▁খেয়াল	-11.5707
ভদ্র	-11.5708
mp	-11.5708
▁অযোগ্য	-11.5709
শিয়ার	-11.571
▁শত্রুর	-11.5712
▁স্বর্গে	-11.5716
▁কূপ	-11.5716
▁পৃষ্ঠপোষকতায়	-11.5718
পত	-11.5718
▁মিশেল	-11.5718
▁রেকর্ডের	-11.5718
▁সামার	-11.5723
▁চিত্রা	-11.5724
▁ভ্রমণে	-11.5728
▁অব্যবহিত	-11.5728
▁ইন্তেকাল	-11.5728
▁গীর্জা	-11.5728
▁হতাহত	-11.5728
▁কাঁকড়া	-11.5729
▁রুপান্তরিত	-11.5732
▁কার্জন	-11.5732
নাম্স	-11.5733
▁প্রকট	-11.5734
▁বাক্যের	-11.5734
▁পরোক্ষভাবে	-11.5734
ারা	-11.5737
▁হার্ব	-11.5739
▁ইন্স	-11.574
াদেশ	-11.5743
▁বর্ম	-11.5744
র্ধ	-11.5744
ল্লো	-11.5745
▁কামার	-11.5746
স্তম্ভ	-11.5748
গেল	-11.5749
▁লাইনটি	-11.5749
▁জবাবে	-11.575
ছিলো	-11.575
▁ঝিনাইদহ	-11.5751
▁নির্দেশনায়	-11.5752
▁ফৌজদার	-11.5755
▁হতেই	-11.5756
▁সাইমন	-11.576
▁অঞ্চলগুলো	-11.5761
▁আয়ত্ত	-11.5762
▁জয়ন্তী	-11.5762
▁করপোরেশন	-11.5764
▁অনবদ্য	-11.5764
▁প্রাচুর্য	-11.5764
▁সংযোজিত	-11.5764
▁সরিষা	-11.5764
▁শুক্রাণু	-11.5764
▁কাতালান	-11.5764
▁অপব্যবহার	-11.5764
জ্বিন	-11.5765
des	-11.5765
▁নির্মূল	-11.5765
▁শামুক	-11.5765
▁ইনপুট	-11.5765
▁পুনে	-11.5766
াকি	-11.5769
lic	-11.577
▁সুত্র	-11.577
▁ক্রিকেটারদের	-11.577
▁টানেল	-11.5771
▁নিচেরসারি	-11.5773
▁বিষয়গুলি	-11.5774
▁লিজ	-11.5775
▁বাচ্চাদের	-11.5776
ুশ	-11.5779
sk	-11.578
কাহিনী	-11.5781
▁তৎপরতা	-11.5781
▁উঠ	-11.5783
কলকাতা	-11.5784
হির	-11.5787
▁কাপড়ের	-11.579
▁রীতির	-11.5791
ung	-11.5795
▁জলীয়	-11.5798
▁উজবেক	-11.58
▁আশীর্বাদ	-11.58
▁এন্টারটেইনমেন্ট	-11.58
▁ডেমোক্রেটিক	-11.58
▁পোকামাকড়	-11.58
▁ব্রাউজার	-11.58
▁অধিকারে	-11.58
▁ভোটাধিকার	-11.58
▁কৃষ্ণা	-11.5801
▁তৃতীয়াংশ	-11.5802
▁রূপরেখা	-11.5803
ইয়ান	-11.5804
▁সূচিত	-11.5804
খিল	-11.5806
▁রামচন্দ্র	-11.5807
▁সস্তা	-11.5807
সর্ব	-11.5807
▁পৌঁছান	-11.5809
▁হোটেলে	-11.5809
ীল	-11.5809
লিয়ন	-11.581
▁ফসলের	-11.5812
▁প্লেগ	-11.5812
▁হাজি	-11.5815
নাট	-11.5815
ঞ্চি	-11.5816
▁পেরেছেন	-11.5816
▁চারিদিকে	-11.5817
▁পার্টিতে	-11.5817
সারির	-11.5821
▁রিপোর্টে	-11.5822
পরা	-11.5822
▁ব্লকটি	-11.5822
থন	-11.5823
ঙ্কার	-11.5824
45	-11.5824
▁যাবত	-11.5825
শৈলী	-11.5825
▁ডুব	-11.5828
▁স্টুডিওতে	-11.5828
▁গোলা	-11.5828
ন্যাস	-11.5831
▁ইত্যাদিতে	-11.5832
▁গাঙ্গেয়	-11.5834
▁এলাহাবাদ	-11.5836
▁নীহারিকা	-11.5836
▁ভগবদ্গীতা	-11.5836
▁হুযায়ফা	-11.5836
▁চ্যাপ্টা	-11.5836
▁উকিল	-11.5837
▁নওয়াজ	-11.5837
▁কুইন্সল্যান্ড	-11.5837
▁বর্ডার	-11.5837
▁ডেঙ্গু	-11.5837
▁নিয়ন্ত্রণাধীন	-11.5838
▁অপূর্ব	-11.5839
▁মহেশ	-11.5839
▁অনশন	-11.5842
▁ব্যস্ততম	-11.5842
চরিত্র	-11.5843
▁ফিফার	-11.5843
[...]
